{
  "version": "1.0",
  "truncation": null,
  "padding": null,
  "added_tokens": [
    {
      "id": 0,
      "special": true,
      "content": "<s>",
      "single_word": false,
      "lstrip": false,
      "rstrip": false,
      "normalized": false
    },
    {
      "id": 1,
      "special": true,
      "content": "<pad>",
      "single_word": false,
      "lstrip": false,
      "rstrip": false,
      "normalized": false
    },
    {
      "id": 2,
      "special": true,
      "content": "</s>",
      "single_word": false,
      "lstrip": false,
      "rstrip": false,
      "normalized": false
    },
    {
      "id": 3,
      "special": true,
      "content": "<unk>",
      "single_word": false,
      "lstrip": false,
      "rstrip": false,
      "normalized": false
    },
    {
      "id": 4,
      "special": true,
      "content": "<mask>",
      "single_word": false,
      "lstrip": false,
      "rstrip": false,
      "normalized": false
    }
  ],
  "normalizer": null,
  "pre_tokenizer": {
    "type": "ByteLevel",
    "add_prefix_space": false,
    "trim_offsets": true
  },
  "post_processor": null,
  "decoder": null,
  "model": {
    "type": "BPE",
    "dropout": null,
    "unk_token": null,
    "continuing_subword_prefix": null,
    "end_of_word_suffix": null,
    "fuse_unk": false,
    "vocab": {
      "<s>": 0,
      "<pad>": 1,
      "</s>": 2,
      "<unk>": 3,
      "<mask>": 4,
      "A": 5,
      "B": 6,
      "C": 7,
      "D": 8,
      "E": 9,
      "F": 10,
      "G": 11,
      "H": 12,
      "I": 13,
      "J": 14,
      "K": 15,
      "L": 16,
      "M": 17,
      "N": 18,
      "O": 19,
      "P": 20,
      "Q": 21,
      "R": 22,
      "S": 23,
      "T": 24,
      "U": 25,
      "V": 26,
      "W": 27,
      "X": 28,
      "Y": 29,
      "Z": 30,
      "_": 31,
      "a": 32,
      "b": 33,
      "c": 34,
      "d": 35,
      "e": 36,
      "f": 37,
      "g": 38,
      "h": 39,
      "i": 40,
      "j": 41,
      "k": 42,
      "l": 43,
      "m": 44,
      "n": 45,
      "o": 46,
      "p": 47,
      "q": 48,
      "r": 49,
      "s": 50,
      "t": 51,
      "u": 52,
      "v": 53,
      "w": 54,
      "x": 55,
      "y": 56,
      "z": 57,
      "¡": 58,
      "¢": 59,
      "£": 60,
      "¤": 61,
      "¥": 62,
      "¦": 63,
      "§": 64,
      "¨": 65,
      "©": 66,
      "ª": 67,
      "«": 68,
      "¬": 69,
      "®": 70,
      "¯": 71,
      "°": 72,
      "±": 73,
      "²": 74,
      "³": 75,
      "´": 76,
      "µ": 77,
      "¶": 78,
      "·": 79,
      "¸": 80,
      "¹": 81,
      "º": 82,
      "»": 83,
      "¼": 84,
      "½": 85,
      "¾": 86,
      "¿": 87,
      "Ã": 88,
      "Ä": 89,
      "Å": 90,
      "Æ": 91,
      "É": 92,
      "Ê": 93,
      "Ì": 94,
      "Í": 95,
      "Î": 96,
      "Ï": 97,
      "Ð": 98,
      "Ñ": 99,
      "Ò": 100,
      "Ó": 101,
      "Ø": 102,
      "Ù": 103,
      "à": 104,
      "á": 105,
      "â": 106,
      "ä": 107,
      "å": 108,
      "æ": 109,
      "ç": 110,
      "è": 111,
      "é": 112,
      "ï": 113,
      "ð": 114,
      "Ġ": 115,
      "Ģ": 116,
      "ģ": 117,
      "Ĥ": 118,
      "ĥ": 119,
      "Ħ": 120,
      "ħ": 121,
      "Ĩ": 122,
      "ĩ": 123,
      "Ī": 124,
      "ī": 125,
      "Ĭ": 126,
      "ĭ": 127,
      "Į": 128,
      "į": 129,
      "İ": 130,
      "ı": 131,
      "Ĳ": 132,
      "ĳ": 133,
      "Ĵ": 134,
      "ĵ": 135,
      "Ķ": 136,
      "ķ": 137,
      "ĸ": 138,
      "Ĺ": 139,
      "ĺ": 140,
      "Ļ": 141,
      "ļ": 142,
      "Ľ": 143,
      "ľ": 144,
      "Ŀ": 145,
      "ŀ": 146,
      "Ł": 147,
      "ł": 148,
      "Ń": 149,
      "á»": 150,
      "áº": 151,
      "ng": 152,
      "Ġt": 153,
      "Ġc": 154,
      "ĠÄ": 155,
      "Ġn": 156,
      "Ãł": 157,
      "ĠÄĳ": 158,
      "hÃ": 159,
      "Ġl": 160,
      "Æ°": 161,
      "Ġv": 162,
      "Ġm": 163,
      "há»": 164,
      "Ġb": 165,
      "Ġk": 166,
      "nh": 167,
      "háº": 168,
      "Ã¡": 169,
      "iá»": 170,
      "Æ°á»": 171,
      "Ġd": 172,
      "Ã³": 173,
      "Ġg": 174,
      "Ġs": 175,
      "Ġng": 176,
      "Ã¢": 177,
      "Ġtr": 178,
      "Ãª": 179,
      "Ġch": 180,
      "ĠT": 181,
      "áº¡": 182,
      "Ġh": 183,
      "Ã´": 184,
      "áº¿": 185,
      "ĠÄĳá»": 186,
      "ĠlÃł": 187,
      "Ġp": 188,
      "ĠC": 189,
      "Ġnh": 190,
      "ĠthÃ": 191,
      "áº¥": 192,
      "Ġr": 193,
      "Ġth": 194,
      "áº£": 195,
      "Æ¡": 196,
      "Ġq": 197,
      "Ġcá»": 198,
      "Ġqu": 199,
      "ĠN": 200,
      "Ãªn": 201,
      "ĠV": 202,
      "iá»ĩ": 203,
      "Ġx": 204,
      "á»ĳ": 205,
      "Ã¬": 206,
      "ĠkhÃ": 207,
      "iáº¿": 208,
      "Ŀi": 209,
      "Ġchá»": 210,
      "an": 211,
      "ĠM": 212,
      "am": 213,
      "ay": 214,
      "´ng": 215,
      "ĠcÃ³": 216,
      "ai": 217,
      "ĠvÃł": 218,
      "Ġtá»": 219,
      "ĠH": 220,
      "Ġvá»": 221,
      "Ġgi": 222,
      "Ġhá»": 223,
      "uy": 224,
      "Ã¡c": 225,
      "Æ°á»Ľ": 226,
      "Ġtháº": 227,
      "ong": 228,
      "Ġmá»": 229,
      "Ã¢n": 230,
      "ĠkhÃ´ng": 231,
      "ĠnÃ³": 232,
      "Ľi": 233,
      "áºŃ": 234,
      "ĠthÃ¬": 235,
      "áº¡i": 236,
      "ao": 237,
      "Ġcho": 238,
      "Ġbá»": 239,
      "ĠchÃ": 240,
      "Æ°á»Ŀi": 241,
      "§a": 242,
      "áº¥t": 243,
      "áº§": 244,
      "Ġcá»§a": 245,
      "Æ°á»Ľc": 246,
      "iá»ģ": 247,
      "on": 248,
      "Å©": 249,
      "Ġthá»": 250,
      "ĠnÃł": 251,
      "anh": 252,
      "Äĥ": 253,
      "Ã´ng": 254,
      "ĠÄĲ": 255,
      "Ã£": 256,
      "á»ĵ": 257,
      "ang": 258,
      "Ã²": 259,
      "ĠmÃł": 260,
      "ĠngÆ°á»Ŀi": 261,
      "hi": 262,
      "iá»ĩt": 263,
      "Æ°á»£": 264,
      "em": 265,
      "háº£": 266,
      "in": 267,
      "Ġlá»": 268,
      "ch": 269,
      "ĠB": 270,
      "áº¯": 271,
      "ĠdÃ¢n": 272,
      "ung": 273,
      "inh": 274,
      "ĠP": 275,
      "ĠL": 276,
      "oi": 277,
      "ĠnhÆ°": 278,
      "ĠnÆ°á»Ľc": 279,
      "Æ°Æ¡": 280,
      "ĠphÃ": 281,
      "Ġá»": 282,
      "Ã¬nh": 283,
      "ĠlÃłm": 284,
      "Æ°á»£c": 285,
      "á»Ļ": 286,
      "Ġgiá»": 287,
      "ĠD": 288,
      "Å©ng": 289,
      "Ãº": 290,
      "á»¹": 291,
      "Ã¢y": 292,
      "uá»ĳ": 293,
      "ĥn": 294,
      "en": 295,
      "ĠcÃ¡c": 296,
      "Ġcháº": 297,
      "háº£i": 298,
      "ĠhÃ": 299,
      "Æ°Æ¡ng": 300,
      "ĠÄĳÆ°á»£c": 301,
      "ĠnhÃ": 302,
      "Ġsá»": 303,
      "á»ĵi": 304,
      "ĠÄĳá»ĥ": 305,
      "ĠTr": 306,
      "iáº¿t": 307,
      "Ã¢u": 308,
      "au": 309,
      "Ġnhá»": 310,
      "Ãłi": 311,
      "ĠÄĳi": 312,
      "Ġháº": 313,
      "Ã²n": 314,
      "Ã¹": 315,
      "ĠnÃ³i": 316,
      "ĠS": 317,
      "Ã¢m": 318,
      "Ã¡i": 319,
      "áº¡n": 320,
      "ĠViá»ĩt": 321,
      "ĠMá»¹": 322,
      "ÃŃ": 323,
      "ĠcÅ©ng": 324,
      "±ng": 325,
      "Ġcon": 326,
      "Ã´i": 327,
      "ĠK": 328,
      "ĠgÃ¬": 329,
      "ĠnÃły": 330,
      "Ãłn": 331,
      "áº¥y": 332,
      "Ġnháº": 333,
      "Ġpháº£i": 334,
      "Ġkh": 335,
      "Ġá»Ł": 336,
      "ĠÄĳÃ³": 337,
      "ua": 338,
      "Æ¡n": 339,
      "li": 340,
      "¢n": 341,
      "iá»ģu": 342,
      "Ġho": 343,
      "Ġrá»ĵi": 344,
      "ĠQ": 345,
      "©c": 346,
      "Ġtrá»": 347,
      "iÃªn": 348,
      "ĠVN": 349,
      "Ãłng": 350,
      "Ġhá»į": 351,
      "Ġcáº£": 352,
      "Ġlu": 353,
      "ĠNam": 354,
      "Ġvá»Ľi": 355,
      "Ġra": 356,
      "ĠG": 357,
      "ĠNg": 358,
      "uyá»": 359,
      "NG": 360,
      "áº·": 361,
      "Ġtrong": 362,
      "Æ¡i": 363,
      "ĠÄĳÃ£": 364,
      "iá»ģn": 365,
      "Ġngh": 366,
      "áº§n": 367,
      "Ġná»": 368,
      "ĠnÃło": 369,
      "Ġbá»ĭ": 370,
      "¯ng": 371,
      "ĠcÃ²n": 372,
      "áºŃy": 373,
      "iáº¿n": 374,
      "Ńt": 375,
      "Ã´n": 376,
      "Æ°a": 377,
      "ĠÄĥn": 378,
      "Æ°á»Ŀ": 379,
      "lip": 380,
      "ĳng": 381,
      "iá»ĩn": 382,
      "Ġláº¡i": 383,
      "¿t": 384,
      "Æ°á»Ŀng": 385,
      "Ġvá»ģ": 386,
      "Ġdá»": 387,
      "Ãªu": 388,
      "ĠÄĳá»Ļ": 389,
      "iá»ĥ": 390,
      "áº£n": 391,
      "áº½": 392,
      "Ã¡n": 393,
      "áº§u": 394,
      "ĠphÃ¡": 395,
      "Ã½": 396,
      "ie": 397,
      "Ńnh": 398,
      "ĠA": 399,
      "Ġph": 400,
      "Ġxem": 401,
      "Ġbiáº¿t": 402,
      "¥t": 403,
      "ĠchÃº": 404,
      "Ãłnh": 405,
      "eo": 406,
      "ģn": 407,
      "áº¿n": 408,
      "±c": 409,
      "Äĥm": 410,
      "Ġanh": 411,
      "Ġmá»Ľi": 412,
      "Ä©": 413,
      "áº»": 414,
      "Ġko": 415,
      "Ġkhi": 416,
      "ĠÃ´ng": 417,
      "Ġkhá»": 418,
      "Ġtháº¿": 419,
      "Ġqua": 420,
      "ac": 421,
      "ÄĲ": 422,
      "Ġchá»ī": 423,
      "ĠÄĳÃ¢u": 424,
      "ĠcÃ´ng": 425,
      "Ļt": 426,
      "ĠvÃło": 427,
      "Ġtiá»ģn": 428,
      "Ġnhiá»ģu": 429,
      "Äĥng": 430,
      "Ġtá»«": 431,
      "Ġdo": 432,
      "Ġsao": 433,
      "Ġquy": 434,
      "Ġai": 435,
      "Ġto": 436,
      "Ġbáº¡n": 437,
      "á»ĳc": 438,
      "´i": 439,
      "ĠÄĳÃ¡": 440,
      "Ġmá»Ļt": 441,
      "ĠÄĳá»ĵ": 442,
      "Ġhay": 443,
      "ĠnhÃł": 444,
      "ĠquÃ¡": 445,
      "uá»ĳn": 446,
      "Ġta": 447,
      "Ã¡o": 448,
      "Ãły": 449,
      "Ġnhá»¯ng": 450,
      "ĠcÃ¡i": 451,
      "Ġem": 452,
      "ĠÄĳáº¥t": 453,
      "á»į": 454,
      "Ġsáº½": 455,
      "Ġtáº¡i": 456,
      "Ġráº¥t": 457,
      "ĠváºŃy": 458,
      "áº¡o": 459,
      "Ã¹ng": 460,
      "ĠchÃŃnh": 461,
      "at": 462,
      "ĠnÃªn": 463,
      "iá»ĥu": 464,
      "áº£ng": 465,
      "áºŃp": 466,
      "Ã©": 467,
      "ĠthÃ´i": 468,
      "Ġtu": 469,
      "ĠmÃ¬nh": 470,
      "hÃº": 471,
      "ĠlÃªn": 472,
      "Ġmuá»ĳn": 473,
      "áº¹": 474,
      "Ġsá»ĳ": 475,
      "Ġchá»©": 476,
      "ĠnhÃ¢n": 477,
      "ĠÄĳáº¿n": 478,
      "oc": 479,
      "Ļi": 480,
      "Ġpháº": 481,
      "Ġthu": 482,
      "Ġgiá»Ŀ": 483,
      "áº¿u": 484,
      "ĠÄĳá»ĵng": 485,
      "Ġlo": 486,
      "Ġy": 487,
      "ķi": 488,
      "¥c": 489,
      "ĠhÃłng": 490,
      "¥y": 491,
      "áº«": 492,
      "Ãło": 493,
      "¯a": 494,
      "ĠtÃ´i": 495,
      "Ġco": 496,
      "Ġtiáº¿": 497,
      "ĠvÃ¬": 498,
      "Ļng": 499,
      "ĠkhÃ¡": 500,
      "ıi": 501,
      "ĠTh": 502,
      "áº£o": 503,
      "uyÃªn": 504,
      "Ġháº¿t": 505,
      "ĠÄĳang": 506,
      "Ġquá»ĳc": 507,
      "ĠchÃºng": 508,
      "ĭch": 509,
      "Ġcá»Ļng": 510,
      "Ġnam": 511,
      "Ġnay": 512,
      "ĠnhÆ°ng": 513,
      "ĠU": 514,
      "áº¯t": 515,
      "Ġsá»±": 516,
      "ÃĶ": 517,
      "áºŃt": 518,
      "ĠnÄĥm": 519,
      "ĠhÆ¡n": 520,
      "ĠngÃły": 521,
      "Ãºng": 522,
      "Ġhá»įc": 523,
      "Em": 524,
      "Ġa": 525,
      "áº±ng": 526,
      "ĠÄĳÃ¢y": 527,
      "Äĥn": 528,
      "Ġgiá»Ľi": 529,
      "Ġnháº¥t": 530,
      "ÃĢ": 531,
      "Ġcu": 532,
      "st": 533,
      "Ġtá»±": 534,
      "ĠluÃ´n": 535,
      "áº«n": 536,
      "Æ¯": 537,
      "Ġtháº±ng": 538,
      "Ġchiáº¿n": 539,
      "iet": 540,
      "«ng": 541,
      "Ng": 542,
      "uyá»ĩ": 543,
      "el": 544,
      "ĠÄĲá»": 545,
      "áº¯c": 546,
      "ĠX": 547,
      "ĠÄĳáº§u": 548,
      "ĠdÃ¢m": 549,
      "ĠCH": 550,
      "įn": 551,
      "Ġca": 552,
      "Ġvi": 553,
      "er": 554,
      "áº¡nh": 555,
      "áºŃn": 556,
      "ĠTH": 557,
      "Ġcá»©": 558,
      "Ġtin": 559,
      "Ġvn": 560,
      "ĠvÃ´": 561,
      "Ġngay": 562,
      "Ġngo": 563,
      "Æ°á»Ł": 564,
      "ĠtrÃªn": 565,
      "Ġngu": 566,
      "Ġtá»ĳ": 567,
      "Ġquan": 568,
      "ui": 569,
      "Ġháº¡": 570,
      "Ġbao": 571,
      "á»ģn": 572,
      "ĠtÆ°": 573,
      "Ġgia": 574,
      "Ã¡m": 575,
      "Ġchi": 576,
      "Ġquyá»ģn": 577,
      "ĠÄĳÃ¡nh": 578,
      "Æ°á»Łng": 579,
      "³ng": 580,
      "ħn": 581,
      "Ã¡t": 582,
      "áº£i": 583,
      "Ġtháº¥y": 584,
      "Ġo": 585,
      "Ġthá»ĥ": 586,
      "Ġmá»¹": 587,
      "Ġná»¯a": 588,
      "Ãģ": 589,
      "ĠtháºŃt": 590,
      "á»Ļc": 591,
      "ll": 592,
      "Ġmua": 593,
      "Ġtheo": 594,
      "Ġchá»§": 595,
      "Ġchá»ĳng": 596,
      "ĠnháºŃ": 597,
      "Ġla": 598,
      "uá»ĳc": 599,
      "«a": 600,
      "ĳi": 601,
      "Ġminh": 602,
      "Æ°ng": 603,
      "á»ĵng": 604,
      "ĠÆ¡n": 605,
      "Ġtranh": 606,
      "ĠchÆ°a": 607,
      "ĠthÃ¡": 608,
      "áº·t": 609,
      "Ġká»": 610,
      "Ġthi": 611,
      "ĠQu": 612,
      "Ġmáº¥y": 613,
      "Ġnghe": 614,
      "NH": 615,
      "Ġf": 616,
      "Ġphá»": 617,
      "Ġbá»įn": 618,
      "ĠnghÄ©": 619,
      "uc": 620,
      "ĠtoÃłn": 621,
      "¸ı": 622,
      "ÃĤ": 623,
      "ï¸ı": 624,
      "áº¿t": 625,
      "háºŃt": 626,
      "Ġsáº£n": 627,
      "áº¥u": 628,
      "Ġtham": 629,
      "ĠTá»": 630,
      "iáº¿m": 631,
      "ĠPhi": 632,
      "ÃŃch": 633,
      "iÃªu": 634,
      "Ãłu": 635,
      "ĠbÃ¡n": 636,
      "ĠthÃłnh": 637,
      "Ġtiáº¿ng": 638,
      "Ġan": 639,
      "iá»ĩc": 640,
      "ĠnhÃ©": 641,
      "ĠTrung": 642,
      "ĠI": 643,
      "Ġváº«n": 644,
      "Ġsau": 645,
      "hÃ¡": 646,
      "Ġhiá»ĥu": 647,
      "Ġtá»ķ": 648,
      "Ġsá»ĳng": 649,
      "ĠEm": 650,
      "iá»ĩu": 651,
      "áº¯m": 652,
      "al": 653,
      "ĠR": 654,
      "áº©": 655,
      "ĠtÃłi": 656,
      "Ġcháº¿t": 657,
      "áº·c": 658,
      "Ġkho": 659,
      "Ġviá»ĩc": 660,
      "Äĳ": 661,
      "ĠTR": 662,
      "Ġtay": 663,
      "Ġviá»ĩt": 664,
      "ĠkhÃ¡c": 665,
      "uyá»ĩn": 666,
      "ut": 667,
      "áĺ": 668,
      "ĠÄĳáº¡o": 669,
      "Ġma": 670,
      "ĠphÃ¡t": 671,
      "áĺī": 672,
      "iá»ĥn": 673,
      "áº¥n": 674,
      "ĠQuá»ĳc": 675,
      "ĠÆ¡i": 676,
      "įng": 677,
      "Ãºc": 678,
      "ar": 679,
      "ĠbÃ¬nh": 680,
      "ĠCh": 681,
      "Ġbá»ı": 682,
      "á»Ļi": 683,
      "ĠÄĳÃºng": 684,
      "ĠmÃ¡": 685,
      "Ch": 686,
      "uoc": 687,
      "ull": 688,
      "ĠbÃ¡c": 689,
      "hÃ´ng": 690,
      "Ġchu": 691,
      "ĠgiÃ¡": 692,
      "á»Ļt": 693,
      "ĠÄĳá»Ļng": 694,
      "Ġhá»Ļi": 695,
      "ĠF": 696,
      "Ġbá»ĳ": 697,
      "ĠtrÆ°á»Ľc": 698,
      "£i": 699,
      "§ng": 700,
      "ĠClip": 701,
      "Ãµ": 702,
      "Ġcao": 703,
      "Ġclip": 704,
      "¯c": 705,
      "ĠviÃªn": 706,
      "Ġbáº±ng": 707,
      "ĠCá»": 708,
      "áº¥p": 709,
      "ĠGi": 710,
      "ĠNH": 711,
      "Ġchá»ĭ": 712,
      "Iá»": 713,
      "Ġdi": 714,
      "ĠÄĳá»ģ": 715,
      "©ng": 716,
      "ĠlÃ£": 717,
      "ain": 718,
      "Ġhá»ĵ": 719,
      "ĠnháºŃn": 720,
      "Ġtrung": 721,
      "Ġcáº§n": 722,
      "Ġthá»Ŀi": 723,
      "ĠPhim": 724,
      "Ġbáº¯t": 725,
      "Æ°á»Ľng": 726,
      "§n": 727,
      "Ġláº¥y": 728,
      "ra": 729,
      "¬n": 730,
      "Ġbo": 731,
      "Ġsai": 732,
      "ĠÄĳá»ĭ": 733,
      "áº£m": 734,
      "ĠvÅ©": 735,
      "Ġmáº¥t": 736,
      "Ġvá»¥": 737,
      "ĠNga": 738,
      "á»įi": 739,
      "Æł": 740,
      "Ġu": 741,
      "ĠPhÃº": 742,
      "Clip": 743,
      "as": 744,
      "¡m": 745,
      "á»Ń": 746,
      "rain": 747,
      "Ġtáº¿": 748,
      "ĠÄĳáº£ng": 749,
      "ĠkÃ½": 750,
      "ĠHo": 751,
      "ĠchÃ¡": 752,
      "Æ°á»£ng": 753,
      "ĠphÃ¡p": 754,
      "ĠÄĳáº¡i": 755,
      "ĠhÆ°Æ¡ng": 756,
      "Ġtá»Ľi": 757,
      "Ġtá»ĳt": 758,
      "es": 759,
      "ĠbÃł": 760,
      "ĠChÃ": 761,
      "ĠquÃ¢n": 762,
      "Ã¡ch": 763,
      "á»Ļng": 764,
      "Ġbáº£n": 765,
      "Ġbáº£o": 766,
      "Tr": 767,
      "¨o": 768,
      "ÃĬ": 769,
      "ĠcÃ¹ng": 770,
      "Ġngá»": 771,
      "ĠtrÆ°á»Ŀng": 772,
      "ĠThá»": 773,
      "Ġthá»©c": 774,
      "iÃª": 775,
      "Ġcua": 776,
      "Ġláº¯m": 777,
      "ĠbÃªn": 778,
      "Ġnhau": 779,
      "ĠthÃª": 780,
      "ĠthÃ´ng": 781,
      "¥ng": 782,
      "ĠÄĳÆ°a": 783,
      "há»ī": 784,
      "Ġkinh": 785,
      "áº¹p": 786,
      "ĠlÃ£nh": 787,
      "ap": 788,
      "Ġnáº¿u": 789,
      "Ġso": 790,
      "Ġchuyá»ĩn": 791,
      "Ġxin": 792,
      "Ġtá»Ļi": 793,
      "Ġtrá»ĭ": 794,
      "CH": 795,
      "et": 796,
      "£p": 797,
      "áº¢": 798,
      "Ġhiá»ĩn": 799,
      "Ġhá»ıi": 800,
      "Ã²ng": 801,
      "Ġmáº¹": 802,
      "Ġba": 803,
      "Ġkáº»": 804,
      "ĠNh": 805,
      "Æ¯á»": 806,
      "ien": 807,
      "Ġva": 808,
      "Ġlá»Ŀi": 809,
      "ĠhÃ´": 810,
      "Ġvui": 811,
      "háº¿": 812,
      "Ġbá»Ļ": 813,
      "áº©n": 814,
      "¥p": 815,
      "Ńa": 816,
      "ĠtÃ¬nh": 817,
      "ĠcÃłng": 818,
      "ĠÄĳÆ°á»Ŀng": 819,
      "ĠlÃ½": 820,
      "Ġmáº·t": 821,
      "Ġbu": 822,
      "Ã¡nh": 823,
      "ĠNG": 824,
      "Ġxe": 825,
      "Ġhá»Ļ": 826,
      "áº§y": 827,
      "Ġthá»§": 828,
      "ĠcÃ¡ch": 829,
      "ÃŃnh": 830,
      "is": 831,
      "įc": 832,
      "iá»ħn": 833,
      "Ġsinh": 834,
      "ĠchÆ¡i": 835,
      "Ã£i": 836,
      "Ġhá»£p": 837,
      "uá»ĳng": 838,
      "ĠdÃ¹ng": 839,
      "ĠgiÃ¡o": 840,
      "á»ĵn": 841,
      "Ġlá»Ľ": 842,
      "ĠPh": 843,
      "rael": 844,
      "id": 845,
      "Ġcoi": 846,
      "Ġde": 847,
      "Ġnha": 848,
      "Ġxu": 849,
      "ÃŃt": 850,
      "iá»ĩm": 851,
      "iáº¿u": 852,
      "ink": 853,
      "ĠyÃªu": 854,
      "he": 855,
      "kk": 856,
      "krain": 857,
      "ĠcÆ¡": 858,
      "Ġban": 859,
      "ĠsÆ°": 860,
      "Ġsang": 861,
      "ĠthÃ¢n": 862,
      "Ġchá»©c": 863,
      "ĠHuy": 864,
      "ĠhÃ£": 865,
      "Ġtrá»įng": 866,
      "áº¾": 867,
      "ĠÄĳo": 868,
      "ĠthÆ°á»Ŀng": 869,
      "iá»ĥm": 870,
      "Ĺi": 871,
      "Ġhai": 872,
      "Ġfull": 873,
      "á»ķi": 874,
      "Ġlam": 875,
      "Ã³i": 876,
      "ĠQU": 877,
      "ia": 878,
      "Ãĵ": 879,
      "ĠtÃ¢m": 880,
      "Ġbay": 881,
      "ĠnghÃ": 882,
      "ĠTQ": 883,
      "ĠkhÃŃ": 884,
      "uyen": 885,
      "Ġdung": 886,
      "ĠkhÃ³": 887,
      "ĠHá»": 888,
      "áº¯p": 889,
      "uyá»ģn": 890,
      "re": 891,
      "įi": 892,
      "ĠtÃªn": 893,
      "Ġtáº¥t": 894,
      "Ġno": 895,
      "ĠÄĳiá»ģu": 896,
      "Ġmang": 897,
      "Ġgá»įi": 898,
      "ĠxÃ¢m": 899,
      "ĠmÃły": 900,
      "Ġlá»£i": 901,
      "Ġcuá»Ļc": 902,
      "Ġmáº¡nh": 903,
      "Ġsu": 904,
      "ĠÄĳá»ĳi": 905,
      "Ġcá»ķ": 906,
      "iá»ĩp": 907,
      "Ġcáº£m": 908,
      "im": 909,
      "Ġnoi": 910,
      "ĠÄĳáº¹p": 911,
      "ĠHá»ĵng": 912,
      "Ġgiáº£i": 913,
      "ine": 914,
      "ĠAnh": 915,
      "ÃĶng": 916,
      "ĠnghÄ©a": 917,
      "ĠPhÃºt": 918,
      "áºł": 919,
      "Ġtráº£": 920,
      "ĠÄĳá»«ng": 921,
      "áº§m": 922,
      "háº£n": 923,
      "ieu": 924,
      "um": 925,
      "Ãłm": 926,
      "ĠhÃłnh": 927,
      "ĠCS": 928,
      "Ġlá»±c": 929,
      "uyá»ħn": 930,
      "ĠvÄĥn": 931,
      "ĠChÃº": 932,
      "Ġrau": 933,
      "Ġcá»±c": 934,
      "Ġvá»ĭ": 935,
      "Ġthá»ĳng": 936,
      "ĠphÃº": 937,
      "Ġngoáº¡i": 938,
      "Ġcs": 939,
      "ĠÄĳáº¥y": 940,
      "Æ°u": 941,
      "Ã³c": 942,
      "ĠnhÅ©ng": 943,
      "Æ°á»Ľp": 944,
      "Ġcháº¯c": 945,
      "ĠhÃ¬": 946,
      "Ġdá»¥ng": 947,
      "est": 948,
      "ĠÃ½": 949,
      "áº¤": 950,
      "Ġtai": 951,
      "Ġmai": 952,
      "ĠViet": 953,
      "Ġmá»įi": 954,
      "áº¯n": 955,
      "ĠPH": 956,
      "Ļc": 957,
      "Ġcáº¥p": 958,
      "Ġnghá»": 959,
      "áº¡ng": 960,
      "Ġphi": 961,
      "á»ĳi": 962,
      "ĠMinh": 963,
      "Ġgian": 964,
      "Ãºp": 965,
      "ĠnhÃ¬n": 966,
      "ĠhÃ¬nh": 967,
      "Ġcung": 968,
      "ĠlÃºc": 969,
      "Ã¡ng": 970,
      "ĠtrÃ¬nh": 971,
      "Ġthá»±c": 972,
      "Ġtrá»£": 973,
      "ĠÄĳá»Ļc": 974,
      "ĠÄĳÃ´ng": 975,
      "ĠbÃ¢y": 976,
      "Ġgiáº¿t": 977,
      "Ġpháº£n": 978,
      "amas": 979,
      "Ġgiá»ĳng": 980,
      "ĠluáºŃt": 981,
      "RL": 982,
      "Ã¨": 983,
      "Ġdu": 984,
      "ĠNháºŃt": 985,
      "ĠKH": 986,
      "ÃĤN": 987,
      "Th": 988,
      "srael": 989,
      "¡y": 990,
      "ĠO": 991,
      "ĠlÅ©": 992,
      "Ġtho": 993,
      "Ġcháº¿": 994,
      "Ġcháº¥t": 995,
      "uyá»ĥn": 996,
      "Ġpháº¡m": 997,
      "Ġká»³": 998,
      "ĠcÆ°á»Ľp": 999,
      "ĠbÃ¡o": 1000,
      "Ġkiáº¿m": 1001,
      "áº¡c": 1002,
      "Ġthanh": 1003,
      "ĠthÆ°Æ¡ng": 1004,
      "Ġtá»Ļc": 1005,
      "ĠHáº¡nh": 1006,
      "Ġhá»ĩ": 1007,
      "ĠÄĲáº£ng": 1008,
      "ĠUkrain": 1009,
      "Ġw": 1010,
      "ĠmÃ´": 1011,
      "Ġbáº¥t": 1012,
      "áº¡ch": 1013,
      "ĠvÃłng": 1014,
      "Ġgiao": 1015,
      "ĠngoÃłi": 1016,
      "ĠhÃ£y": 1017,
      "¥i": 1018,
      "¯n": 1019,
      "ĠÃ´": 1020,
      "Ġnghi": 1021,
      "Ãªnh": 1022,
      "ĠÄĳá»§": 1023,
      "Ġthe": 1024,
      "Ã²i": 1025,
      "Ġloáº¡i": 1026,
      "ĠURL": 1027,
      "Ġtá»ķng": 1028,
      "ĠÄĳá»ģu": 1029,
      "ho": 1030,
      "©a": 1031,
      "ĠtáºŃp": 1032,
      "ĠcÃ¢u": 1033,
      "ĠÄĳáº£o": 1034,
      "Ġlai": 1035,
      "ĠláºŃp": 1036,
      "ĠdÃ¡m": 1037,
      "ĠVá»": 1038,
      "ĠthÃªm": 1039,
      "ot": 1040,
      "¢u": 1041,
      "Ńch": 1042,
      "ĠgÃ¡i": 1043,
      "Ġcháº¡y": 1044,
      "Ġná»ķi": 1045,
      "Ã©t": 1046,
      "ĠnghÃ¨o": 1047,
      "ĠtÃ¹": 1048,
      "Ġcá»¥": 1049,
      "Ġsá»Ń": 1050,
      "Ġkhong": 1051,
      "ÄĲá»": 1052,
      "Ġtiáº¿p": 1053,
      "ĠmÃ¡y": 1054,
      "ĠÄĳá»ĭnh": 1055,
      "UY": 1056,
      "á»Ĳ": 1057,
      "Ġchung": 1058,
      "ĠÄĳá»ķi": 1059,
      "áº¥m": 1060,
      "Ġthay": 1061,
      "Ã¬m": 1062,
      "Ġsá»©c": 1063,
      "or": 1064,
      "ĠcÃ´": 1065,
      "ĠÄĳc": 1066,
      "Ġkáº¿t": 1067,
      "Ġkhá»ı": 1068,
      "VN": 1069,
      "it": 1070,
      "ĠÃł": 1071,
      "ĠÃ¡n": 1072,
      "Ġcong": 1073,
      "ĠlÆ°á»£c": 1074,
      "Ġbiá»ĥn": 1075,
      "Ġcha": 1076,
      "ĠChá»": 1077,
      "Ġvá»ĩ": 1078,
      "ĠchÃ³": 1079,
      "alest": 1080,
      "Ġlá»Ľn": 1081,
      "Ġháº£": 1082,
      "Ġcáº§u": 1083,
      "ĠliÃªn": 1084,
      "ĠbÃłi": 1085,
      "háº±ng": 1086,
      "ĠsÄ©": 1087,
      "áº¡t": 1088,
      "Ġhuy": 1089,
      "ĠNguyá»ħn": 1090,
      "uyá»ĩt": 1091,
      "AI": 1092,
      "ĠcÃ¡": 1093,
      "Ġviá»ĩn": 1094,
      "Ġmay": 1095,
      "Ġtráº»": 1096,
      "Ġtriá»ĩu": 1097,
      "Ġxá»": 1098,
      "ĠMá»": 1099,
      "ĠgiÃłu": 1100,
      "Ġlá»«a": 1101,
      "ĠKá»": 1102,
      "áº·ng": 1103,
      "Iá»Ĩ": 1104,
      "ĠY": 1105,
      "ĠtiÃªn": 1106,
      "ĠÄĳiá»ĩn": 1107,
      "Ġmáº¡ng": 1108,
      "ĠnguyÃªn": 1109,
      "iáº¿p": 1110,
      "Ġvá»«a": 1111,
      "Ġthá»ĭ": 1112,
      "Æ°Æ¡c": 1113,
      "ĠKhÃ´ng": 1114,
      "ĠGI": 1115,
      "ata": 1116,
      "Ġpháº§n": 1117,
      "Ġchá»ĭu": 1118,
      "Ġkhá»ıe": 1119,
      "ÃĮ": 1120,
      "Ġcam": 1121,
      "Ġkháº": 1122,
      "ĠCÃ¡c": 1123,
      "Ġrá»": 1124,
      "ĠVin": 1125,
      "Ġlá»Ļ": 1126,
      "Æ°Æ¡i": 1127,
      "Ãºt": 1128,
      "©t": 1129,
      "ķng": 1130,
      "ĠÄĳa": 1131,
      "ĠCÃ³": 1132,
      "ĠChi": 1133,
      "Ġcá»Ŀ": 1134,
      "ĠMy": 1135,
      "Ġtháº¯ng": 1136,
      "Ġá»§ng": 1137,
      "Ġnhá»ı": 1138,
      "Ġháº¡i": 1139,
      "ĠIsrael": 1140,
      "á»Ńi": 1141,
      "Qu": 1142,
      "ing": 1143,
      "Ġlao": 1144,
      "Ġkg": 1145,
      "ĠÄĳá»ķ": 1146,
      "ĠrÃµ": 1147,
      "Ġcá»ĳ": 1148,
      "ĠchÃŃ": 1149,
      "Ġkhá»§ng": 1150,
      "á»įng": 1151,
      "ĠÄĲá»©c": 1152,
      "ou": 1153,
      "²ng": 1154,
      "Ġe": 1155,
      "ĠÃ¡c": 1156,
      "ĠtÃ¬m": 1157,
      "Ġná»Ļi": 1158,
      "ĠlÃ¢u": 1159,
      "ĠthÃ¹": 1160,
      "ĠNá»": 1161,
      "ĠphÃŃ": 1162,
      "Ġhoa": 1163,
      "ĠphÆ°Æ¡ng": 1164,
      "AO": 1165,
      "ast": 1166,
      "om": 1167,
      "ĠtiÃªu": 1168,
      "ĠÄĳáº·t": 1169,
      "Ġdan": 1170,
      "Ġgoi": 1171,
      "Ġtriá»ĥn": 1172,
      "Ġru": 1173,
      "áº£nh": 1174,
      "Ġcháº³ng": 1175,
      "ĠhÃ³": 1176,
      "ĠÄĳÃ³ng": 1177,
      "ĠAe": 1178,
      "Ġcá»©u": 1179,
      "Tá»": 1180,
      "ĠtÃŃch": 1181,
      "Ġmu": 1182,
      "ĠmÃ£i": 1183,
      "ĠCá»Ļng": 1184,
      "Ġxa": 1185,
      "ĠxÃ¡c": 1186,
      "áº¯ng": 1187,
      "ĠháºŃ": 1188,
      "Ġtrá»Ŀi": 1189,
      "ÃĶNG": 1190,
      "alestine": 1191,
      "áº¬": 1192,
      "Ġnáº¡n": 1193,
      "Ġviet": 1194,
      "Ġda": 1195,
      "Ġgá»Ńi": 1196,
      "ĠThÃ¡": 1197,
      "ĠCÃ²n": 1198,
      "Ġlá»ĭch": 1199,
      "ĠLá»": 1200,
      "Ġsá»£": 1201,
      "ĠluáºŃn": 1202,
      "Ġnghiá»ĩp": 1203,
      "Ġchá»©ng": 1204,
      "áĺīg": 1205,
      "AM": 1206,
      "Ãį": 1207,
      "ĩnh": 1208,
      "ĠÄĳu": 1209,
      "Ġváº¥n": 1210,
      "Ġmiá»ģn": 1211,
      "ĠkÃªu": 1212,
      "ĠÄĳá»Ŀi": 1213,
      "ĠÄĳá»©c": 1214,
      "Ġthang": 1215,
      "ĠBáº¯c": 1216,
      "Ġkhá»ıi": 1217,
      "ĠmÃ¡u": 1218,
      "ĠChÃŃnh": 1219,
      "ÃĬN": 1220,
      "¡t": 1221,
      "Ġz": 1222,
      "ĠtÃ¡c": 1223,
      "ĠtÆ°á»Łng": 1224,
      "ĠÄĳÃ´": 1225,
      "Ġvoi": 1226,
      "Ġchuyá»ĥn": 1227,
      "Ġha": 1228,
      "Ġxuá»ĳng": 1229,
      "ĠTráº§n": 1230,
      "Ġdá»ĭch": 1231,
      "Æ¯Æł": 1232,
      "Ġnguoi": 1233,
      "ĠhÃ´m": 1234,
      "Ġxuáº¥t": 1235,
      "OA": 1236,
      "Ġáº¡": 1237,
      "īnh": 1238,
      "Łi": 1239,
      "ĠnÄĥng": 1240,
      "Ġbi": 1241,
      "Ġbiá»ĥu": 1242,
      "Ġdanh": 1243,
      "Ġse": 1244,
      "Ġnga": 1245,
      "Ã¢t": 1246,
      "Ãªm": 1247,
      "ĠTÃ¢y": 1248,
      "ĠÄĳá»©ng": 1249,
      "ĠxÃ£": 1250,
      "ĠHD": 1251,
      "Ġthá»©": 1252,
      "áº·p": 1253,
      "Ã©p": 1254,
      "ĠthÃ¡ng": 1255,
      "ed": 1256,
      "fac": 1257,
      "hy": 1258,
      "han": 1259,
      "uong": 1260,
      "©m": 1261,
      "Å¨": 1262,
      "Ġáº¥y": 1263,
      "ĠtÄĥng": 1264,
      "Ġcháº£": 1265,
      "ĠlÆ°á»£ng": 1266,
      "ĠlÃ²ng": 1267,
      "ĠThÃ": 1268,
      "ĠÄĳá»©a": 1269,
      "ĠnhiÃªu": 1270,
      "ĠthÃŃch": 1271,
      "Ġquay": 1272,
      "ĠBá»": 1273,
      "ĠPháºŃt": 1274,
      "ĠTrá»įng": 1275,
      "Ġkhá»ķ": 1276,
      "iÃªng": 1277,
      "ump": 1278,
      "ĠE": 1279,
      "ĠtÃ´n": 1280,
      "ĠÄĳáº¥u": 1281,
      "Ġduoc": 1282,
      "Ġgáº§n": 1283,
      "Ġtrai": 1284,
      "ĠthÆ°á»Łng": 1285,
      "ĠphÃ¢n": 1286,
      "Ġnhá»ī": 1287,
      "Ġdá»ħ": 1288,
      "ĠchÃºc": 1289,
      "Ġvid": 1290,
      "Ġphá»§": 1291,
      "ĠThá»§": 1292,
      "AY": 1293,
      "Chá»": 1294,
      "ach": 1295,
      "á´": 1296,
      "ĠcÆ°": 1297,
      "ĠÄĳÃłn": 1298,
      "Ġláº§n": 1299,
      "Ġmy": 1300,
      "Ġmong": 1301,
      "ĠTháº¿": 1302,
      "ĠNáº¿u": 1303,
      "Ġtá»¥i": 1304,
      "ĠDÃ¢n": 1305,
      "Ġhot": 1306,
      "ĠkhÃ¡ch": 1307,
      "§y": 1308,
      "ĠÃŃch": 1309,
      "Ġdáº¡": 1310,
      "ĠMai": 1311,
      "Ġtá»Ń": 1312,
      "ĠgiÃºp": 1313,
      "Æ°á»Ľi": 1314,
      "ĠLÃĢ": 1315,
      "Ġnhá»Ľ": 1316,
      "Ġkhai": 1317,
      "ĠVNCH": 1318,
      "Ġquyáº¿t": 1319,
      "Ġae": 1320,
      "Nguyen": 1321,
      "iden": 1322,
      "Con": 1323,
      "LI": 1324,
      "ke": 1325,
      "Ãļ": 1326,
      "Ġin": 1327,
      "ĠÃĤ": 1328,
      "Ġï¸ı": 1329,
      "ĠÃŃt": 1330,
      "Ġcac": 1331,
      "Ġvao": 1332,
      "ĠkÃªnh": 1333,
      "Ġdiá»ĩt": 1334,
      "Ġchiáº¿m": 1335,
      "ĠHamas": 1336,
      "ĠgiÃł": 1337,
      "ĠchÃ¢n": 1338,
      "ĠPalestine": 1339,
      "ĠDo": 1340,
      "ĠSt": 1341,
      "Ġtá»«ng": 1342,
      "NgÆ°á»Ŀi": 1343,
      "ĠnháºŃp": 1344,
      "ĠphÃºc": 1345,
      "Ġruá»Ļt": 1346,
      "Ġvideo": 1347,
      "LL": 1348,
      "ĠtÃŃ": 1349,
      "Ġtuyá»ĩt": 1350,
      "ĠnÆ¡i": 1351,
      "Ġkiáº¿n": 1352,
      "ĠkÃ©": 1353,
      "Ġquáº£": 1354,
      "Ġquáº§n": 1355,
      "ĠxÃ³": 1356,
      "Ġxong": 1357,
      "á»ĳt": 1358,
      "ĠphÃ²ng": 1359,
      "Ġgiá»ıi": 1360,
      "ĠNgÆ°á»Ŀi": 1361,
      "á»įn": 1362,
      "ĠCHá»": 1363,
      "ĠviÃª": 1364,
      "ĠthÃ¡nh": 1365,
      "ĠchÃ¡u": 1366,
      "Æ¯ÆłNG": 1367,
      "ChÃº": 1368,
      "Viá»ĩt": 1369,
      "ĠÃ¡": 1370,
      "ĠÃ¢m": 1371,
      "Ńi": 1372,
      "Ġtáº¡o": 1373,
      "Ã³p": 1374,
      "ĠgÃ¢y": 1375,
      "Ġtruyá»ģn": 1376,
      "Ġtháº£": 1377,
      "Ġtá»ĳi": 1378,
      "ĠNhÆ°ng": 1379,
      "CÃ³": 1380,
      "ULL": 1381,
      "eb": 1382,
      "ÄĤ": 1383,
      "ĠtÃ¢y": 1384,
      "ĠtuyÃªn": 1385,
      "Ġnu": 1386,
      "Ġnao": 1387,
      "ĠÄĳem": 1388,
      "Ġli": 1389,
      "iá»Ŀ": 1390,
      "ĠÄĳá»įc": 1391,
      "Ġnhung": 1392,
      "ĠvÃłi": 1393,
      "Ġtháº§n": 1394,
      "Ġmá»Ł": 1395,
      "ĠLH": 1396,
      "Ãºi": 1397,
      "Ã¹i": 1398,
      "Ġhoáº·c": 1399,
      "Ġtrá»Ł": 1400,
      "Ġdá»±": 1401,
      "Ġphong": 1402,
      "Ġdoanh": 1403,
      "Ġtuá»ķi": 1404,
      "sthy": 1405,
      "le": 1406,
      "âĢ": 1407,
      "Ġon": 1408,
      "Ġháº£i": 1409,
      "ĠtÃŃnh": 1410,
      "ĠÄĳÆ°Æ¡c": 1411,
      "hÃª": 1412,
      "ĠdÃ¹": 1413,
      "ĠsÃ¡t": 1414,
      "ĠsÃ¡ch": 1415,
      "Ġtrang": 1416,
      "ĠTÃ´i": 1417,
      "Ġtá»©c": 1418,
      "Ã£y": 1419,
      "ĠÄĳÃ¡m": 1420,
      "ChÃło": 1421,
      "ĠKá»³": 1422,
      "ĠhÃ³a": 1423,
      "âĢį": 1424,
      "Tháº±ng": 1425,
      "fast": 1426,
      "lu": 1427,
      "nam": 1428,
      "tel": 1429,
      "ub": 1430,
      "¹ng": 1431,
      "Ġtoi": 1432,
      "ĠtÃłn": 1433,
      "ĠtÃłu": 1434,
      "Ġnuoc": 1435,
      "ĠÄĳÃ¬nh": 1436,
      "ĠÄĳÃ²i": 1437,
      "Ġmiá»ħn": 1438,
      "Ġdiá»ħn": 1439,
      "ĠngÃłn": 1440,
      "Ġtra": 1441,
      "Ġtri": 1442,
      "ĠTÃłu": 1443,
      "áº¡p": 1444,
      "ĠChá»ī": 1445,
      "Ġnhan": 1446,
      "ĠnhiÃªn": 1447,
      "Ġráº±ng": 1448,
      "ĠthiÃªn": 1449,
      "Ġchá»¯": 1450,
      "Ġtá»·": 1451,
      "ĠDÃĤN": 1452,
      "Ġchia": 1453,
      "Ġhá»ĵi": 1454,
      "ĠÄĳá»ĭa": 1455,
      "ream": 1456,
      "AT": 1457,
      "±m": 1458,
      "¸Ĺ": 1459,
      "à¸Ĺ": 1460,
      "ĭt": 1461,
      "Ġtao": 1462,
      "Ġcai": 1463,
      "Ġviáº¿t": 1464,
      "Ġbiá»ĩt": 1465,
      "Ġdang": 1466,
      "ĠdÃłi": 1467,
      "ĠgÃ³p": 1468,
      "ĠngÆ°Æ¡i": 1469,
      "ĠCl": 1470,
      "Ġnhu": 1471,
      "ĠxÃ¢y": 1472,
      "Ġxá»Ń": 1473,
      "á»ĳn": 1474,
      "Ġchá»Ĺ": 1475,
      "ĠchÃ¢u": 1476,
      "ĠBÃ¡c": 1477,
      "ĠData": 1478,
      "ĠNgon": 1479,
      "Ġná»ģn": 1480,
      "Ġphai": 1481,
      "Ġphiáº¿u": 1482,
      "Ġtui": 1483,
      "ĠthÃ¡i": 1484,
      "ĠQuÃ¢n": 1485,
      "ĠFULL": 1486,
      "ĠÄĳoÃłn": 1487,
      "ĠUkraina": 1488,
      "Anh": 1489,
      "TÃ´i": 1490,
      "eu": 1491,
      "ic": 1492,
      "ts": 1493,
      "¯u": 1494,
      "Ġáº£nh": 1495,
      "á»·": 1496,
      "ĠÄĳáº»": 1497,
      "Ġmáº¯t": 1498,
      "ĠbÃ´": 1499,
      "Ġbáº¯n": 1500,
      "Ġkiá»ĥu": 1501,
      "Ġsuy": 1502,
      "Ġsáº¯p": 1503,
      "ĠTháº": 1504,
      "ĠÄĳá»ı": 1505,
      "Ġthua": 1506,
      "ĠNhÃ": 1507,
      "ĠxÆ°a": 1508,
      "Ġchá»Ńi": 1509,
      "ĠMis": 1510,
      "Ġtá»ĭch": 1511,
      "Ã²a": 1512,
      "ĠhÃ²": 1513,
      "ĠTrump": 1514,
      "Ġphá»¥c": 1515,
      "Iá»ĨT": 1516,
      "ĠháºŃu": 1517,
      "Ġdáº¡y": 1518,
      "ĠMissthy": 1519,
      "AN": 1520,
      "Nh": 1521,
      "ol": 1522,
      "áº¦": 1523,
      "Ġtáº¥n": 1524,
      "Ġmoi": 1525,
      "Ġbang": 1526,
      "ĠsÃ¢u": 1527,
      "Ã¢ng": 1528,
      "ĠchuyÃªn": 1529,
      "iá»ĩng": 1530,
      "ĠDÃ¢m": 1531,
      "ĠSa": 1532,
      "ĠSau": 1533,
      "Ġpha": 1534,
      "ĠClClip": 1535,
      "Má»¹": 1536,
      "TB": 1537,
      "ĠÃĶng": 1538,
      "ĠÄĳÃłi": 1539,
      "Ġlan": 1540,
      "ĠlÆ°Æ¡ng": 1541,
      "ĠváºŃt": 1542,
      "ĠbÃ²": 1543,
      "Ġbiáº¿n": 1544,
      "ĠdÆ°á»Ľi": 1545,
      "Ã³ng": 1546,
      "ĠsÆ°á»Ľng": 1547,
      "ĠchÃło": 1548,
      "Ã´c": 1549,
      "ĠCuc": 1550,
      "Ġnhanh": 1551,
      "Ġnhieu": 1552,
      "ĠHá»ĵ": 1553,
      "Ġcháº¥p": 1554,
      "Ġkhac": 1555,
      "ĠhoÃłn": 1556,
      "ĠÄĳÃ¡ng": 1557,
      "ĠGiang": 1558,
      "Cáº£m": 1559,
      "oÃłn": 1560,
      "vn": 1561,
      "Ġong": 1562,
      "Ġáĺī": 1563,
      "Ġuá»ĳng": 1564,
      "ĠÃ©p": 1565,
      "Ľt": 1566,
      "ĠtÆ°á»Ľng": 1567,
      "Ġtien": 1568,
      "ĠÄĳÆ¡n": 1569,
      "Ġve": 1570,
      "Ġkiá»ĩn": 1571,
      "Ġgá»ĳc": 1572,
      "Ġhoi": 1573,
      "Ġnhiá»ĩm": 1574,
      "ĠthÃ¢": 1575,
      "Ġvá»Ŀi": 1576,
      "Ġgiáº£": 1577,
      "uyáº¿n": 1578,
      "Ġmá»ĵ": 1579,
      "ĠBa": 1580,
      "ĠPhÃ¡": 1581,
      "Ġá»©ng": 1582,
      "Ġnhá»Ŀ": 1583,
      "ĠÄĳÃ³i": 1584,
      "Ġtrá»±c": 1585,
      "Ġpháº©m": 1586,
      "utin": 1587,
      "ĠHoa": 1588,
      "áº¤T": 1589,
      "ĠVinfast": 1590,
      "Má»Ļt": 1591,
      "za": 1592,
      "³m": 1593,
      "Ãĥ": 1594,
      "ĠZ": 1595,
      "Ġis": 1596,
      "á»Ŀi": 1597,
      "ĠÄĳáº§y": 1598,
      "Ġvay": 1599,
      "Ġbáº¯c": 1600,
      "Ġká»¹": 1601,
      "Ġden": 1602,
      "ĠtrÃ²": 1603,
      "ĠtrÄĥm": 1604,
      "ĠCam": 1605,
      "ĠCon": 1606,
      "ĠthÃº": 1607,
      "ĠriÃªng": 1608,
      "ĠVI": 1609,
      "ĠVÃ¬": 1610,
      "ĠVOA": 1611,
      "ĠBiden": 1612,
      "Ġgiá»¯": 1613,
      "ĠSá»": 1614,
      "ling": 1615,
      "Ġcáº£nh": 1616,
      "ĠpháºŃt": 1617,
      "Ġká»·": 1618,
      "áº©y": 1619,
      "ĠPhut": 1620,
      "á»ĲC": 1621,
      "ĠNá»¯": 1622,
      "ĠStream": 1623,
      "ĠhÃ²a": 1624,
      "ĠStreamer": 1625,
      "AU": 1626,
      "Ai": 1627,
      "ANG": 1628,
      "Cá»": 1629,
      "EN": 1630,
      "KhÃ´ng": 1631,
      "ONG": 1632,
      "ĠÃģ": 1633,
      "ıng": 1634,
      "Ġcan": 1635,
      "Ġlink": 1636,
      "Ġmiá»ĩng": 1637,
      "há»¯ng": 1638,
      "Ġdai": 1639,
      "Ġgá»": 1640,
      "ĠquÃª": 1641,
      "ĠVÃĢ": 1642,
      "Ġthá»Ŀ": 1643,
      "Ġlá»Ĺ": 1644,
      "ĠLink": 1645,
      "Ã¹a": 1646,
      "ĠyÃªn": 1647,
      "ĠTá»«": 1648,
      "ĠUkraine": 1649,
      "LIP": 1650,
      "NhÃ": 1651,
      "oan": 1652,
      "us": 1653,
      "´n": 1654,
      "ĳt": 1655,
      "Ġtan": 1656,
      "Ġtiáº¿n": 1657,
      "háº¡m": 1658,
      "Ġduy": 1659,
      "Ġdiá»ĩn": 1660,
      "Ġgáº·p": 1661,
      "Ġsan": 1662,
      "Ġsáº¯c": 1663,
      "Ġngá»ĵi": 1664,
      "ĠtrÃŃ": 1665,
      "ĠlÃłnh": 1666,
      "ĠthÆ°": 1667,
      "áº£y": 1668,
      "ĠVÃł": 1669,
      "ĠMAI": 1670,
      "Ġhá»ģ": 1671,
      "Ġbá»ĩnh": 1672,
      "Æ°á»£t": 1673,
      "ĠÄĳá»Ļi": 1674,
      "ĠthuÃª": 1675,
      "Ġthuá»Ļc": 1676,
      "ĠXem": 1677,
      "Ġháº¡n": 1678,
      "ÃģI": 1679,
      "Ġchuáº©n": 1680,
      "Ġbom": 1681,
      "Ġngá»¥y": 1682,
      "áºłI": 1683,
      "Iáº¾": 1684,
      "Vá»": 1685,
      "aza": 1686,
      "cn": 1687,
      "Ġi": 1688,
      "Ġty": 1689,
      "ĠcÃ¡o": 1690,
      "ĠÄĳiá»ĥm": 1691,
      "ĠlÆ°ng": 1692,
      "Ġvong": 1693,
      "ĠkÃ¬": 1694,
      "Æ°á»¡": 1695,
      "Ġdong": 1696,
      "Ġche": 1697,
      "ĠhÆ°á»Łng": 1698,
      "ĠquÃ½": 1699,
      "Ġxáº¥u": 1700,
      "ĠHang": 1701,
      "Ġvá»£": 1702,
      "ĠÄĲÃ´ng": 1703,
      "Ġlá»ĩ": 1704,
      "ĠTrong": 1705,
      "ĠTrÆ°Æ¡ng": 1706,
      "Ġnhá»¥c": 1707,
      "ĠGiá»Ŀ": 1708,
      "Ġyáº¿u": 1709,
      "Ġoan": 1710,
      "alo": 1711,
      "ĠTRá»": 1712,
      "Æ¯á»ļ": 1713,
      "Æ¯á»ľ": 1714,
      "Ġbuá»ĵn": 1715,
      "Ġlá»Ľp": 1716,
      "ÃĮNH": 1717,
      "Máº¥y": 1718,
      "iling": 1719,
      "miling": 1720,
      "¯p": 1721,
      "Ġj": 1722,
      "áº±m": 1723,
      "Ġtinh": 1724,
      "ĠcÆ°á»Ŀi": 1725,
      "ĠÄĳÄĥng": 1726,
      "ĠmÆ¡": 1727,
      "Ġkia": 1728,
      "Ġdoi": 1729,
      "Ġdáº¥u": 1730,
      "ĠsÃ¡ng": 1731,
      "Ġsáº¡ch": 1732,
      "Ġthoi": 1733,
      "Ġcá»Ń": 1734,
      "á»ĳng": 1735,
      "iáº¿ng": 1736,
      "Ġtá»ĵ": 1737,
      "iá»ģm": 1738,
      "ĠhÃ¡t": 1739,
      "ĠKh": 1740,
      "Ġcap": 1741,
      "iÃªt": 1742,
      "ĠChÃºa": 1743,
      "ĠViettel": 1744,
      "Ġnghá»ĭ": 1745,
      "ĠviÃªt": 1746,
      "ON": 1747,
      "Xin": 1748,
      "av": 1749,
      "hcn": 1750,
      "sa": 1751,
      "th": 1752,
      "Ã¨o": 1753,
      "ĠtÆ°Æ¡ng": 1754,
      "ĠÄĤ": 1755,
      "Ġnáº·ng": 1756,
      "ĠÄĳÃª": 1757,
      "Ġláº¡": 1758,
      "ĠvÃ¢y": 1759,
      "Ġkháº£": 1760,
      "Ġsong": 1761,
      "Ġngáº¡i": 1762,
      "Ġtruy": 1763,
      "ĠtrÆ°á»Łng": 1764,
      "ĠTB": 1765,
      "ĠCo": 1766,
      "ĠCÃĵ": 1767,
      "Ġrá»Ļng": 1768,
      "ĠVÄĥn": 1769,
      "Ġtá»¥c": 1770,
      "Ġhá»Ĺ": 1771,
      "Ġmá»«ng": 1772,
      "ĠnÃ³ng": 1773,
      "uá»ĳi": 1774,
      "ĠhÃª": 1775,
      "Ġkhach": 1776,
      "Ã©o": 1777,
      "ĠThuy": 1778,
      "Ġof": 1779,
      "Ġká»ĥ": 1780,
      "ĠCho": 1781,
      "ĠQUá»ĲC": 1782,
      "Ġxá»©": 1783,
      "ĠkÃ©m": 1784,
      "eblu": 1785,
      "CÃ¡c": 1786,
      "Nam": 1787,
      "NÃ³i": 1788,
      "UNG": 1789,
      "ha": 1790,
      "il": 1791,
      "ob": 1792,
      "tr": 1793,
      "ĠW": 1794,
      "ĢN": 1795,
      "Ġtiáº¿t": 1796,
      "Ġlinh": 1797,
      "ĠbiÃªn": 1798,
      "Ġbáº§u": 1799,
      "ĠbÄĥng": 1800,
      "Ġkiá»ĥm": 1801,
      "Ġnguy": 1802,
      "ĠtrÃ¡i": 1803,
      "Ġhiá»ĩu": 1804,
      "Ã´m": 1805,
      "ĠCháº": 1806,
      "ĠrÃºt": 1807,
      "ĠthÆ¡": 1808,
      "Ġthiáº¿u": 1809,
      "Ġchá»Ŀ": 1810,
      "ĠHÃł": 1811,
      "ĠHÆ¯ÆłNG": 1812,
      "Ġgiáº·c": 1813,
      "Ġbá»ĵ": 1814,
      "Äĥc": 1815,
      "Ã£o": 1816,
      "Æ°á»£n": 1817,
      "Ġlá»Ńa": 1818,
      "Ġlá»Ĺi": 1819,
      "ĠphÃª": 1820,
      "uá»ĳt": 1821,
      "ĠnhÃ³m": 1822,
      "ĠhoÃł": 1823,
      "á»įc": 1824,
      "Ġthuáº¿": 1825,
      "Ãµi": 1826,
      "Æ¯á»¢": 1827,
      "Ġnghá»ĩ": 1828,
      "ĠKHÃĶNG": 1829,
      "ĠtÃŃn": 1830,
      "ĠPhÃ¡p": 1831,
      "ChÃ": 1832,
      "CÃ¡i": 1833,
      "DÃ¢n": 1834,
      "HC": 1835,
      "Náº¿u": 1836,
      "Sao": 1837,
      "TT": 1838,
      "VáºŃy": 1839,
      "hap": 1840,
      "ks": 1841,
      "un": 1842,
      "±a": 1843,
      "Ġung": 1844,
      "ĳn": 1845,
      "ĠtÆ°á»£ng": 1846,
      "Ġcáº§m": 1847,
      "Ġnáº§y": 1848,
      "ĠÄĳai": 1849,
      "ĠváºŃn": 1850,
      "ĠbÃło": 1851,
      "Ġdc": 1852,
      "Ġdáº«n": 1853,
      "Ġsa": 1854,
      "Ġhan": 1855,
      "ĠCu": 1856,
      "ĠCLIP": 1857,
      "Ġthiá»ĩn": 1858,
      "Ġcá»Ńa": 1859,
      "ĠNÃ³": 1860,
      "ĠVIá»ĨT": 1861,
      "Ġchá»¥c": 1862,
      "Ġchá»ĭch": 1863,
      "Ġchá»įn": 1864,
      "ĠHáº£i": 1865,
      "Ġmá»Ĺi": 1866,
      "Ġbá»Ŀ": 1867,
      "ĠPháº¡m": 1868,
      "ĠphÃ³ng": 1869,
      "Ġná»ķ": 1870,
      "Ġdá»¥c": 1871,
      "Nghe": 1872,
      "Ġnguá»ĵn": 1873,
      "arts": 1874,
      "ĠCá»¦": 1875,
      "ĠchÃ¡y": 1876,
      "ĠbuÃ´n": 1877,
      "hearts": 1878,
      "Ġkháº¯p": 1879,
      "heartshap": 1880,
      "Há»": 1881,
      "gi": 1882,
      "pp": 1883,
      "rl": 1884,
      "áº®": 1885,
      "ĠtáºŃn": 1886,
      "ĠtÃ²a": 1887,
      "ĠcÃł": 1888,
      "ĠcÃ¡t": 1889,
      "ĠnÃ´": 1890,
      "ĠÄĳen": 1891,
      "ĠÄĳau": 1892,
      "ĠÄĳáº¡n": 1893,
      "ĠÄĳÃ´i": 1894,
      "ĠlÃ¡": 1895,
      "Ġláº½": 1896,
      "ĠvÄ©": 1897,
      "ĠvÃ¹ng": 1898,
      "Ġbinh": 1899,
      "Ġbac": 1900,
      "Ġdau": 1901,
      "ĠngÃ´n": 1902,
      "Ġhi": 1903,
      "ĠhÃło": 1904,
      "Ġhet": 1905,
      "Ġhiá»ĥm": 1906,
      "ĠNháº": 1907,
      "ĠVáºŃy": 1908,
      "ĠxÃ©t": 1909,
      "ĠHáº±ng": 1910,
      "Ġthá»ķ": 1911,
      "ĠDi": 1912,
      "ĠhÃ³ng": 1913,
      "Ġkhu": 1914,
      "ĠquyÃªn": 1915,
      "ered": 1916,
      "Ġháº¡nh": 1917,
      "Ġkhoe": 1918,
      "ĠFull": 1919,
      "esmiling": 1920,
      "ĠChÃºng": 1921,
      "ĠthoÃ¡t": 1922,
      "ĠThÃ¡i": 1923,
      "facered": 1924,
      "ĠÃĤu": 1925,
      "ebluesmiling": 1926,
      "heartshape": 1927,
      "faceredheartshape": 1928,
      "CÃ²n": 1929,
      "Chá»ī": 1930,
      "Gi": 1931,
      "INH": 1932,
      "ThÃ": 1933,
      "oa": 1934,
      "od": 1935,
      "É´": 1936,
      "Íı": 1937,
      "áĹ": 1938,
      "Ġuy": 1939,
      "ĵng": 1940,
      "Ńm": 1941,
      "Ġti": 1942,
      "ĠcÃ¡n": 1943,
      "Ġnháº£": 1944,
      "Ġnáº±m": 1945,
      "ĠÄĳe": 1946,
      "ĠlÃº": 1947,
      "ĠlÆ°u": 1948,
      "ĠbÃŃ": 1949,
      "Ġky": 1950,
      "Ġdáº§u": 1951,
      "Ġdá»ĳt": 1952,
      "ĠsÃ´ng": 1953,
      "Ġnghá»ī": 1954,
      "Ġchay": 1955,
      "ĠchÆ°Æ¡ng": 1956,
      "ĠhÃłi": 1957,
      "ĠCáº§n": 1958,
      "Ġnhe": 1959,
      "Ġroi": 1960,
      "Ġthat": 1961,
      "iáº¿c": 1962,
      "ĠMÃł": 1963,
      "ĠMá»Ļt": 1964,
      "Ġtá»īnh": 1965,
      "ĠÄĲÃł": 1966,
      "ĠLÃª": 1967,
      "ĠLiÃªn": 1968,
      "Ġcháº¯n": 1969,
      "Ġdá»±ng": 1970,
      "ĠAn": 1971,
      "ÄĲÃºng": 1972,
      "Ġcom": 1973,
      "Ġand": 1974,
      "ĠPhÆ°Æ¡ng": 1975,
      "ĠmÃ´t": 1976,
      "ĠnuÃ´i": 1977,
      "ĠCá»¦A": 1978,
      "áĹ°": 1979,
      "CS": 1980,
      "Tháº¿": 1981,
      "¨n": 1982,
      "ĠÆ°u": 1983,
      "ķn": 1984,
      "ĠÄĳáº¿": 1985,
      "ĠÄĳÃło": 1986,
      "Ġvu": 1987,
      "ĠbÃ¡nh": 1988,
      "Ġkkk": 1989,
      "Ġdao": 1990,
      "Ġgui": 1991,
      "ĠghÃª": 1992,
      "ĠchÆ°": 1993,
      "ĠchÄĥn": 1994,
      "ĠhÃł": 1995,
      "ĠhÆ°á»Ľng": 1996,
      "Ġhiáº¿p": 1997,
      "ĠÄĳá»¡": 1998,
      "ĠCÃ´ng": 1999,
      "Ġque": 2000,
      "Ġxáº¡o": 2001,
      "ĠxuyÃªn": 2002,
      "Ġgiáº£m": 2003,
      "áºŃu": 2004,
      "ĠBan": 2005,
      "ĠPhÃ": 2006,
      "Ġá»ŀ": 2007,
      "ĠhÃ¹ng": 2008,
      "Ġháº¯n": 2009,
      "Ġhoc": 2010,
      "Ġhoan": 2011,
      "Ġhoang": 2012,
      "Ġphe": 2013,
      "ĠTHÃģI": 2014,
      "ĠQuan": 2015,
      "ĠChÃ¢u": 2016,
      "ĠÄĳuá»ķi": 2017,
      "ĠxÃ³a": 2018,
      "ChÃºc": 2019,
      "âĢįï¸ı": 2020,
      "Ġmá»ĵm": 2021,
      "EO": 2022,
      "ad": 2023,
      "ow": 2024,
      "¡c": 2025,
      "©p": 2026,
      "ĠJ": 2027,
      "ĠÆ¡": 2028,
      "Ľm": 2029,
      "Ġtáº£": 2030,
      "Ġtie": 2031,
      "ĠÄĳÃł": 2032,
      "ĠláºŃt": 2033,
      "Ġme": 2034,
      "Ġmáº¯c": 2035,
      "Ġmáº·c": 2036,
      "Ġday": 2037,
      "ĠsÆ¡": 2038,
      "Ġngon": 2039,
      "ĠngÃłi": 2040,
      "ĠtráºŃn": 2041,
      "Ġtráº¯ng": 2042,
      "Ġthem": 2043,
      "ĠNá»Ļi": 2044,
      "ĠVÅ¨": 2045,
      "Ġxanh": 2046,
      "ĠkhÃ´n": 2047,
      "Ġchá»£": 2048,
      "ĠHÃ£y": 2049,
      "Ġgio": 2050,
      "Ġmá»Ŀi": 2051,
      "Ġmá»¥c": 2052,
      "Ġthá»Ń": 2053,
      "ĠLan": 2054,
      "ĠDO": 2055,
      "ĠKM": 2056,
      "ĠÄĳÃ³n": 2057,
      "ĠQuy": 2058,
      "ĠGÃ¡i": 2059,
      "ĠloÃłi": 2060,
      "ĠIn": 2061,
      "ĠcÆ¡m": 2062,
      "ĠVietnam": 2063,
      "ĠkÃ¬a": 2064,
      "Ġtá»ĵn": 2065,
      "ĠÄĤN": 2066,
      "faceredheartshapefaceredheartshape": 2067,
      "Cháº": 2068,
      "khÃ´ng": 2069,
      "out": 2070,
      "up": 2071,
      "vv": 2072,
      "¥m": 2073,
      "Ńn": 2074,
      "á»ĩ": 2075,
      "Ġcáº¥m": 2076,
      "Ġnen": 2077,
      "Ġlong": 2078,
      "ĠlÃ¡o": 2079,
      "Ġváº»": 2080,
      "Ġman": 2081,
      "ĠbÃ¡m": 2082,
      "Ġke": 2083,
      "ĠdáºŃy": 2084,
      "ĠngáºŃp": 2085,
      "Ġchinh": 2086,
      "ĠCT": 2087,
      "ĠCU": 2088,
      "ĠCÃģ": 2089,
      "Ġráº»": 2090,
      "Ġthan": 2091,
      "ĠthÄĥm": 2092,
      "Ġquáº£ng": 2093,
      "ĠNÆ°á»Ľc": 2094,
      "ĠNÃĵ": 2095,
      "ĠNAM": 2096,
      "Ġxinh": 2097,
      "Ġchá»ĵng": 2098,
      "Ġhá»¯u": 2099,
      "Ġtháº»": 2100,
      "Ġtháº§y": 2101,
      "Äĥáĺīg": 2102,
      "ĠnháºŃt": 2103,
      "ĠGaza": 2104,
      "Ġná»£": 2105,
      "Ġtuáº§n": 2106,
      "ĠThu": 2107,
      "ĠUS": 2108,
      "ĠTá»ķ": 2109,
      "ĠHoÃłng": 2110,
      "áº¬T": 2111,
      "ĠÃ¡p": 2112,
      "Ġisrael": 2113,
      "Báº¡n": 2114,
      "Lu": 2115,
      "Lá»Ļ": 2116,
      "Viet": 2117,
      "fe": 2118,
      "ran": 2119,
      "¹a": 2120,
      "ĠÃ¢u": 2121,
      "ļI": 2122,
      "á»¦": 2123,
      "áº³ng": 2124,
      "ĠtÃ´": 2125,
      "Ġtiá»ĥu": 2126,
      "ĠtÃ³c": 2127,
      "ĠcÅ©": 2128,
      "ĠcÃ¢y": 2129,
      "Ġcáº¡nh": 2130,
      "Ġnua": 2131,
      "ĠnÃ¢ng": 2132,
      "ĠÄĳáº·c": 2133,
      "Ġláº¥n": 2134,
      "Ġvinh": 2135,
      "ĠvÃ²ng": 2136,
      "Ġbe": 2137,
      "Ġbiet": 2138,
      "Ġbáº©n": 2139,
      "Ġki": 2140,
      "ĠkÃŃch": 2141,
      "Ġkiáº¿p": 2142,
      "Ġsi": 2143,
      "Ġsung": 2144,
      "Ġsáº»": 2145,
      "ĠtrÆ°Æ¡ng": 2146,
      "ĠtrÃ¡ch": 2147,
      "Ġhang": 2148,
      "ĠCA": 2149,
      "ĠCa": 2150,
      "ĠCÃ¡i": 2151,
      "Ġthuá»ĳc": 2152,
      "ĠNÃ³i": 2153,
      "Ġxáº£y": 2154,
      "ĠMÃ´": 2155,
      "ĠHay": 2156,
      "Ġtháº¥t": 2157,
      "Ġbá»Łi": 2158,
      "ĠchÃª": 2159,
      "ĠÄĲÆ¯á»¢": 2160,
      "Ġgiá»¯a": 2161,
      "Ġcáº£i": 2162,
      "Ġrat": 2163,
      "ĠAi": 2164,
      "ĠchÃºt": 2165,
      "Ġloáº¡n": 2166,
      "ĠTham": 2167,
      "ĠNHá»": 2168,
      "Ġup": 2169,
      "iÃªm": 2170,
      "ĠÃ´m": 2171,
      "ĠmuÃ´n": 2172,
      "ĠThÃ¡nh": 2173,
      "Æ¯á»ļC": 2174,
      "Æ¯á»ľI": 2175,
      "âĢįï¸ıâĢįï¸ı": 2176,
      "ĠÄĲÆ¯á»¢C": 2177,
      "AL": 2178,
      "ANH": 2179,
      "BÃ¡c": 2180,
      "NÃ³": 2181,
      "Thá»": 2182,
      "ter": 2183,
      "uoi": 2184,
      "vid": 2185,
      "Î¹": 2186,
      "Ïħ": 2187,
      "Ġoi": 2188,
      "ĠÃ¡o": 2189,
      "ĠtÆ°á»Ŀng": 2190,
      "Ġtiet": 2191,
      "Ġtáº§m": 2192,
      "Ġcáº¯t": 2193,
      "ĠnÃ¡t": 2194,
      "Ġnáº¡p": 2195,
      "ĠnÃ£o": 2196,
      "ĠÄĳáº£m": 2197,
      "Ġlua": 2198,
      "ĠmÃ³c": 2199,
      "Ġbáº¡o": 2200,
      "Ġkáº¿": 2201,
      "ĠdÆ°": 2202,
      "Ġdá»ĳi": 2203,
      "Ġdata": 2204,
      "ĠdÃµi": 2205,
      "ĠngÃłnh": 2206,
      "Ġtrá»Ļ": 2207,
      "Ġtren": 2208,
      "Ãªng": 2209,
      "ĠTI": 2210,
      "ĠTÆ°": 2211,
      "Ġhamas": 2212,
      "ĠrÃ¡c": 2213,
      "ĠrÄĥng": 2214,
      "Ġtha": 2215,
      "Ġthong": 2216,
      "Ġquen": 2217,
      "ĠNÄĥm": 2218,
      "ĠVn": 2219,
      "ĠVÅ©": 2220,
      "Ġchá»«ng": 2221,
      "ĠHÃĢ": 2222,
      "ĠgiÃ³": 2223,
      "Ġgioi": 2224,
      "ĠBáº£o": 2225,
      "ĠDá»": 2226,
      "ĠDÅ©ng": 2227,
      "ĠSao": 2228,
      "ĠKho": 2229,
      "Ġnháº¯c": 2230,
      "Ġnháº¡c": 2231,
      "Ġhoac": 2232,
      "ĠAN": 2233,
      "ĠANH": 2234,
      "Ġkhá»ĳi": 2235,
      "Ġcuoc": 2236,
      "Ġngoai": 2237,
      "Ġkhoáº£n": 2238,
      "ĠCá»§a": 2239,
      "ĠGia": 2240,
      "áº¢N": 2241,
      "Ġphim": 2242,
      "ĠThÃ¬": 2243,
      "obi": 2244,
      "AC": 2245,
      "ET": 2246,
      "Huy": 2247,
      "ID": 2248,
      "Nhá»¯ng": 2249,
      "OI": 2250,
      "OP": 2251,
      "con": 2252,
      "dp": 2253,
      "ve": 2254,
      "©u": 2255,
      "Ãī": 2256,
      "īa": 2257,
      "áºµ": 2258,
      "Ġtuy": 2259,
      "Ġtung": 2260,
      "ĠcÃ¡m": 2261,
      "Ġcuá»ĳi": 2262,
      "ĠnÃ¨": 2263,
      "ĠÄĳÃªn": 2264,
      "ĠlÃŃ": 2265,
      "Ġláº¡c": 2266,
      "ĠmÃ´i": 2267,
      "Ġmáº½": 2268,
      "Ġmat": 2269,
      "Ġmot": 2270,
      "Ġbáº¡i": 2271,
      "ĠbÃ©": 2272,
      "iá»ħ": 2273,
      "ĠgÃł": 2274,
      "Ġchiá»ģu": 2275,
      "ĠTT": 2276,
      "ĠTu": 2277,
      "ĠTháºŃt": 2278,
      "ĠhÆ¡i": 2279,
      "ĠÄĳá»īnh": 2280,
      "ĠCáº£m": 2281,
      "ĠCáº¢": 2282,
      "Ġthiá»ĩt": 2283,
      "Ġthiáº¿t": 2284,
      "ĠquÃªn": 2285,
      "Ġquáº£n": 2286,
      "ĠquÃ¡n": 2287,
      "ĠMi": 2288,
      "ĠMÃ¬nh": 2289,
      "Ġvá»±c": 2290,
      "Ġgiang": 2291,
      "Ġmá»ı": 2292,
      "one": 2293,
      "Ġthá»«a": 2294,
      "ĠÄĲáº¥t": 2295,
      "cho": 2296,
      "ĠBÃ¬nh": 2297,
      "ĠBáº¡n": 2298,
      "ĠBÃĮNH": 2299,
      "ĠLÃł": 2300,
      "ĠphÃ©t": 2301,
      "ĠDu": 2302,
      "ĠhÃ¨n": 2303,
      "Ġsá»ķ": 2304,
      "ĠTrÃ²n": 2305,
      "ĠÄĳiÃªn": 2306,
      "ĠSH": 2307,
      "Ġtrá»«": 2308,
      "ĠchÃºa": 2309,
      "Ġok": 2310,
      "ĠthÃ¡c": 2311,
      "Ġphá»¥": 2312,
      "Ġphá»ĳ": 2313,
      "ï¸ıï¸ı": 2314,
      "Äĳá»": 2315,
      "Ġhá»ĵn": 2316,
      "Ġngá»¯": 2317,
      "ĠNGÆ¯á»ľI": 2318,
      "ĠCSVN": 2319,
      "Thanh": 2320,
      "ĠMá»¸": 2321,
      "facebluesmiling": 2322,
      "ube": 2323,
      "Æ°á»¡ng": 2324,
      "BÃł": 2325,
      "Khi": 2326,
      "Xem": 2327,
      "ew": 2328,
      "op": 2329,
      "ur": 2330,
      "ÃĿ": 2331,
      "Ńp": 2332,
      "á»ŀ": 2333,
      "áºº": 2334,
      "Ġcáº¯p": 2335,
      "Ġniá»ĩm": 2336,
      "ĠÄĳáº³ng": 2337,
      "Ġmi": 2338,
      "ĠmÃª": 2339,
      "ĠbÃ¡": 2340,
      "Ġbon": 2341,
      "Ġbáº¡c": 2342,
      "Ġkiá»ģu": 2343,
      "ĠdÃłnh": 2344,
      "ĠsiÃªu": 2345,
      "Ġtrá»ĳn": 2346,
      "Ġchuyáº¿n": 2347,
      "ĠhÃłm": 2348,
      "áº¿p": 2349,
      "ĠÄĳá»¹": 2350,
      "Ġnhi": 2351,
      "ĠrÃłng": 2352,
      "ĠthÄĥng": 2353,
      "Ġquá»·": 2354,
      "ĠHÆ°Æ¡ng": 2355,
      "Ġvá»įng": 2356,
      "Ġhá»ĳi": 2357,
      "Ġtháº³ng": 2358,
      "Ġtháº¥p": 2359,
      "ĠÄĲi": 2360,
      "ĠÄĲáº¡i": 2361,
      "hia": 2362,
      "ĠBá»įn": 2363,
      "ĠPháº£i": 2364,
      "ĠLá»Ļc": 2365,
      "ĠLÃłm": 2366,
      "Ġluon": 2367,
      "ĠNgá»": 2368,
      "ĠNgÃłi": 2369,
      "Ġnghiá»ĩm": 2370,
      "Ġná»Ĺi": 2371,
      "lipp": 2372,
      "Ä©nh": 2373,
      "Ġtoan": 2374,
      "ĠÄĲá»ĥ": 2375,
      "ĠXHC": 2376,
      "ĠCHO": 2377,
      "Ġvnch": 2378,
      "ĠQuang": 2379,
      "Ġphá»ıng": 2380,
      "ĠGiÃ¡o": 2381,
      "Ġdiem": 2382,
      "Ġuk": 2383,
      "raina": 2384,
      "Ġsoáº¡n": 2385,
      "ĠÄĳoáº¡n": 2386,
      "ĠChÃºc": 2387,
      "ĠphÃºt": 2388,
      "ĠnghiÃªm": 2389,
      "Ġthá»ĭt": 2390,
      "ĠzÃ¢m": 2391,
      "ĠCHá»¦": 2392,
      "Ġlike": 2393,
      "ĠNhÃ¢n": 2394,
      "Cá»©": 2395,
      "Ġtrá»Ļm": 2396,
      "Pháº£i": 2397,
      "QC": 2398,
      "Ráº¥t": 2399,
      "báº¡n": 2400,
      "ore": 2401,
      "puc": 2402,
      "¢m": 2403,
      "ÃĴ": 2404,
      "Ġ_": 2405,
      "Ġáº¥u": 2406,
      "ĠÆł": 2407,
      "ĠtÃºi": 2408,
      "ĠcÃº": 2409,
      "ĠcÆ°á»Ŀng": 2410,
      "ĠÄĳáºŃp": 2411,
      "ĠÄĳÃŃch": 2412,
      "ĠÄĳáº¡t": 2413,
      "hÃ©t": 2414,
      "Ġlen": 2415,
      "ĠlÃŃnh": 2416,
      "Ġvv": 2417,
      "Ġvan": 2418,
      "Ġvin": 2419,
      "Ġvua": 2420,
      "ĠvÆ¡i": 2421,
      "Ġvá»ĳn": 2422,
      "ĠvÆ°á»£t": 2423,
      "ĠmÃ£": 2424,
      "ĠmÃ¹": 2425,
      "ĠmÆ¡i": 2426,
      "ĠmáºŃt": 2427,
      "Ġbiá»ĩn": 2428,
      "ĠkÃŃnh": 2429,
      "Ġdam": 2430,
      "Ġgam": 2431,
      "Ġsho": 2432,
      "Ġsuá»ĳt": 2433,
      "Ã¢p": 2434,
      "Ġchui": 2435,
      "ĠTáº¡i": 2436,
      "ĠThi": 2437,
      "Ġhu": 2438,
      "Ġhiáº¿n": 2439,
      "ĠCÄĥáĺīg": 2440,
      "Ġquoc": 2441,
      "ĠNAT": 2442,
      "ĠNÆ¯á»ļC": 2443,
      "ĠxÃłm": 2444,
      "Ġchá»ĳi": 2445,
      "ĠMobi": 2446,
      "Ġtá»ı": 2447,
      "ĠHÃłn": 2448,
      "ĠHá»į": 2449,
      "ĠgiÆ¡": 2450,
      "Ġgiai": 2451,
      "Ġgiáº£n": 2452,
      "Ġmá»©c": 2453,
      "ĠÄĲÃ³": 2454,
      "ĠÄĲÃºng": 2455,
      "ĠBáº£n": 2456,
      "ĠLu": 2457,
      "ĠDÆ°Æ¡ng": 2458,
      "ent": 2459,
      "ĠhÃº": 2460,
      "Ġsá»Ł": 2461,
      "Ġsá»Ńa": 2462,
      "Ġsá»įc": 2463,
      "ĠTran": 2464,
      "Ġphan": 2465,
      "Ġpháº¡t": 2466,
      "Ġyou": 2467,
      "Ġcach": 2468,
      "ĠTHI": 2469,
      "ĠTHá»": 2470,
      "Ãµm": 2471,
      "ĠHot": 2472,
      "Ġngá»§": 2473,
      "áº¢I": 2474,
      "áº¾N": 2475,
      "ĠHá»¯u": 2476,
      "á»ĲNG": 2477,
      "hanks": 2478,
      "Ġtháº£m": 2479,
      "aving": 2480,
      "ChÃŃnh": 2481,
      "ĠXHCN": 2482,
      "puchia": 2483,
      "ĠNATO": 2484,
      "BS": 2485,
      "CM": 2486,
      "CÃ¡m": 2487,
      "Tá»Ļi": 2488,
      "doc": 2489,
      "net": 2490,
      "ok": 2491,
      "os": 2492,
      "ĦN": 2493,
      "įt": 2494,
      "Ġcay": 2495,
      "Ġcanh": 2496,
      "ĠcÄĥn": 2497,
      "Ġly": 2498,
      "Ġlanh": 2499,
      "Ġloi": 2500,
      "Ġliá»ĩu": 2501,
      "Ġlá»ĵn": 2502,
      "ĠvÃ¢n": 2503,
      "ĠmÅ©": 2504,
      "ĠmÆ°a": 2505,
      "ĠbÃ¹": 2506,
      "ĠbÃłn": 2507,
      "ĠbÆ°ng": 2508,
      "ĠbiÃªt": 2509,
      "ĠdÃ¢y": 2510,
      "ĠghÃ©t": 2511,
      "Ġst": 2512,
      "ĠngÃ£": 2513,
      "ĠngÆ°á»£c": 2514,
      "Ġtro": 2515,
      "ĠTa": 2516,
      "ĠTin": 2517,
      "áº¡m": 2518,
      "ĠCClip": 2519,
      "áº¥c": 2520,
      "Ġre": 2521,
      "Ġrá»ĵng": 2522,
      "Ġthai": 2523,
      "Ġcá»¥c": 2524,
      "Ġxung": 2525,
      "ĠxÃŃt": 2526,
      "Ġxhcn": 2527,
      "ĠkhÃ¹ng": 2528,
      "ĠMiá»ģn": 2529,
      "ĠHO": 2530,
      "ĠHÃłng": 2531,
      "ĠgiÃ¡c": 2532,
      "Ġgiáº¥y": 2533,
      "ĠgiÃ¡m": 2534,
      "Ġhá»ķ": 2535,
      "á»ĵm": 2536,
      "ĠmÃłu": 2537,
      "ĠLá»Ļ": 2538,
      "Ġá»ķn": 2539,
      "Ãºa": 2540,
      "Ġsá»Ľm": 2541,
      "ĠTrÃ²": 2542,
      "ĠTrá»Ŀi": 2543,
      "ĠSáº£n": 2544,
      "ĠkhÄĥn": 2545,
      "ĠNguyÃªn": 2546,
      "ĠÄĳá»Ļt": 2547,
      "ĠphÃ¡n": 2548,
      "Ġphuc": 2549,
      "Ġkhá»ī": 2550,
      "Ġkhá»ĳn": 2551,
      "Ġtuong": 2552,
      "ĠloÃłn": 2553,
      "áº«u": 2554,
      "ÃĢO": 2555,
      "ÃĢY": 2556,
      "ĠXin": 2557,
      "Ġcafe": 2558,
      "Ġvien": 2559,
      "ĠTHÃĮ": 2560,
      "ĠTá»°": 2561,
      "ĠTá»ķng": 2562,
      "ĠClipClip": 2563,
      "Trong": 2564,
      "Ġsoan": 2565,
      "ĠQUY": 2566,
      "Ġnghia": 2567,
      "Ġvá»ĩn": 2568,
      "ĠháºŃn": 2569,
      "áº¬N": 2570,
      "ĠxÃ³m": 2571,
      "áº¦U": 2572,
      "Vá»¥": 2573,
      "ĠUSD": 2574,
      "ternet": 2575,
      "hanksdoc": 2576,
      "Bá»įn": 2577,
      "CL": 2578,
      "ChÃ¡": 2579,
      "Do": 2580,
      "Ho": 2581,
      "Táº¡i": 2582,
      "ck": 2583,
      "hÄ©": 2584,
      "ist": 2585,
      "line": 2586,
      "nn": 2587,
      "oáº¡i": 2588,
      "qu": 2589,
      "waving": 2590,
      "É¢": 2591,
      "Êľ": 2592,
      "Î±": 2593,
      "ĠÆ°á»Ľc": 2594,
      "Ġim": 2595,
      "ĠÃļ": 2596,
      "ĭnh": 2597,
      "ĠtÃ¡n": 2598,
      "Ġtim": 2599,
      "Ġtáº·ng": 2600,
      "ĠcáºŃp": 2601,
      "ĠnC": 2602,
      "ĠnÆ°Æ¡c": 2603,
      "Ġniá»ģm": 2604,
      "ĠlÃ¡i": 2605,
      "Ġliá»ģn": 2606,
      "Ġvs": 2607,
      "ĠvÃ©": 2608,
      "ĠbÃły": 2609,
      "Ġbáº§y": 2610,
      "ĠkÃª": 2611,
      "nhÆ°ng": 2612,
      "Ã¡p": 2613,
      "ĠdÃ£": 2614,
      "Ã³n": 2615,
      "Ġgáº¯ng": 2616,
      "ĠngÃ¢n": 2617,
      "ĠngÃ´i": 2618,
      "ĠngÄĥn": 2619,
      "Ġchua": 2620,
      "ĠTK": 2621,
      "ĠTiá»ģn": 2622,
      "ĠTáºŃp": 2623,
      "ĠToÃłn": 2624,
      "Ġhe": 2625,
      "Ġhao": 2626,
      "Ġhon": 2627,
      "ĠÄĳá»ģn": 2628,
      "Ġputin": 2629,
      "ĠCÅ©ng": 2630,
      "ĠrÃ´i": 2631,
      "ĠthÃł": 2632,
      "ĠVF": 2633,
      "ĠxÆ°Æ¡ng": 2634,
      "ĠxÄĥng": 2635,
      "Ġchá»Ľ": 2636,
      "ĠHuyÃªn": 2637,
      "ĠHÆ°ng": 2638,
      "ĠHCM": 2639,
      "Ġgiau": 2640,
      "uyáº¿t": 2641,
      "áºŃm": 2642,
      "ĠÄĲÃĥ": 2643,
      "Ã£nh": 2644,
      "Ġlá»§": 2645,
      "ĠBÃł": 2646,
      "ĠphÃ©p": 2647,
      "ĠDe": 2648,
      "ĠhÃ¡": 2649,
      "Ġsá»¯a": 2650,
      "Ã¹m": 2651,
      "Ġnháº¯n": 2652,
      "ĠhoÃ¡": 2653,
      "ĠhoÃłi": 2654,
      "ĠhoÃłng": 2655,
      "Ġhoáº¡t": 2656,
      "ĠQT": 2657,
      "Ġluc": 2658,
      "Ġluong": 2659,
      "ĠNgÃ´": 2660,
      "Ġná»¯": 2661,
      "ĠthuáºŃn": 2662,
      "ĠThanh": 2663,
      "ÃĶI": 2664,
      "ĠÄĲá»Ĺ": 2665,
      "ĠCHÃį": 2666,
      "Ġchuá»Ļt": 2667,
      "Ġukrain": 2668,
      "ess": 2669,
      "ĠNhÃł": 2670,
      "inkwaving": 2671,
      "áº¾T": 2672,
      "Ġkháº©u": 2673,
      "ĠÃĤm": 2674,
      "uba": 2675,
      "Ġnháº£y": 2676,
      "ĠCali": 2677,
      "dpinkwaving": 2678,
      "iá»ħm": 2679,
      "ThanhNguyen": 2680,
      "lippin": 2681,
      "ĠÃļc": 2682,
      "EL": 2683,
      "EM": 2684,
      "Hot": 2685,
      "TH": 2686,
      "VÅ©": 2687,
      "eg": 2688,
      "ig": 2689,
      "mQ": 2690,
      "pe": 2691,
      "ta": 2692,
      "thÃ": 2693,
      "thanksdoc": 2694,
      "váºŃy": 2695,
      "¢t": 2696,
      "ÃĻ": 2697,
      "Ïĥ": 2698,
      "ĴNG": 2699,
      "ĺNG": 2700,
      "áº¶": 2701,
      "ngÆ°á»Ŀi": 2702,
      "Ġte": 2703,
      "Ġtq": 2704,
      "Ġten": 2705,
      "Ġtuyá»ĥn": 2706,
      "Ġcau": 2707,
      "Ġnc": 2708,
      "ĠniÃªn": 2709,
      "ĠÄĳao": 2710,
      "ĠÄĳÆ°Æ¡ng": 2711,
      "ĠÄĳÄ©": 2712,
      "ĠlÃª": 2713,
      "ĠlÄĥng": 2714,
      "Ġláº«n": 2715,
      "Æ°c": 2716,
      "Ġvc": 2717,
      "Ġmanh": 2718,
      "Ġmau": 2719,
      "Ġmáº¯n": 2720,
      "ĠmÃ¨o": 2721,
      "ĠmÃµm": 2722,
      "ĠbáºŃy": 2723,
      "Ġbat": 2724,
      "Ġkim": 2725,
      "Ã¡y": 2726,
      "Ġdinh": 2727,
      "Ġgan": 2728,
      "ĠsÃ¡nh": 2729,
      "Ġnguyá»ĩn": 2730,
      "Ġtráº§n": 2731,
      "Ġchan": 2732,
      "Ġchiáº¿u": 2733,
      "Ġchiáº¿c": 2734,
      "ĠTáº¥t": 2735,
      "Ġhanh": 2736,
      "ĠCuba": 2737,
      "Ġnho": 2738,
      "ĠrÆ¡i": 2739,
      "ĠquáºŃn": 2740,
      "ĠNÃªn": 2741,
      "ĠMua": 2742,
      "ĠHUY": 2743,
      "Ġhá»ķng": 2744,
      "ĠchÃ¹a": 2745,
      "Äĥt": 2746,
      "ĠÄĲÃ£": 2747,
      "ĠÄĲáº¿n": 2748,
      "ĠÄĲá»ĵng": 2749,
      "ĠÄĲBS": 2750,
      "Æ°Æ¡n": 2751,
      "ĠDV": 2752,
      "Ġcháº·": 2753,
      "ĠÄĳiÃªu": 2754,
      "ĠKhi": 2755,
      "ĠKinh": 2756,
      "ĠKim": 2757,
      "Ġkhg": 2758,
      "Ġkhiáº¿n": 2759,
      "ĠGS": 2760,
      "ĠGIá»": 2761,
      "áº·n": 2762,
      "Ġbá»ĭp": 2763,
      "Ġtoc": 2764,
      "ĠtoÃ¡n": 2765,
      "Ã©n": 2766,
      "Ġtuc": 2767,
      "ĠThÃłnh": 2768,
      "ĠTheo": 2769,
      "Ġcuá»ĵng": 2770,
      "Nga": 2771,
      "Ġháº¡t": 2772,
      "ÃĤY": 2773,
      "ĠRá»": 2774,
      "ĠRAU": 2775,
      "Ġkhoa": 2776,
      "ĠTRUNG": 2777,
      "Ġbá»ıng": 2778,
      "ĠNHÆ¯": 2779,
      "ĠNHÃĤN": 2780,
      "Iá»ĢN": 2781,
      "Ġuu": 2782,
      "ĠPhÃºc": 2783,
      "ĠChÃŃ": 2784,
      "Trung": 2785,
      "ÃĬU": 2786,
      "ĠNGAY": 2787,
      "ideo": 2788,
      "kkkk": 2789,
      "Ġcsvn": 2790,
      "Ġnghá»ģ": 2791,
      "Theo": 2792,
      "ÄĲá»ĭt": 2793,
      "UYá»": 2794,
      "ĠGIÃģ": 2795,
      "handpinkwaving": 2796,
      "ĠLÃĢM": 2797,
      "ÄĤM": 2798,
      "ÄĤNG": 2799,
      "áº¦N": 2800,
      "ĠthÃ¢y": 2801,
      "ĠCampuchia": 2802,
      "NhÃ¬n": 2803,
      "ilm": 2804,
      "Ġbá»ĵi": 2805,
      "ada": 2806,
      "ĠÄĲBSCL": 2807,
      "Hay": 2808,
      "Israel": 2809,
      "Ko": 2810,
      "UC": 2811,
      "Uá»": 2812,
      "Vin": 2813,
      "VID": 2814,
      "Video": 2815,
      "cÃ³": 2816,
      "dÃ¢n": 2817,
      "ky": 2818,
      "ld": 2819,
      "ly": 2820,
      "ram": 2821,
      "sao": 2822,
      "ty": 2823,
      "tá»": 2824,
      "tÃ´i": 2825,
      "xhcn": 2826,
      "¥n": 2827,
      "§m": 2828,
      "¨C": 2829,
      "Ġam": 2830,
      "ĠÆ°Æ¡ng": 2831,
      "Ġáĺīg": 2832,
      "Ġà¸Ĺ": 2833,
      "ĢU": 2834,
      "ĩt": 2835,
      "ĺI": 2836,
      "ĠtÃło": 2837,
      "Ġtáº¡c": 2838,
      "Ġtáº©y": 2839,
      "ĠcÃ¢n": 2840,
      "ĠcÃ¡nh": 2841,
      "Ġnn": 2842,
      "ĠnÃ´ng": 2843,
      "Ġnap": 2844,
      "ĠÄĳÃªm": 2845,
      "Ġláº§m": 2846,
      "Ġmáº¿n": 2847,
      "Ġmien": 2848,
      "ĠmÃ¹a": 2849,
      "ĠmÆ°á»£n": 2850,
      "Ġku": 2851,
      "Ġdon": 2852,
      "ĠdÆ°Æ¡ng": 2853,
      "Ġdáº§n": 2854,
      "Ġdat": 2855,
      "Ġduc": 2856,
      "ĠdÃ²ng": 2857,
      "Ã³m": 2858,
      "ĠsÃłn": 2859,
      "ĠsÃºng": 2860,
      "Ġsuc": 2861,
      "ĠngÃ´": 2862,
      "Ġtru": 2863,
      "ĠtrÃ¬": 2864,
      "ĠtrÃ¹ng": 2865,
      "Ġtruong": 2866,
      "Ġchong": 2867,
      "ĠTV": 2868,
      "ĠTÃ¢n": 2869,
      "ĠTÃĢ": 2870,
      "Ġham": 2871,
      "Ġhung": 2872,
      "Ġhap": 2873,
      "ĠÄĳá»ĳt": 2874,
      "ĠthÃŃm": 2875,
      "Ġcá»¡": 2876,
      "Ġquá»": 2877,
      "ĠquÃ´c": 2878,
      "ĠNhá»": 2879,
      "ĠVC": 2880,
      "ĠxÃłi": 2881,
      "ĠMa": 2882,
      "ĠMÃĢ": 2883,
      "ĠMom": 2884,
      "Ġtá»ĩ": 2885,
      "ĠHai": 2886,
      "Ġvá»¯ng": 2887,
      "Ġbá»Ľt": 2888,
      "Ã£ng": 2889,
      "Ġlá»ģ": 2890,
      "ĠBá»ĵ": 2891,
      "ĠBá»Ļ": 2892,
      "ĠLA": 2893,
      "ĠphÃ¹": 2894,
      "Ġgiá»įng": 2895,
      "ens": 2896,
      "Ġsá»§a": 2897,
      "Ġsá»¥p": 2898,
      "ĠTrÃł": 2899,
      "ĠTrÆ°á»Ŀng": 2900,
      "Ġháº±ng": 2901,
      "ĠSá»ĳ": 2902,
      "ĠSÆ¡n": 2903,
      "Ġhoáº¡i": 2904,
      "ĠNgay": 2905,
      "ĠÄĳÃ£i": 2906,
      "ĠÄĳÃ£ng": 2907,
      "Ġngheo": 2908,
      "Ġdá»¥": 2909,
      "Ġdá»¯": 2910,
      "Ġquyen": 2911,
      "Ġthuong": 2912,
      "ĠThe": 2913,
      "ÃĶN": 2914,
      "ell": 2915,
      "ĠÄĲá»«ng": 2916,
      "Ġtá»ĳn": 2917,
      "Ġchá»§ng": 2918,
      "Ġthich": 2919,
      "ĠQuÃ¡": 2920,
      "ĠTá»±": 2921,
      "ĠIran": 2922,
      "áĺīh": 2923,
      "Cho": 2924,
      "ĠCá»©": 2925,
      "ĠChÃ³": 2926,
      "ĠsoÃ¡t": 2927,
      "ĠNhÆ°": 2928,
      "Ġbuá»ķi": 2929,
      "ĠNGH": 2930,
      "Ġthoáº¡i": 2931,
      "ĠChá»§": 2932,
      "ĠChá»ĭ": 2933,
      "ĠYou": 2934,
      "QuÃ¡": 2935,
      "Quan": 2936,
      "Tá»¥i": 2937,
      "Ġmuon": 2938,
      "Ġcháº£y": 2939,
      "ĠThÃŃch": 2940,
      "user": 2941,
      "Æ°á»¡i": 2942,
      "Ġkháº£o": 2943,
      "ĠhÃªt": 2944,
      "girl": 2945,
      "Ġcomm": 2946,
      "ĠNÃĵI": 2947,
      "Êľá´": 2948,
      "ĠCHÃįNH": 2949,
      "AP": 2950,
      "BÃ¢y": 2951,
      "Chi": 2952,
      "Dang": 2953,
      "Há»į": 2954,
      "My": 2955,
      "MÃ¬nh": 2956,
      "MÃły": 2957,
      "Phi": 2958,
      "Sá»": 2959,
      "Xe": 2960,
      "cm": 2961,
      "cs": 2962,
      "chÃ": 2963,
      "cÃ²n": 2964,
      "lv": 2965,
      "nÄĥm": 2966,
      "og": 2967,
      "rou": 2968,
      "tháº±ng": 2969,
      "§i": 2970,
      "®NG": 2971,
      "±u": 2972,
      "³n": 2973,
      "ĠÃ´i": 2974,
      "ĠÃ³c": 2975,
      "Ġáº¤": 2976,
      "Ġá´": 2977,
      "ĠáĹ°": 2978,
      "ĬCH": 2979,
      "ĺT": 2980,
      "á»§": 2981,
      "á»Į": 2982,
      "ĠtáºŃt": 2983,
      "Ġtel": 2984,
      "Ġtáº¯c": 2985,
      "ĠtÆ°Æ¡i": 2986,
      "ĠcÃ²": 2987,
      "ĠcÄĥng": 2988,
      "ĠÄĳinh": 2989,
      "ĠÄĳÃ¢t": 2990,
      "Ġle": 2991,
      "ĠlÃ²": 2992,
      "Ġláº¡nh": 2993,
      "Ġvo": 2994,
      "Ġváº½": 2995,
      "Ġmo": 2996,
      "ĠmÃ¢y": 2997,
      "Ġbam": 2998,
      "Ġbá»ĳc": 2999,
      "iá»ĳng": 3000,
      "Ġghi": 3001,
      "ĠgÆ°Æ¡ng": 3002,
      "Ġgháº¿": 3003,
      "Ġsach": 3004,
      "ĠtrÃł": 3005,
      "Ġtrao": 3006,
      "Ġtruoc": 3007,
      "Ġchuyen": 3008,
      "ĠTC": 3009,
      "ĠTo": 3010,
      "ĠTháº±ng": 3011,
      "ĠTmQ": 3012,
      "Ġhiáº¿m": 3013,
      "ĠÄĳá»Ĺ": 3014,
      "ĠCO": 3015,
      "ĠCan": 3016,
      "ĠCong": 3017,
      "ĠChÃ¡": 3018,
      "Ġnhiá»ħm": 3019,
      "Ġro": 3020,
      "Ġthiá»ĩu": 3021,
      "ĠthÆ°á»£ng": 3022,
      "Ġcá»ĳng": 3023,
      "ĠVi": 3024,
      "ĠVu": 3025,
      "Ġxo": 3026,
      "ĠxÃ¡ch": 3027,
      "Ġchá»¥p": 3028,
      "ĠMáº¥y": 3029,
      "ĠMuá»ĳn": 3030,
      "ĠHÃ´m": 3031,
      "Ġgiup": 3032,
      "Ġbá»£": 3033,
      "Ġbá»ķ": 3034,
      "Ġbá»¥ng": 3035,
      "ĠchÃ³ng": 3036,
      "ĠÄĲáº¡o": 3037,
      "ĠÄĲÃĵ": 3038,
      "Ġlá»¯a": 3039,
      "ĠBI": 3040,
      "ĠBÃªn": 3041,
      "ĠLi": 3042,
      "ĠLong": 3043,
      "ĠLÆ°u": 3044,
      "Ġá»īa": 3045,
      "ĠDung": 3046,
      "ĠDUY": 3047,
      "ĠnhÃ¡": 3048,
      "Ġháº¥p": 3049,
      "ĠSo": 3050,
      "ĠSÃłi": 3051,
      "ĠSho": 3052,
      "Ġnháº¹": 3053,
      "Ġhom": 3054,
      "ĠGÃ²n": 3055,
      "Ġná»Ńa": 3056,
      "Æ°á»Ŀn": 3057,
      "Ġdá»Ł": 3058,
      "Ġdá»Ŀi": 3059,
      "ÄĲÃ¢y": 3060,
      "ĠÄĳÃ¡p": 3061,
      "Ġtat": 3062,
      "áº¹o": 3063,
      "ĠthuáºŃt": 3064,
      "Ġah": 3065,
      "ĠXÃ´": 3066,
      "ĠQuÃ½": 3067,
      "Ġfac": 3068,
      "Ġdien": 3069,
      "Ġhá»ĵng": 3070,
      "ÆłN": 3071,
      "ĠchÃ¡nh": 3072,
      "ĠhÃ£ng": 3073,
      "áºłN": 3074,
      "áº¤P": 3075,
      "ĠOK": 3076,
      "Ġthoai": 3077,
      "ÄĲá»«ng": 3078,
      "Quay": 3079,
      "ĠEM": 3080,
      "Chá»ĭ": 3081,
      "Ġhotgirl": 3082,
      "ĠkÃ©o": 3083,
      "Ġdá»±a": 3084,
      "ĠdÃ¹m": 3085,
      "ĠthÃ¢t": 3086,
      "ĠZalo": 3087,
      "ĠthÃºc": 3088,
      "ĠCuá»Ļc": 3089,
      "É´É¢": 3090,
      "ĠPhÃ²ng": 3091,
      "Ġtieng": 3092,
      "outube": 3093,
      "ĠCÃģC": 3094,
      "ĠKhoa": 3095,
      "Ġgame": 3096,
      "ĠThiÃªn": 3097,
      "lippines": 3098,
      "thanksdocthanksdoc": 3099,
      "handpinkwavinghandpinkwaving": 3100,
      "HÃ´m": 3101,
      "KH": 3102,
      "LÃłm": 3103,
      "Mong": 3104,
      "Nháº": 3105,
      "OK": 3106,
      "Ph": 3107,
      "Putin": 3108,
      "Quy": 3109,
      "TS": 3110,
      "TháºŃt": 3111,
      "Vn": 3112,
      "VÃ¬": 3113,
      "ber": 3114,
      "cc": 3115,
      "ce": 3116,
      "chá»": 3117,
      "chÃº": 3118,
      "hen": 3119,
      "ion": 3120,
      "la": 3121,
      "xin": 3122,
      "§u": 3123,
      "°NG": 3124,
      "Ġac": 3125,
      "Ġáº¢": 3126,
      "ĴI": 3127,
      "á»Ľ": 3128,
      "á»Ł": 3129,
      "Ġtang": 3130,
      "ĠtÆ¡i": 3131,
      "Ġtiá»ĩn": 3132,
      "ĠtÃ¡t": 3133,
      "ĠcÃ¢m": 3134,
      "Ġcuá»ĳn": 3135,
      "ĠcÃ£i": 3136,
      "Ġne": 3137,
      "Ġninh": 3138,
      "ĠnÆ°a": 3139,
      "Ġnat": 3140,
      "Ġná»ĳi": 3141,
      "ĠÄĳung": 3142,
      "ĠÄĳáº©y": 3143,
      "ĠlÃ¢m": 3144,
      "Ġláº¿u": 3145,
      "Ġliáº¿m": 3146,
      "Ġláº¥p": 3147,
      "Ġlá»ĳi": 3148,
      "ĠlÆ°á»£t": 3149,
      "ĠlÃ©n": 3150,
      "ĠvÆ¡": 3151,
      "Ġvie": 3152,
      "ĠvÆ°á»£n": 3153,
      "Ġmn": 3154,
      "Ġbáº£": 3155,
      "ĠbÆ¡": 3156,
      "ĠkÃŃ": 3157,
      "Ã³t": 3158,
      "Ġgáº¥p": 3159,
      "ĠgÃ³i": 3160,
      "Ġsáº¡t": 3161,
      "Ġngang": 3162,
      "Ġngá»ĳc": 3163,
      "Ġnguyá»ħn": 3164,
      "ĠtrÃ¡": 3165,
      "Ġchang": 3166,
      "ĠchÄĥng": 3167,
      "Ġchuc": 3168,
      "ĠTÃ¡t": 3169,
      "ĠTIá»ĢN": 3170,
      "Ġhat": 3171,
      "Ġhien": 3172,
      "Ġhiá»ĩp": 3173,
      "ĠCÃ´": 3174,
      "ĠrÃ¢t": 3175,
      "Ġcá»Ľ": 3176,
      "ĠquÃ¡i": 3177,
      "ĠNhá»¯ng": 3178,
      "ĠNÄĤM": 3179,
      "ĠViÃªn": 3180,
      "Ġxáº£": 3181,
      "ĠxÃºc": 3182,
      "ĠMC": 3183,
      "ĠMG": 3184,
      "Ġtá»¥": 3185,
      "Ġtá»ī": 3186,
      "ĠHd": 3187,
      "ĠHá»ĵi": 3188,
      "ĠHÃłnh": 3189,
      "ĠHÃ¹ng": 3190,
      "ĠHÃĶ": 3191,
      "ĠHá»Ļi": 3192,
      "ĠHÃ²a": 3193,
      "Ġvá»¡": 3194,
      "Ġgiam": 3195,
      "ĠgiÆ¡i": 3196,
      "Ġthá»ĳi": 3197,
      "Äĥp": 3198,
      "ĠÄĲÃ¢y": 3199,
      "Ġlá»ħ": 3200,
      "Ġlá»Ł": 3201,
      "Ġlá»ĩnh": 3202,
      "ĠBac": 3203,
      "ĠBAO": 3204,
      "ĠLinh": 3205,
      "ĠLÃ½": 3206,
      "ĠphÃ³": 3207,
      "á»Ļn": 3208,
      "ĠDay": 3209,
      "ĠDon": 3210,
      "ĠhÃ´i": 3211,
      "Ġsá»©": 3212,
      "Ġháº³n": 3213,
      "ĠSai": 3214,
      "ĠKhá»": 3215,
      "Ġkhung": 3216,
      "Ġhoáº¡ch": 3217,
      "Ġluu": 3218,
      "ĠNghÄ©": 3219,
      "Ġnghiá»ĩn": 3220,
      "Ġdá»«ng": 3221,
      "ĠphÃ¡o": 3222,
      "ieng": 3223,
      "ĠAI": 3224,
      "ĠAm": 3225,
      "áº»o": 3226,
      "Æ¯A": 3227,
      "Nguoi": 3228,
      "ĠÄĲá»ĴNG": 3229,
      "ĠCHÃļ": 3230,
      "Ġcali": 3231,
      "ĠTHáº¾": 3232,
      "ÃģNH": 3233,
      "ÃĤU": 3234,
      "ĠRá»ĵi": 3235,
      "ĠRáºŃp": 3236,
      "ĠCá»ĺNG": 3237,
      "Iá»ĦN": 3238,
      "Iá»ĢU": 3239,
      "ÆłI": 3240,
      "Ġus": 3241,
      "ĠchÃ¡n": 3242,
      "Ġngá»£i": 3243,
      "ĠThá»ĭ": 3244,
      "áº¢NG": 3245,
      "ĠPhan": 3246,
      "ĠQUÃģ": 3247,
      "ĠnghÃª": 3248,
      "Ġvá»ĭt": 3249,
      "ĠKHá»": 3250,
      "ĠOn": 3251,
      "ĠVá»ģ": 3252,
      "ÄĲá»©c": 3253,
      "ĠKá»·": 3254,
      "ĠGIAO": 3255,
      "Ġzalo": 3256,
      "Å¨NG": 3257,
      "ĠBá»ĭ": 3258,
      "Chá»ĳng": 3259,
      "Chá»ĭch": 3260,
      "ĠviÃªc": 3261,
      "ChÃºng": 3262,
      "ATA": 3263,
      "ĠTháº§y": 3264,
      "ÃĥI": 3265,
      "ĠTRá»Ĭ": 3266,
      "Æ¯á»ľNG": 3267,
      "haha": 3268,
      "ThÃ´i": 3269,
      "CSVN": 3270,
      "ĠInternet": 3271,
      "faceredheartshapefaceredheartshapefaceredheartshapefaceredheartshape": 3272,
      "Luu": 3273,
      "ĠNHá»®NG": 3274,
      "áºµn": 3275,
      "ĠNgá»¥y": 3276,
      "Ġshow": 3277,
      "egram": 3278,
      "DangLuu": 3279,
      "BO": 3280,
      "Ba": 3281,
      "Cam": 3282,
      "CÃ´ng": 3283,
      "Fone": 3284,
      "Kh": 3285,
      "MS": 3286,
      "Má»įi": 3287,
      "Phan": 3288,
      "Tiáº¿p": 3289,
      "ToÃłn": 3290,
      "UA": 3291,
      "UM": 3292,
      "by": 3293,
      "bá»": 3294,
      "da": 3295,
      "fia": 3296,
      "ip": 3297,
      "ka": 3298,
      "ko": 3299,
      "lsa": 3300,
      "py": 3301,
      "¤C": 3302,
      "±t": 3303,
      "ĠÃ¡i": 3304,
      "ĠÃĶ": 3305,
      "Ġuc": 3306,
      "Ġit": 3307,
      "ĭa": 3308,
      "ĭp": 3309,
      "ĮC": 3310,
      "ıa": 3311,
      "ĳc": 3312,
      "ĺC": 3313,
      "á»Ĺi": 3314,
      "áº°NG": 3315,
      "ĠtÃª": 3316,
      "Ġtau": 3317,
      "ĠtÃ¡ch": 3318,
      "Ġtuyáº¿n": 3319,
      "Ġcang": 3320,
      "ĠcÆ°Æ¡": 3321,
      "ĠcáºŃn": 3322,
      "Ġcáº¯m": 3323,
      "ĠnB": 3324,
      "Ġnon": 3325,
      "ĠnÃ´i": 3326,
      "ĠnÃŃt": 3327,
      "Ġneu": 3328,
      "ĠÄĳÃłng": 3329,
      "ĠÄĳÆ¡i": 3330,
      "ĠÄĳÃŃt": 3331,
      "ĠÄĳÃ¨": 3332,
      "ĠÄĳáº¥m": 3333,
      "ĠÄĳáºŃu": 3334,
      "ĠlÃ´": 3335,
      "Ġliá»ĩt": 3336,
      "Ġlau": 3337,
      "ĠlÃ´i": 3338,
      "ĠlÃ¹a": 3339,
      "Ġvk": 3340,
      "Ġvai": 3341,
      "Ġváº¹": 3342,
      "Ġváº©n": 3343,
      "ĠmÃ¡i": 3344,
      "ĠmÄ©": 3345,
      "Ġmom": 3346,
      "Ġmáº«u": 3347,
      "Ġbai": 3348,
      "ĠbÃ£i": 3349,
      "Ġbáº¡ch": 3350,
      "Ã¡u": 3351,
      "ĠdÆ°á»£c": 3352,
      "ĠdÅ©ng": 3353,
      "ĠdÃłng": 3354,
      "ĠdÃŃnh": 3355,
      "Ġdáº¡ng": 3356,
      "ĠdÆ°á»¡ng": 3357,
      "Ġdlv": 3358,
      "Ġgo": 3359,
      "Ġsy": 3360,
      "Ġsá»¹": 3361,
      "ĠsáºŃp": 3362,
      "Ġsáºµn": 3363,
      "ĠtrÃºng": 3364,
      "Ġtráº£i": 3365,
      "ĠtrÆ°á»Ľng": 3366,
      "Ãªt": 3367,
      "Ġchau": 3368,
      "ĠTÄĥng": 3369,
      "ĠTÆ¯": 3370,
      "ĠTáº£i": 3371,
      "ĠThÃ´ng": 3372,
      "ĠTáº·ng": 3373,
      "ĠTiáº¿ng": 3374,
      "Ġhy": 3375,
      "ĠhiÃªn": 3376,
      "ĠhiÃªu": 3377,
      "Ġhuyá»ģn": 3378,
      "ĠCC": 3379,
      "ĠCr": 3380,
      "ĠCao": 3381,
      "ĠCli": 3382,
      "ĠCÄĥng": 3383,
      "ĠCON": 3384,
      "Ġnhai": 3385,
      "ĠnhÆ¡n": 3386,
      "Ġnhac": 3387,
      "Ġnhat": 3388,
      "ĠthÃ¨": 3389,
      "Ġthuyáº¿t": 3390,
      "Ġquang": 3391,
      "ĠNhi": 3392,
      "ĠVÆ°á»£ng": 3393,
      "ĠViÃªt": 3394,
      "ĠxÃºi": 3395,
      "ĠkhÃ´": 3396,
      "Ġchá»Ł": 3397,
      "ĠMÃ£": 3398,
      "ail": 3399,
      "Ġtá»Ŀ": 3400,
      "Ġtá»¥t": 3401,
      "ĠHa": 3402,
      "ĠHuong": 3403,
      "ĠgiÃ¡n": 3404,
      "ĠgiÃłnh": 3405,
      "Ġgiáº£ng": 3406,
      "Ġmá»¡": 3407,
      "Ġmá»ĩnh": 3408,
      "Ġchoi": 3409,
      "Ġbá»ģn": 3410,
      "Ġbá»«a": 3411,
      "ĠchÃ¢m": 3412,
      "áº§ng": 3413,
      "ĠÄĲá»Ļ": 3414,
      "ĠÄĲÃłi": 3415,
      "hin": 3416,
      "Ġlá»įc": 3417,
      "ĠPutin": 3418,
      "ĠLU": 3419,
      "ĠLa": 3420,
      "ĠLÆ°Æ¡ng": 3421,
      "ĠphÃŃa": 3422,
      "Ġgiá»Ŀi": 3423,
      "ĠDI": 3424,
      "ĠDan": 3425,
      "ĠDang": 3426,
      "ĠDAU": 3427,
      "ĠnhÃº": 3428,
      "ĠSinh": 3429,
      "ĠSMS": 3430,
      "ĠKo": 3431,
      "ĠKhÃ¡": 3432,
      "Ġkhoi": 3433,
      "Ġtrá»į": 3434,
      "Ġluan": 3435,
      "ĠGs": 3436,
      "ĠGod": 3437,
      "ĠNguyen": 3438,
      "Ġbá»ĭa": 3439,
      "Ġbá»ĭnh": 3440,
      "ĠAl": 3441,
      "Ġkhá»ĳng": 3442,
      "ack": 3443,
      "ÄĲáº¥t": 3444,
      "ÄĲáº£ng": 3445,
      "ĠtoÃł": 3446,
      "Ġtuá»ĩ": 3447,
      "ĠkhÃ¡t": 3448,
      "ĠUc": 3449,
      "Ġad": 3450,
      "ÃĢN": 3451,
      "NgÃ´": 3452,
      "ĠÄĲá»Ĥ": 3453,
      "ĠXu": 3454,
      "ĠCHIáº¾": 3455,
      "ĠCHá»ĲNG": 3456,
      "Ġcá»©t": 3457,
      "Ġháº¡ng": 3458,
      "Ġchien": 3459,
      "ĠchiÃªu": 3460,
      "Ġká»ĩ": 3461,
      "ĠthiÃªng": 3462,
      "ald": 3463,
      "ĠRa": 3464,
      "ĠkhoÃ¡n": 3465,
      "Ġkhoáº»": 3466,
      "ĠChu": 3467,
      "ĠChÆ°a": 3468,
      "ĠChuc": 3469,
      "ChÆ¡i": 3470,
      "Chiáº¿n": 3471,
      "ĠFB": 3472,
      "Ġbolsa": 3473,
      "ĠchÃ¡o": 3474,
      "ese": 3475,
      "ĠThá»©": 3476,
      "uma": 3477,
      "ĠPHÃį": 3478,
      "Ġwit": 3479,
      "ĠVá»ļI": 3480,
      "ÄĲá»ĥ": 3481,
      "UYáº¾N": 3482,
      "ĠChá»©": 3483,
      "alestin": 3484,
      "Iá»ĨN": 3485,
      "ĠYÃĬU": 3486,
      "Ġrá»«ng": 3487,
      "ĠphÃŃm": 3488,
      "Tá»«": 3489,
      "Tá»±": 3490,
      "ÄĤn": 3491,
      "ĠLHQ": 3492,
      "NhÃł": 3493,
      "ĠthÆ°c": 3494,
      "ĠWC": 3495,
      "ĠCháº³ng": 3496,
      "ĠNháº¥t": 3497,
      "Ġtiep": 3498,
      "Cháº¯c": 3499,
      "ĠchÃªt": 3500,
      "ĠlÃŃp": 3501,
      "ĠSHOP": 3502,
      "ĠMobiFone": 3503,
      "ĠhÃºt": 3504,
      "ĠmÅ©i": 3505,
      "ĠTKC": 3506,
      "Ġukraine": 3507,
      "ĠYouT": 3508,
      "Ġáº¤n": 3509,
      "ĠCanada": 3510,
      "ĠcÆ°Æ¡p": 3511,
      "ĠCliClip": 3512,
      "Bá»": 3513,
      "Ban": 3514,
      "CP": 3515,
      "Co": 3516,
      "CÃ¢u": 3517,
      "Cá»Ļng": 3518,
      "Full": 3519,
      "Giá»Ŀ": 3520,
      "Hamas": 3521,
      "IN": 3522,
      "Láº¡i": 3523,
      "Minh": 3524,
      "Mua": 3525,
      "NÆ°á»Ľc": 3526,
      "RA": 3527,
      "SA": 3528,
      "Tuyá»ĩt": 3529,
      "UI": 3530,
      "VÅ¨": 3531,
      "Zalo": 3532,
      "ag": 3533,
      "bem": 3534,
      "chi": 3535,
      "clip": 3536,
      "chá»ī": 3537,
      "dan": 3538,
      "ear": 3539,
      "ii": 3540,
      "ill": 3541,
      "ki": 3542,
      "máº¥y": 3543,
      "nÃ³": 3544,
      "nÃ³i": 3545,
      "oe": 3546,
      "vÃł": 3547,
      "vÃ¬": 3548,
      "vÃło": 3549,
      "¢p": 3550,
      "¥u": 3551,
      "Ä¨": 3552,
      "Ð½": 3553,
      "ÑĤ": 3554,
      "â²": 3555,
      "ĠÃ¢n": 3556,
      "Ġáº¥p": 3557,
      "ĭn": 3558,
      "įa": 3559,
      "ľI": 3560,
      "á»µ": 3561,
      "á»ĢN": 3562,
      "áº¼": 3563,
      "Ġtt": 3564,
      "Ġtam": 3565,
      "Ġtáº¥m": 3566,
      "Ġtáº¡m": 3567,
      "Ġtáº§ng": 3568,
      "Ġcm": 3569,
      "ĠcÃ´n": 3570,
      "ĠcÃºt": 3571,
      "Ġnan": 3572,
      "ĠÄĳáº¯c": 3573,
      "ĠÄĳiá»ĩu": 3574,
      "ĠÄĳÃ©o": 3575,
      "hÃ£": 3576,
      "hÃ©": 3577,
      "ĠlÃ¢n": 3578,
      "ĠlÃ´ng": 3579,
      "ĠvÃª": 3580,
      "Ġváº¿": 3581,
      "ĠvÃ£i": 3582,
      "Ġvoa": 3583,
      "ĠvÆ°Æ¡n": 3584,
      "ĠmÃ´n": 3585,
      "ĠmÆ°u": 3586,
      "Ġmiáº¿ng": 3587,
      "ĠbÆ°á»Ľc": 3588,
      "Ġboi": 3589,
      "ĠbÃº": 3590,
      "ĠbÃłnh": 3591,
      "ĠbÃ¨": 3592,
      "ĠbÃ³ng": 3593,
      "Ġkeo": 3594,
      "Ġdua": 3595,
      "Ġdá»ĵn": 3596,
      "Ġgá»įn": 3597,
      "Ġgá»ĵm": 3598,
      "ĠsÃ¢n": 3599,
      "ĠsÆ¡n": 3600,
      "Ġsáº¡c": 3601,
      "Ġsáº¿p": 3602,
      "ĠngÆ°": 3603,
      "ĠngÅ©": 3604,
      "Ġngá»Ļ": 3605,
      "ĠngáºŃm": 3606,
      "Ġtrinh": 3607,
      "ĠtrÃ´i": 3608,
      "ĠtrÃłn": 3609,
      "Ġtriá»ģu": 3610,
      "ĠtrÃ¡nh": 3611,
      "Ġtrá»ĳng": 3612,
      "Ġchet": 3613,
      "ĠTA": 3614,
      "ĠTP": 3615,
      "ĠTay": 3616,
      "ĠTiÃªn": 3617,
      "ĠTiáº¿n": 3618,
      "Ġhiá»ģn": 3619,
      "Ġhcm": 3620,
      "ĠÄĳá»ĭch": 3621,
      "ĠlÃłng": 3622,
      "ĠCáº£": 3623,
      "ĠCÃĶNG": 3624,
      "ĠnhÆ¡": 3625,
      "ĠráºŃp": 3626,
      "ĠrÃ¡ch": 3627,
      "ĠrÃ¹i": 3628,
      "Ġcá»±u": 3629,
      "ĠNU": 3630,
      "ĠNV": 3631,
      "ĠNAY": 3632,
      "ĠNew": 3633,
      "ĠVinh": 3634,
      "ĠVÃłng": 3635,
      "Ġxi": 3636,
      "Ġxua": 3637,
      "Ġxac": 3638,
      "Ġxáº¿p": 3639,
      "ĠMong": 3640,
      "ĠMá»įi": 3641,
      "ĠMIá»ĦN": 3642,
      "ĠMÃĥI": 3643,
      "ĠHu": 3644,
      "ĠHÃ¡n": 3645,
      "Ġvá»Ĺ": 3646,
      "Ġtháº£i": 3647,
      "Ġbá»į": 3648,
      "Ġbá»ĥn": 3649,
      "ĠchÃ¬": 3650,
      "ĠchÃ©m": 3651,
      "ĠÄĲÃ¬nh": 3652,
      "ĠÄĲÃ¡m": 3653,
      "ĠÄĲáº¢NG": 3654,
      "Ã£n": 3655,
      "hip": 3656,
      "ĠBi": 3657,
      "ĠBAN": 3658,
      "ĠPar": 3659,
      "ĠLam": 3660,
      "ĠLÆ¯": 3661,
      "ĠLoan": 3662,
      "Ġá»ķng": 3663,
      "á»Ļp": 3664,
      "ĠDanh": 3665,
      "Ġcháº¥m": 3666,
      "ĠnhÃ£": 3667,
      "ĠTrÃªn": 3668,
      "Ġnhá»ĳt": 3669,
      "ĠSoan": 3670,
      "ĠSáº¢N": 3671,
      "ĠKiá»ģu": 3672,
      "Ġnháº±m": 3673,
      "Ġkhen": 3674,
      "Ġtrá»¥": 3675,
      "ĠVNxhcn": 3676,
      "Ġhá»įa": 3677,
      "Ġhá»įp": 3678,
      "Ġcáº£n": 3679,
      "Ġcáº£ng": 3680,
      "ĠGH": 3681,
      "ĠGÃĮ": 3682,
      "ĠNgu": 3683,
      "ĠNghá»": 3684,
      "ĠNgÃły": 3685,
      "ĠNgoáº¡i": 3686,
      "Ġdá»įa": 3687,
      "Ġphu": 3688,
      "Ġkhá»©": 3689,
      "Ġkhá»±a": 3690,
      "ÄĲi": 3691,
      "Ġchá»īnh": 3692,
      "Ġthuc": 3693,
      "Ġthuoc": 3694,
      "ĠkhÃ¡ng": 3695,
      "ĠThÆ¡": 3696,
      "Ġapp": 3697,
      "Ġcuu": 3698,
      "era": 3699,
      "ers": 3700,
      "Ġcá»©ng": 3701,
      "Ġngoan": 3702,
      "Ġchim": 3703,
      "ÃģC": 3704,
      "ÃģT": 3705,
      "Ġfr": 3706,
      "ÃĤM": 3707,
      "ĠTá»ª": 3708,
      "ĠPhilippines": 3709,
      "ĠRA": 3710,
      "Ġkhoáº£ng": 3711,
      "are": 3712,
      "ĠCha": 3713,
      "ĠChiáº¿n": 3714,
      "ĠChÃło": 3715,
      "ĠNHÃĢ": 3716,
      "Iá»Ĥ": 3717,
      "Trá»Ŀi": 3718,
      "áº¢O": 3719,
      "ĠÄĳoÃ¡n": 3720,
      "ĠQUA": 3721,
      "ĠnghÃ¬n": 3722,
      "ĠkhÃ³c": 3723,
      "ĠHá»Ĵ": 3724,
      "ime": 3725,
      "áºłO": 3726,
      "Ġxá»ı": 3727,
      "Ġcamera": 3728,
      "QuÃ¢n": 3729,
      "Tá»ķng": 3730,
      "ĠLá»ĭch": 3731,
      "OAN": 3732,
      "Ġsex": 3733,
      "Ġtháº£o": 3734,
      "Ġonline": 3735,
      "ĠNhÃ¬n": 3736,
      "Ġáĺīháº": 3737,
      "ĠthÃ¢m": 3738,
      "ĠVIÃĬN": 3739,
      "ĠSá»±": 3740,
      "Ġgá»¡": 3741,
      "NhÃ¢n": 3742,
      "ĠCovid": 3743,
      "ĠvÄ©nh": 3744,
      "Ġkiem": 3745,
      "âĢįï¸ıâĢįï¸ıâĢįï¸ıâĢįï¸ı": 3746,
      "ALE": 3747,
      "ĠHÃĢNG": 3748,
      "Ġmáº½o": 3749,
      "facebluesmilingfacebluesmiling": 3750,
      "ĠLuáºŃt": 3751,
      "ĠQUYá»ĢN": 3752,
      "Ġlá»ģu": 3753,
      "chÃŃnh": 3754,
      "ĠáĹ°Ãºp": 3755,
      "ĠSoáº¡n": 3756,
      "ĠUcraina": 3757,
      "Ġwith": 3758,
      "BC": 3759,
      "Biáº¿t": 3760,
      "Báº¯t": 3761,
      "Cs": 3762,
      "CÃ´": 3763,
      "Cáº§n": 3764,
      "EU": 3765,
      "Fast": 3766,
      "Hai": 3767,
      "HÃ£y": 3768,
      "Há»įc": 3769,
      "Khá»": 3770,
      "LiÃªn": 3771,
      "May": 3772,
      "Muá»ĳn": 3773,
      "Ná»": 3774,
      "Nuoc": 3775,
      "OC": 3776,
      "OR": 3777,
      "OU": 3778,
      "OáºłI": 3779,
      "Pay": 3780,
      "PhÃ¡": 3781,
      "RE": 3782,
      "Sau": 3783,
      "TC": 3784,
      "TÆ°": 3785,
      "Táº¥t": 3786,
      "XX": 3787,
      "bo": 3788,
      "cá»": 3789,
      "cong": 3790,
      "ep": 3791,
      "hd": 3792,
      "kt": 3793,
      "lÃł": 3794,
      "link": 3795,
      "lot": 3796,
      "nhÃ": 3797,
      "náº¿u": 3798,
      "ri": 3799,
      "ro": 3800,
      "ráº¥t": 3801,
      "te": 3802,
      "tn": 3803,
      "ton": 3804,
      "thi": 3805,
      "vÅ©": 3806,
      "yes": 3807,
      "±n": 3808,
      "Äĳi": 3809,
      "ĠÃ": 3810,
      "Ġáº£o": 3811,
      "Ġáº¥m": 3812,
      "nghe": 3813,
      "Ġtac": 3814,
      "Ġtáº£i": 3815,
      "Ġtáº¯m": 3816,
      "ĠtÃ¡nh": 3817,
      "ĠtiÃªng": 3818,
      "ĠtÃ³m": 3819,
      "Ġcáº·p": 3820,
      "Ġcáº·n": 3821,
      "Ġccc": 3822,
      "ĠÄĳong": 3823,
      "ĠÄĳÃ¢m": 3824,
      "ĠÄĳáº§n": 3825,
      "ĠÄĳeo": 3826,
      "ĠÄĳáº¯t": 3827,
      "ĠÄĳáº±ng": 3828,
      "ĠÄĳáº¯p": 3829,
      "ĠÄĳiá»ĩp": 3830,
      "ĠÄĳÃłm": 3831,
      "ĠlÆ¡i": 3832,
      "ĠlÄĥm": 3833,
      "Ġlá»ĵng": 3834,
      "Ġlien": 3835,
      "ĠliÃªm": 3836,
      "ĠlÄ©nh": 3837,
      "ĠvÆ°Æ¡ng": 3838,
      "ĠvÃ©t": 3839,
      "ĠvÆ°á»Ŀn": 3840,
      "ĠmÃ¬": 3841,
      "Ġmáº¡i": 3842,
      "ĠmÆ°á»Ŀi": 3843,
      "Ġmá»ĳi": 3844,
      "ĠmÃ¹i": 3845,
      "ĠmÃºa": 3846,
      "ĠbÃ³": 3847,
      "Ġbáº¯p": 3848,
      "ĠbÃ©t": 3849,
      "Ġbáº¥m": 3850,
      "Ġbiden": 3851,
      "ĠkiÃªn": 3852,
      "Ġdáº¡i": 3853,
      "Ġdieu": 3854,
      "ĠdÃ¡ng": 3855,
      "Ġduyá»ĩt": 3856,
      "ĠdÃ©p": 3857,
      "ĠgáºŃy": 3858,
      "Ġghe": 3859,
      "ĠgÃ³c": 3860,
      "ĠsÃ´": 3861,
      "Ġsáº¯m": 3862,
      "ĠsÃºc": 3863,
      "ĠtrÆ¡": 3864,
      "Ġtráº¡i": 3865,
      "ĠtrÃ´ng": 3866,
      "ĠtrÃło": 3867,
      "Ġtrá»ĵng": 3868,
      "ĠtrÃŃch": 3869,
      "Ġchai": 3870,
      "ĠchiÃªn": 3871,
      "ĠTS": 3872,
      "ĠTien": 3873,
      "ĠTáº¤T": 3874,
      "ĠTáºłI": 3875,
      "ĠTIáº¾": 3876,
      "ĠTÏĥ": 3877,
      "Ġhinh": 3878,
      "Ġhieu": 3879,
      "Ã´t": 3880,
      "ĠÄĳá»£i": 3881,
      "ĠÄĳá»¥ng": 3882,
      "ĠCÆ°á»Ľp": 3883,
      "ĠnhÆ°á»Ŀng": 3884,
      "Ġranh": 3885,
      "Ġrá»ĳi": 3886,
      "ĠrÃ¡p": 3887,
      "Ġcá»ı": 3888,
      "Ġcá»įng": 3889,
      "Ġcá»įc": 3890,
      "Ġqui": 3891,
      "Ġquanh": 3892,
      "ĠNáºł": 3893,
      "ĠVA": 3894,
      "Ġxáº¡": 3895,
      "ĠxÃ´": 3896,
      "Ġxau": 3897,
      "ĠMA": 3898,
      "Ġtá»ĭ": 3899,
      "ĠHN": 3900,
      "ĠHáº¡": 3901,
      "ĠHan": 3902,
      "ĠHÄĲ": 3903,
      "ĠHáº£o": 3904,
      "ĠHuyá»ģn": 3905,
      "ĠHá»įc": 3906,
      "Ġgiac": 3907,
      "Ġgirl": 3908,
      "Ġhá»ķi": 3909,
      "ĠtháºŃp": 3910,
      "Ġmá»Ļ": 3911,
      "iá»ģng": 3912,
      "ĠÄĲI": 3913,
      "ĠÄĲÆ°á»£c": 3914,
      "ĠÄĲiá»ĩn": 3915,
      "ĠÄĲáº¦U": 3916,
      "Ġlá»¡": 3917,
      "Ġlá»¥c": 3918,
      "ĠBs": 3919,
      "ĠBao": 3920,
      "ĠBÃ¹i": 3921,
      "ĠBTT": 3922,
      "ĠPV": 3923,
      "ĠPalestin": 3924,
      "ĠLS": 3925,
      "ĠLo": 3926,
      "ĠLÃģ": 3927,
      "ĠLÃĬN": 3928,
      "Ġá»¦": 3929,
      "ĠDiá»ĩm": 3930,
      "ĠDATA": 3931,
      "ĠTra": 3932,
      "ĠTrÃ¢n": 3933,
      "Ġháº§u": 3934,
      "ĠSu": 3935,
      "ĠSáº¼": 3936,
      "ĠKhÃ": 3937,
      "Ġkhon": 3938,
      "Ġhoai": 3939,
      "Ġhoáº¡n": 3940,
      "ĠQH": 3941,
      "Ġná»į": 3942,
      "ĠÄĳá»Ļn": 3943,
      "iá»ĥng": 3944,
      "ĠAC": 3945,
      "Ġphat": 3946,
      "Ġphut": 3947,
      "Ġphun": 3948,
      "ÄĲT": 3949,
      "ÄĲÃ£": 3950,
      "ĠemvÃło": 3951,
      "ĠtuÃ¢n": 3952,
      "áº¹t": 3953,
      "Ġloan": 3954,
      "Ġloai": 3955,
      "Ġyoutube": 3956,
      "ĠThÆ°á»Łng": 3957,
      "ĠThiá»ĩu": 3958,
      "ĠUK": 3959,
      "Ġap": 3960,
      "Nguyá»ħn": 3961,
      "elens": 3962,
      "ĠXXX": 3963,
      "ĠCHÃĵ": 3964,
      "Ġvit": 3965,
      "Ġvisa": 3966,
      "ĠTHÃĢ": 3967,
      "ĠTHáº¬T": 3968,
      "Ġnguá»µ": 3969,
      "Ġtá»ĳng": 3970,
      "Ġor": 3971,
      "ĠoÃ¡n": 3972,
      "Ġká»ĭch": 3973,
      "ĠQuÃ¡n": 3974,
      "ĠQuáº£ng": 3975,
      "ĠQuáº¥c": 3976,
      "Ġfor": 3977,
      "ĠTá»Ķ": 3978,
      "ĠPhil": 3979,
      "Ġkhoan": 3980,
      "ĠTRONG": 3981,
      "arle": 3982,
      "ĠChung": 3983,
      "Chao": 3984,
      "ĠFE": 3985,
      "ĠCá»¥": 3986,
      "ĠCá»ķ": 3987,
      "ĠNHáº¤T": 3988,
      "Ġdich": 3989,
      "ĠlÃ£i": 3990,
      "á»Ńa": 3991,
      "TrÆ°á»Ľc": 3992,
      "TrÆ°Æ¡ng": 3993,
      "ÃĬM": 3994,
      "Ġngá»Ŀ": 3995,
      "ĠNhiá»ģu": 3996,
      "Ġbuá»Ļc": 3997,
      "ĠNGU": 3998,
      "ĠPhong": 3999,
      "Ġdep": 4000,
      "ĠxuÃ´ng": 4001,
      "ĠÄĳoan": 4002,
      "ĠkhÃŃch": 4003,
      "ĠkhÃ³a": 4004,
      "ĠHá»ıi": 4005,
      "ĠHá»ĮC": 4006,
      "áº¤Y": 4007,
      "ĠphiÃªn": 4008,
      "Ġwe": 4009,
      "ĠnghiÃªng": 4010,
      "Ġháº£o": 4011,
      "ĠYÃªu": 4012,
      "ĠGIA": 4013,
      "Ġrá»£": 4014,
      "Ġlá»Ļn": 4015,
      "Ġmuá»Ļn": 4016,
      "áº¬Y": 4017,
      "ĠÄĳÃ´c": 4018,
      "ĠEU": 4019,
      "Ġï¸ıï¸ıï¸ı": 4020,
      "ĠCHá»Ī": 4021,
      "Ġlich": 4022,
      "à¸Ĺg": 4023,
      "áº¦M": 4024,
      "ĠáĺīÃły": 4025,
      "ĠthÃºi": 4026,
      "Ġgá»Łi": 4027,
      "ĠKhanh": 4028,
      "ĠViettelPay": 4029,
      "Ġhá»Ĺn": 4030,
      "HCM": 4031,
      "áº®N": 4032,
      "ĠNháºŃn": 4033,
      "Ġtich": 4034,
      "ĠAnnam": 4035,
      "ĠÄĳáº¿m": 4036,
      "Ġkkkk": 4037,
      "ĠJoe": 4038,
      "Cháº¿t": 4039,
      "Viettel": 4040,
      "á»¦a": 4041,
      "áºµng": 4042,
      "Äĳá»ĥ": 4043,
      "ÃĴN": 4044,
      "ĠMobile": 4045,
      "ĠTrÃ²à¸Ĺ": 4046,
      "ÃĻNG": 4047,
      "Ġcháº·t": 4048,
      "Uá»ĺT": 4049,
      "Ġtelegram": 4050,
      "Ġfacebluesmiling": 4051,
      "Ġview": 4052,
      "ĠDonald": 4053,
      "ĠAlbem": 4054,
      "ĠYouTube": 4055,
      "hÃ£y": 4056,
      "Ġváº¿Ïħ": 4057,
      "ĠchÃ¬m": 4058,
      "ĠLÆ¯U": 4059,
      "Ġfrom": 4060,
      "Iá»ĤU": 4061,
      "ĠNáºłP": 4062,
      "ĠAlbemarle": 4063,
      "BA": 4064,
      "Bao": 4065,
      "BÃ¬nh": 4066,
      "BET": 4067,
      "CT": 4068,
      "Cu": 4069,
      "CÃ¡ch": 4070,
      "Cáº·p": 4071,
      "Hi": 4072,
      "Hiá»ĩn": 4073,
      "Hoan": 4074,
      "Hoa": 4075,
      "Kinh": 4076,
      "Káº»": 4077,
      "Ká»·": 4078,
      "LV": 4079,
      "Lo": 4080,
      "LÃºc": 4081,
      "ME": 4082,
      "Máº¿n": 4083,
      "No": 4084,
      "PT": 4085,
      "QU": 4086,
      "TN": 4087,
      "Tháº": 4088,
      "ThÃª": 4089,
      "Vinh": 4090,
      "Yeu": 4091,
      "aa": 4092,
      "bx": 4093,
      "cáº£m": 4094,
      "cine": 4095,
      "do": 4096,
      "der": 4097,
      "eO": 4098,
      "ev": 4099,
      "ex": 4100,
      "for": 4101,
      "gan": 4102,
      "huy": 4103,
      "hare": 4104,
      "ich": 4105,
      "kh": 4106,
      "khi": 4107,
      "lan": 4108,
      "lÃłm": 4109,
      "mÃł": 4110,
      "mong": 4111,
      "min": 4112,
      "ph": 4113,
      "pháº£i": 4114,
      "por": 4115,
      "qua": 4116,
      "rs": 4117,
      "ry": 4118,
      "sá»": 4119,
      "sar": 4120,
      "sia": 4121,
      "sit": 4122,
      "tt": 4123,
      "tháº": 4124,
      "uÃ´n": 4125,
      "viá»ĩt": 4126,
      "xi": 4127,
      "¢P": 4128,
      "¢y": 4129,
      "©n": 4130,
      "ªNG": 4131,
      "Ð¸": 4132,
      "Ġå": 4133,
      "ĠÆ°": 4134,
      "Ġáº¿": 4135,
      "Ġáº£": 4136,
      "Ġáº¡n": 4137,
      "Ġá»ĳc": 4138,
      "ĠÃĶNG": 4139,
      "ĠÃ©o": 4140,
      "ĠÃĿ": 4141,
      "ģm": 4142,
      "á»±c": 4143,
      "áºª": 4144,
      "áº¸": 4145,
      "áº±n": 4146,
      "ĠtÆ¡": 4147,
      "ĠtÃ¢n": 4148,
      "ĠtÃº": 4149,
      "Ġtáº£ng": 4150,
      "Ġtáº·c": 4151,
      "ĠtÃ¢t": 4152,
      "Ġcáº¡n": 4153,
      "Ġcáº¥u": 4154,
      "ĠcÃºi": 4155,
      "ĠcÃµi": 4156,
      "Ġna": 4157,
      "Ġni": 4158,
      "ĠnÃ¢y": 4159,
      "ĠnÃŃ": 4160,
      "ĠnÃ©": 4161,
      "ĠnÃºi": 4162,
      "Ġnuá»ĳt": 4163,
      "Ġná»Ļp": 4164,
      "ĠÄĳáº£": 4165,
      "ĠÄĳÆ°ng": 4166,
      "ĠÄĳáº¡p": 4167,
      "Ġls": 4168,
      "ĠlÆ°á»Ŀi": 4169,
      "Ġlon": 4170,
      "ĠlÃ¢y": 4171,
      "Ġláº¯p": 4172,
      "ĠlÃ²i": 4173,
      "ĠlÆ°á»¡i": 4174,
      "Ġváº¡": 4175,
      "Ġvang": 4176,
      "ĠvÃŃ": 4177,
      "Ġvac": 4178,
      "ĠvÆ°á»£ng": 4179,
      "Ġviá»ħn": 4180,
      "Ġváº¡ch": 4181,
      "ĠmÃ²": 4182,
      "ĠmÃ¡t": 4183,
      "ĠmÃºp": 4184,
      "Ġmáº¡c": 4185,
      "ĠmÃ³ng": 4186,
      "ĠmÃ©o": 4187,
      "Ġbl": 4188,
      "ĠbÃª": 4189,
      "Ġbong": 4190,
      "Ġbáº¿n": 4191,
      "ĠbÃªnh": 4192,
      "ĠbÃºa": 4193,
      "Ġkiá»ĩt": 4194,
      "nhÆ°": 4195,
      "ĠdÃłn": 4196,
      "Ġdáº¡o": 4197,
      "ĠdÃ£i": 4198,
      "Ġga": 4199,
      "ĠgÃło": 4200,
      "Ġgáº¡ch": 4201,
      "Ġgaza": 4202,
      "Ġghen": 4203,
      "Ġsay": 4204,
      "Ġsanh": 4205,
      "ĠsÃłi": 4206,
      "Ġsua": 4207,
      "ĠsÃłng": 4208,
      "Ġsáº¥u": 4209,
      "ĠsÃ³ng": 4210,
      "ĠngÃ¡o": 4211,
      "Ġngta": 4212,
      "ĠtrÃ¢n": 4213,
      "ĠtrÃº": 4214,
      "ĠtrÃ¢u": 4215,
      "ĠtrÃ²n": 4216,
      "Ġtreo": 4217,
      "ĠtrÄĥng": 4218,
      "ĠtrÃ¹m": 4219,
      "ĠchÄĥm": 4220,
      "ĠchÄĥc": 4221,
      "ĠTO": 4222,
      "ĠTÃªn": 4223,
      "ĠTÃłi": 4224,
      "ĠTUY": 4225,
      "ĠhD": 4226,
      "Ġhen": 4227,
      "ĠhÆ°ng": 4228,
      "ĠÄĳá»£": 4229,
      "ĠÄĳá»ĳng": 4230,
      "Ġpr": 4231,
      "ĠCung": 4232,
      "ĠCÃ¡m": 4233,
      "ĠCáº¥p": 4234,
      "ĠCAO": 4235,
      "ĠCÃģI": 4236,
      "ĠCÃĴN": 4237,
      "Ġnhin": 4238,
      "Ġnhuc": 4239,
      "ĠthÃ³": 4240,
      "ĠthÃ´": 4241,
      "ĠrÆ°á»Ľc": 4242,
      "Ġrang": 4243,
      "ĠrÆ°á»£": 4244,
      "ĠthÆ°a": 4245,
      "Ġcá»§": 4246,
      "Ġquá»¹": 4247,
      "ĠquÃŃ": 4248,
      "ĠNay": 4249,
      "ĠNinh": 4250,
      "ĠNat": 4251,
      "ĠNÃĢY": 4252,
      "ĠVÆ°Æ¡ng": 4253,
      "ĠVáº¿u": 4254,
      "ĠVONG": 4255,
      "ĠxÃ´i": 4256,
      "Ġchá»ķ": 4257,
      "ĠMáº¹": 4258,
      "ĠMáº¡nh": 4259,
      "ĠMÃ¨o": 4260,
      "ĠMINH": 4261,
      "Ġgiay": 4262,
      "Ġgiong": 4263,
      "ĠgiáºŃt": 4264,
      "Ġhá»©a": 4265,
      "Ġhá»ıng": 4266,
      "Ġhá»ĳt": 4267,
      "Ġtháº¥m": 4268,
      "Ġmá»ĩt": 4269,
      "ĠnÃ³n": 4270,
      "Ġbá»©c": 4271,
      "Ġbá»įc": 4272,
      "ĠchÃ¨": 4273,
      "Ġthá»ķi": 4274,
      "ĠÄĲiá»ģu": 4275,
      "ĠÄĲÆ°á»Ŀng": 4276,
      "ĠÄĲÄĥng": 4277,
      "ĠÄĲÃ¡ng": 4278,
      "ĠÄĲoÃłn": 4279,
      "ĠÄĲÆ¯á»ľNG": 4280,
      "ĠÄĲCSVN": 4281,
      "ĠÄĲáºłO": 4282,
      "Ã²m": 4283,
      "ina": 4284,
      "Ġlá»£": 4285,
      "Ġlá»Ŀ": 4286,
      "ĠBS": 4287,
      "ĠBe": 4288,
      "ĠBu": 4289,
      "ĠBay": 4290,
      "ĠBÃ¢y": 4291,
      "ĠBiáº¿t": 4292,
      "ĠBá»Ĳ": 4293,
      "ĠBol": 4294,
      "ĠBáº¤T": 4295,
      "ĠBáº¢N": 4296,
      "ĠBáºłN": 4297,
      "ĠLI": 4298,
      "ĠLÃªn": 4299,
      "ĠLÃ¢m": 4300,
      "ĠLáºłI": 4301,
      "Ġá»©c": 4302,
      "Ġgiá»±t": 4303,
      "ĠDK": 4304,
      "ĠDuy": 4305,
      "ĠDÃ¹": 4306,
      "ĠDiá»ĩu": 4307,
      "Ġcháº¡m": 4308,
      "Ġsá»Ŀ": 4309,
      "ĠTruy": 4310,
      "ĠTrang": 4311,
      "ĠTráº»": 4312,
      "ĠTruyá»ģn": 4313,
      "ĠSU": 4314,
      "ĠSAO": 4315,
      "ĠgÃ¬n": 4316,
      "Ġnháº§m": 4317,
      "Ġhop": 4318,
      "ĠQC": 4319,
      "Ġtrá»©ng": 4320,
      "Ġlum": 4321,
      "ĠGá»Į": 4322,
      "áº·m": 4323,
      "Ġdá»©t": 4324,
      "ĠphÃ¡i": 4325,
      "ies": 4326,
      "ĠApp": 4327,
      "ÄĲÃ³": 4328,
      "ÄĲáº§u": 4329,
      "ÄĲáº¿n": 4330,
      "ÄĲÃ¡nh": 4331,
      "Ġdot": 4332,
      "ĠÄĳÃ¡y": 4333,
      "ĠÄĳá»ĵi": 4334,
      "Ġchá»©a": 4335,
      "Ġloa": 4336,
      "Ġyeu": 4337,
      "áº«y": 4338,
      "Ġtiáº¿c": 4339,
      "ĠThan": 4340,
      "ĠThao": 4341,
      "ĠThoi": 4342,
      "ĠThÆ°Æ¡ng": 4343,
      "ĠcuÃ´c": 4344,
      "ĠXe": 4345,
      "ĠCHI": 4346,
      "ĠCHU": 4347,
      "ĠCHÆ¯A": 4348,
      "ĠCHÆłI": 4349,
      "Ġcave": 4350,
      "ĠTHÃĶI": 4351,
      "Æ°á»Łi": 4352,
      "Ġchiu": 4353,
      "ÃģN": 4354,
      "ĠQuáº¡": 4355,
      "Ġfre": 4356,
      "Ġfilm": 4357,
      "ĠIN": 4358,
      "ĠIS": 4359,
      "alan": 4360,
      "ĠRáº¥t": 4361,
      "Ġkhoang": 4362,
      "ĠTRA": 4363,
      "ĠTRÃĬN": 4364,
      "ĠChuyá»ĩn": 4365,
      "Chu": 4366,
      "ChÆ°a": 4367,
      "Ġchuá»ĵng": 4368,
      "ĠCá»¬": 4369,
      "ĠGiao": 4370,
      "ĠGiáº£m": 4371,
      "ĠNHANH": 4372,
      "ĠNHÃī": 4373,
      "ĠNHÅ¨NG": 4374,
      "ĠlÃ£o": 4375,
      "ĠÄĳá»ĭt": 4376,
      "Ġuong": 4377,
      "ĠHoÃł": 4378,
      "ÃĬT": 4379,
      "ĠThá»Ŀi": 4380,
      "áº¢M": 4381,
      "Ġbake": 4382,
      "ĠNha": 4383,
      "ĠhÃ´n": 4384,
      "ĠxuÃ¢n": 4385,
      "Ġxuáº©n": 4386,
      "áº¾U": 4387,
      "ĠHá»¢P": 4388,
      "Ġcsk": 4389,
      "ĠPHáº¢I": 4390,
      "Ġduong": 4391,
      "ĠKHUYáº¾N": 4392,
      "Thang": 4393,
      "ĠOk": 4394,
      "Ġweb": 4395,
      "ĠVá»¥": 4396,
      "ĠChá»©ng": 4397,
      "ĠchÃ³c": 4398,
      "ĠMá»Ľi": 4399,
      "Ġrá»Ŀi": 4400,
      "Ġrá»§a": 4401,
      "ingap": 4402,
      "ĠthÃ¹ng": 4403,
      "ĠThÃ¡ng": 4404,
      "ĠLá»ļ": 4405,
      "ĠÄĳuÃ´i": 4406,
      "ĠBá»Ĭ": 4407,
      "á´Ģ": 4408,
      "LIN": 4409,
      "NhÆ°": 4410,
      "Nhiá»ģu": 4411,
      "ĠZelens": 4412,
      "Ġgá»Ľm": 4413,
      "Iáº¾T": 4414,
      "Ġtá»ĵi": 4415,
      "ĠKhÆ°Æ¡ng": 4416,
      "ĠÄĤn": 4417,
      "Ġláº¡m": 4418,
      "ĠTBT": 4419,
      "ĠCháº¥t": 4420,
      "Ġhihi": 4421,
      "GiÃ¡o": 4422,
      "Ġnháº£m": 4423,
      "ĠbÃŃm": 4424,
      "ĠCUA": 4425,
      "á»¦ng": 4426,
      "ĠcÅ©g": 4427,
      "ALO": 4428,
      "video": 4429,
      "Ġluat": 4430,
      "ĠTuáº¥n": 4431,
      "ĠDuáº©n": 4432,
      "Ġukr": 4433,
      "ĠTHIÃĬN": 4434,
      "ĠHOT": 4435,
      "istan": 4436,
      "ĠVFS": 4437,
      "pee": 4438,
      "thÃ¬": 4439,
      "áº¶NG": 4440,
      "Ġcháº·n": 4441,
      "VIDEO": 4442,
      "ĠMafia": 4443,
      "ogle": 4444,
      "roup": 4445,
      "ĠChÃ¡nh": 4446,
      "NháºŃn": 4447,
      "chÃºc": 4448,
      "ĠHÃĶM": 4449,
      "Ġusd": 4450,
      "ĠKHá»İ": 4451,
      "ĠXuÃ¢n": 4452,
      "ĠCHIáº¾N": 4453,
      "ĠFBI": 4454,
      "ĠNews": 4455,
      "ĠPVÄĲ": 4456,
      "ĠACE": 4457,
      "sarel": 4458,
      "ĠrÆ°á»£u": 4459,
      "ĠNato": 4460,
      "ĠBolsa": 4461,
      "An": 4462,
      "Bá»Ļ": 4463,
      "Biáº¿n": 4464,
      "Báº£n": 4465,
      "Bac": 4466,
      "BTN": 4467,
      "Ca": 4468,
      "Cáº£": 4469,
      "CÃłng": 4470,
      "Cáº§u": 4471,
      "Cháº¿": 4472,
      "CLIP": 4473,
      "DI": 4474,
      "Dá»": 4475,
      "Duc": 4476,
      "EáĹ°": 4477,
      "FA": 4478,
      "Giá»ĳng": 4479,
      "KE": 4480,
      "KÃªu": 4481,
      "Le": 4482,
      "LÃł": 4483,
      "LÃ£nh": 4484,
      "Má»": 4485,
      "NV": 4486,
      "Noi": 4487,
      "Náº¡p": 4488,
      "Neu": 4489,
      "Nhin": 4490,
      "Ong": 4491,
      "Pháº¡m": 4492,
      "Quá»ĳc": 4493,
      "Rá»§": 4494,
      "ST": 4495,
      "Sáº¯p": 4496,
      "TP": 4497,
      "TQ": 4498,
      "Tiá»ģn": 4499,
      "TáºŃp": 4500,
      "Ukrain": 4501,
      "Vui": 4502,
      "XH": 4503,
      "ba": 4504,
      "be": 4505,
      "ban": 4506,
      "co": 4507,
      "cÃ´ng": 4508,
      "chÃ¡": 4509,
      "ds": 4510,
      "don": 4511,
      "eck": 4512,
      "ge": 4513,
      "jk": 4514,
      "mÃ¬nh": 4515,
      "mÃły": 4516,
      "noi": 4517,
      "nia": 4518,
      "ood": 4519,
      "ook": 4520,
      "tin": 4521,
      "va": 4522,
      "ver": 4523,
      "¡i": 4524,
      "¤NG": 4525,
      "¥a": 4526,
      "©o": 4527,
      "°C": 4528,
      "±ï¸ı": 4529,
      "²NG": 4530,
      "´m": 4531,
      "¹n": 4532,
      "ºc": 4533,
      "ÃĪ": 4534,
      "Ãķ": 4535,
      "Øª": 4536,
      "ðŁ": 4537,
      "Ġau": 4538,
      "Ġáº»": 4539,
      "ĠÆ¯": 4540,
      "Ġá»ĳng": 4541,
      "ĠÉ´": 4542,
      "ĠÍı": 4543,
      "ħ±ï¸ı": 4544,
      "ĩn": 4545,
      "īu": 4546,
      "ĮN": 4547,
      "ĮNG": 4548,
      "ĶI": 4549,
      "ľÉ´É¢": 4550,
      "Ńu": 4551,
      "á»³": 4552,
      "áº²NG": 4553,
      "Ġtáº¡": 4554,
      "ĠtÃ´ng": 4555,
      "Ġtáº§u": 4556,
      "Ġtáº¯t": 4557,
      "ĠtÃºc": 4558,
      "Ġtuyen": 4559,
      "ĠtÃ´m": 4560,
      "ĠtÃ¢p": 4561,
      "Ġct": 4562,
      "ĠcÆ°á»Ľc": 4563,
      "ĠcÃłi": 4564,
      "Ġcáº¡o": 4565,
      "ĠcÃºng": 4566,
      "Ġcáº¯c": 4567,
      "Ġcáº¯n": 4568,
      "ĠcÃ¹i": 4569,
      "ĠcÄĥáĺīg": 4570,
      "Ġcty": 4571,
      "ĠnÃªu": 4572,
      "ĠnÄĲ": 4573,
      "Ġnáº¯m": 4574,
      "ĠÄĳan": 4575,
      "ĠÄĳanh": 4576,
      "ĠÄĳÃ²n": 4577,
      "ĠÄĳÃ¡i": 4578,
      "ĠÄĳiáº¿m": 4579,
      "ĠÄĳiáº¿c": 4580,
      "hÃ¬": 4581,
      "ĠlÆ¡": 4582,
      "Ġláº»": 4583,
      "ĠlÃµ": 4584,
      "Ġláº·ng": 4585,
      "Ġláº£nh": 4586,
      "ĠlÃ¹i": 4587,
      "ĠlÃ³t": 4588,
      "Ġváº£": 4589,
      "ĠvÃ¡c": 4590,
      "Ġmáº£": 4591,
      "ĠmÃ´ng": 4592,
      "ĠmiÃªn": 4593,
      "ĠmáºŃp": 4594,
      "Ġmore": 4595,
      "Ġbt": 4596,
      "ĠbÃ´ng": 4597,
      "Ġbung": 4598,
      "ĠbÃ´i": 4599,
      "ĠbáºŃt": 4600,
      "Ġbien": 4601,
      "Ġbiáº¿ng": 4602,
      "Ġkm": 4603,
      "Ġkáº¹p": 4604,
      "Ġkien": 4605,
      "ĠkÃ¨": 4606,
      "ĠdÆ¡": 4607,
      "Ġdáº¹p": 4608,
      "ĠdÃ¨": 4609,
      "ĠdÃ²i": 4610,
      "Ã³a": 4611,
      "ĠgÃ¡nh": 4612,
      "Ġgiá»ģng": 4613,
      "Ġsam": 4614,
      "Ġsáº¯t": 4615,
      "ĠngÃ²i": 4616,
      "Ġtre": 4617,
      "Ġtriá»ĩt": 4618,
      "ĠtrÆ¡n": 4619,
      "Ġtráº§m": 4620,
      "ĠtrÃ¡ng": 4621,
      "Ġtrump": 4622,
      "Ġchanh": 4623,
      "Ġchuyá»ģn": 4624,
      "ĠTG": 4625,
      "ĠTW": 4626,
      "ĠTáº£": 4627,
      "ĠTai": 4628,
      "ĠTuy": 4629,
      "ĠTang": 4630,
      "ĠTÃ¢m": 4631,
      "ĠTÃ¹ng": 4632,
      "ĠThÃº": 4633,
      "ĠTáº¯c": 4634,
      "ĠTui": 4635,
      "ĠTieu": 4636,
      "ĠTá»ĳi": 4637,
      "ĠTAO": 4638,
      "ĠTUI": 4639,
      "ĠTáº¶NG": 4640,
      "ĠhÆ°": 4641,
      "Ġhau": 4642,
      "ĠhÄĥng": 4643,
      "Ġhuong": 4644,
      "Ġhack": 4645,
      "Ã´áĺī": 4646,
      "ĠÄĳá»©t": 4647,
      "ĠCI": 4648,
      "ĠCáº§u": 4649,
      "ĠCar": 4650,
      "Ġnham": 4651,
      "ĠthÃŃ": 4652,
      "Ġrao": 4653,
      "ĠrÃ£": 4654,
      "Ġriáº¿t": 4655,
      "Ġráº½": 4656,
      "ĠrÃłnh": 4657,
      "Ġráº¯c": 4658,
      "Ġthao": 4659,
      "ĠthÆ¡i": 4660,
      "Ġcá»Ļt": 4661,
      "Ġcá»ĳi": 4662,
      "Ġcá»§ng": 4663,
      "ĠquÃł": 4664,
      "ĠquáºŃy": 4665,
      "ĠquÃ©t": 4666,
      "ĠNÃĢO": 4667,
      "ĠNiá»ĥng": 4668,
      "ĠVÃ¢n": 4669,
      "ĠVoi": 4670,
      "ĠVua": 4671,
      "ĠViá»ĩc": 4672,
      "ĠVáº¥n": 4673,
      "ĠVáº¬Y": 4674,
      "ĠxÃª": 4675,
      "ĠxÃŃ": 4676,
      "ĠxÃ©": 4677,
      "ĠkhÃºc": 4678,
      "Ġchá»ĳn": 4679,
      "ĠME": 4680,
      "ĠMc": 4681,
      "ĠMr": 4682,
      "ĠMar": 4683,
      "ĠMá»Ļng": 4684,
      "ĠMáºł": 4685,
      "ĠMÃºp": 4686,
      "ĠMÃĮNH": 4687,
      "ĠMUA": 4688,
      "ĠcÃ³c": 4689,
      "Ġtá»µ": 4690,
      "ĠHI": 4691,
      "ĠHS": 4692,
      "ĠHi": 4693,
      "ĠHÆ¡n": 4694,
      "Ġvá»Ľ": 4695,
      "Ġvá»Ł": 4696,
      "ĠgiÃły": 4697,
      "Ġgiáº¥c": 4698,
      "Æ°á»Ľm": 4699,
      "Ġtháº¯c": 4700,
      "ĠtháºŃm": 4701,
      "Ġmá»ĭ": 4702,
      "Ġmá»Ľ": 4703,
      "Ġmá»Ŀ": 4704,
      "Ġmá»Ļng": 4705,
      "Ġchon": 4706,
      "Ġbá»±": 4707,
      "Ġbá»ģ": 4708,
      "Ġbá»±a": 4709,
      "ont": 4710,
      "Ġthá»£": 4711,
      "Ġthá»ıa": 4712,
      "ĠÄĲinh": 4713,
      "ĠÄĲÆ¡n": 4714,
      "ĠÄĲÃĢ": 4715,
      "ĠÄĲÃĶNG": 4716,
      "ĠÄĲáºłI": 4717,
      "ĠÄĲÄĤNG": 4718,
      "ino": 4719,
      "Ġlá»Ļt": 4720,
      "Ġlá»Ļi": 4721,
      "Ġlá»Ļc": 4722,
      "Ġlá»±a": 4723,
      "Ġlá»įt": 4724,
      "cher": 4725,
      "ĠBj": 4726,
      "ĠBá»ĳ": 4727,
      "ĠBÃ¬": 4728,
      "ĠBáº¥t": 4729,
      "ĠBIáº¾T": 4730,
      "ĠPhá»": 4731,
      "ĠPol": 4732,
      "ĠLy": 4733,
      "ĠLÆ¯á»¢": 4734,
      "ĠLÃ£nh": 4735,
      "ĠphÃ´": 4736,
      "Ġá»Ľi": 4737,
      "ĠDam": 4738,
      "ĠDai": 4739,
      "ĠDCP": 4740,
      "Ġcháº¥n": 4741,
      "ĠhÃ¨": 4742,
      "ĠhÃ¹a": 4743,
      "ĠnhÃ¬": 4744,
      "Ġsá»ī": 4745,
      "ĠTrÃ¢m": 4746,
      "ĠTrÃºc": 4747,
      "Ġnhá»ĥ": 4748,
      "ĠÄĳiÃªm": 4749,
      "ĠSi": 4750,
      "ĠSAU": 4751,
      "ĠSingap": 4752,
      "ĠSBTN": 4753,
      "ĠKT": 4754,
      "ĠKÃ½": 4755,
      "ĠKhá»ī": 4756,
      "ĠKÃŃnh": 4757,
      "ĠKÃį": 4758,
      "ĠKÃĿ": 4759,
      "Ġkhiá»ĥn": 4760,
      "ĠQua": 4761,
      "ĠQuyá»ģn": 4762,
      "Ġtrá»¥c": 4763,
      "ĠluÃ´áĺī": 4764,
      "ĠGiá»": 4765,
      "ĠGoi": 4766,
      "ĠGá»Ńi": 4767,
      "ĠGAM": 4768,
      "ĠNgan": 4769,
      "ĠNghe": 4770,
      "Ġnghen": 4771,
      "Ġná»ĥ": 4772,
      "Ġná»±c": 4773,
      "Ġná»ĭnh": 4774,
      "ĠAM": 4775,
      "Ġphanh": 4776,
      "Ġphiá»ĩt": 4777,
      "Ġkhinh": 4778,
      "ĠkhiÃªm": 4779,
      "ÄĲáº¡i": 4780,
      "Ġdoc": 4781,
      "Ġemth": 4782,
      "ĠemXem": 4783,
      "ĠpháºŃn": 4784,
      "Ġyear": 4785,
      "áº«m": 4786,
      "Ġcovid": 4787,
      "ĠTho": 4788,
      "ĠcuÃ´i": 4789,
      "Ġcuop": 4790,
      "NgÃły": 4791,
      "ĠÄĲá»¨C": 4792,
      "ĠXE": 4793,
      "ĠXá»": 4794,
      "ĠXuá»ĳng": 4795,
      "ĠCHE": 4796,
      "eric": 4797,
      "ĠTHAO": 4798,
      "ĠTHAM": 4799,
      "ĠTHEO": 4800,
      "llar": 4801,
      "ĠnháºŃu": 4802,
      "Ġká»ĭp": 4803,
      "ĠQuÃª": 4804,
      "Ġphá»Ł": 4805,
      "ĠTá»¥i": 4806,
      "Ġtiáº¿ngTiáº¿p": 4807,
      "ĠRus": 4808,
      "áº©m": 4809,
      "ĠkhoÃ¡ng": 4810,
      "Äĳo": 4811,
      "ĠTRÃį": 4812,
      "ĠChÆ¡i": 4813,
      "Cha": 4814,
      "Ġbá»ĳn": 4815,
      "ĠCá»¨": 4816,
      "ĠCá»Ŀ": 4817,
      "ĠCá»±c": 4818,
      "ĠNHáº¬N": 4819,
      "ĠboÄĳo": 4820,
      "Ġngá»¥c": 4821,
      "ĠThá»Ń": 4822,
      "ĠThá»ĳng": 4823,
      "apon": 4824,
      "Ġkáº»o": 4825,
      "ĠbuÃ´ng": 4826,
      "ĠNGA": 4827,
      "ĠNGá»": 4828,
      "ĠNGÃĢY": 4829,
      "ĠNGUYá»": 4830,
      "Ġthá»§y": 4831,
      "iss": 4832,
      "ĠPhÆ°á»Ľc": 4833,
      "ĠxuÃ´i": 4834,
      "ĠHá»ģ": 4835,
      "red": 4836,
      "Ġnot": 4837,
      "ĠCSKH": 4838,
      "áº¤U": 4839,
      "ĠPHÃģ": 4840,
      "ĠPHáºł": 4841,
      "ĠPHáº¬T": 4842,
      "ĠKHO": 4843,
      "Ġthoáº£i": 4844,
      "Ġwas": 4845,
      "Ġwho": 4846,
      "Ġwor": 4847,
      "ĠnghiÃªn": 4848,
      "ĠVá»¤": 4849,
      "ĠVá»Ľi": 4850,
      "ĠVá»ĭt": 4851,
      "ĠtÃ¹m": 4852,
      "ÄĲá»Ĺ": 4853,
      "UYÃĬN": 4854,
      "VNCH": 4855,
      "ĠChá»ĳng": 4856,
      "ĠMá»·": 4857,
      "ĠMá»Ĭ": 4858,
      "ĠMá»ļI": 4859,
      "Iá»ĨU": 4860,
      "ĠGIáº¢I": 4861,
      "Ġrá»ħ": 4862,
      "ĠChia": 4863,
      "Ġcá»ĳt": 4864,
      "ĠchÃŃn": 4865,
      "oucher": 4866,
      "ĠNá»ĺI": 4867,
      "áº¬P": 4868,
      "ĠLá»±c": 4869,
      "ĠBá»Łi": 4870,
      "ĠEVN": 4871,
      "ĠEur": 4872,
      "á´į": 4873,
      "á´ı": 4874,
      "ÃļNG": 4875,
      "Ġinternet": 4876,
      "ebook": 4877,
      "Ġone": 4878,
      "ĠFULLH": 4879,
      "ĠTháº¯ng": 4880,
      "ĠTháº¥y": 4881,
      "ĠNhÃ©": 4882,
      "ĠPhÃ¡t": 4883,
      "ĠZALO": 4884,
      "ĠVID": 4885,
      "ĠSá»¬": 4886,
      "ĠSá»°": 4887,
      "ĠTRá»¢": 4888,
      "ĠTRá»ĮNG": 4889,
      "Æ¯á»ļNG": 4890,
      "ĠhÃªn": 4891,
      "ĠCháº¯c": 4892,
      "Há»Ĺ": 4893,
      "áº®NG": 4894,
      "ThÃ¬": 4895,
      "Ġkkkkk": 4896,
      "ĠsÆ¡m": 4897,
      "ĠQuyáº¿t": 4898,
      "LuáºŃt": 4899,
      "ĠNHá»ļ": 4900,
      "ĠTIN": 4901,
      "ĠHÃĢNH": 4902,
      "ĠDá»¤NG": 4903,
      "ÃīT": 4904,
      "Äĳá»«ng": 4905,
      "ĠÆłI": 4906,
      "ĠTHá»¨": 4907,
      "ĠTHá»Ĥ": 4908,
      "ĠnCÃ¡": 4909,
      "igo": 4910,
      "áº¶T": 4911,
      "ĠGSTS": 4912,
      "ĠGIá»ľ": 4913,
      "ĠGIá»ļI": 4914,
      "ĠRá»ĴI": 4915,
      "ĠNHÆ¯NG": 4916,
      "ĠTÃĢI": 4917,
      "Ġhappy": 4918,
      "Ġquá»ī": 4919,
      "Sá»±": 4920,
      "Ġá´Ľ": 4921,
      "ĠxoÃ¡": 4922,
      "ĠShopee": 4923,
      "handpinkwavinghandpinkwavinghandpinkwavinghandpinkwaving": 4924,
      "chá»©": 4925,
      "ĠHdem": 4926,
      "ĠNghÄ©a": 4927,
      "ĠAmeric": 4928,
      "UMA": 4929,
      "ĠnBÃ¡nh": 4930,
      "ĠCCB": 4931,
      "ĠCrime": 4932,
      "ĠthÃ¨ng": 4933,
      "ĠKhÃ¡ch": 4934,
      "ĠNUÃĶN": 4935,
      "Ġxuat": 4936,
      "ĠNghá»ĭ": 4937,
      "Ġáĺīháº¥t": 4938,
      "box": 4939,
      "ktok": 4940,
      "ĠBTTQ": 4941,
      "ĠLÃģO": 4942,
      "ĠTHÃĢNH": 4943,
      "Ġweapon": 4944,
      "ĠAnnamese": 4945,
      "ThÃªm": 4946,
      "site": 4947,
      "áºªN": 4948,
      "Ġniem": 4949,
      "Ġvaccine": 4950,
      "ĠthÃ³i": 4951,
      "Ġfree": 4952,
      "LINE": 4953,
      "ĠZelensky": 4954,
      "DucNguyen": 4955,
      "ðŁħ±ï¸ı": 4956,
      "ĠDCPP": 4957,
      "ĠSingapore": 4958,
      "ĠGAME": 4959,
      "ĠRussia": 4960,
      "ĠNGUYá»ĦN": 4961,
      "Bon": 4962,
      "Báº¯c": 4963,
      "CK": 4964,
      "DT": 4965,
      "ETT": 4966,
      "Film": 4967,
      "Giáº¿t": 4968,
      "Ha": 4969,
      "Há»Ļ": 4970,
      "HÆ¡n": 4971,
      "Háº¿t": 4972,
      "IS": 4973,
      "KM": 4974,
      "KhÃ¡": 4975,
      "KÃªnh": 4976,
      "LÅ©": 4977,
      "Linh": 4978,
      "LÄĲ": 4979,
      "Nhá»": 4980,
      "NÃªn": 4981,
      "Nay": 4982,
      "NLINE": 4983,
      "Ok": 4984,
      "Oan": 4985,
      "PL": 4986,
      "PhÃº": 4987,
      "Palestine": 4988,
      "Qua": 4989,
      "Rá»ĵi": 4990,
      "Rat": 4991,
      "San": 4992,
      "Tu": 4993,
      "Tay": 4994,
      "Tai": 4995,
      "Thi": 4996,
      "Toi": 4997,
      "TÄĥng": 4998,
      "VC": 4999,
      "Vc": 5000,
      "Vi": 5001,
      "VÃł": 5002,
      "VÃ©t": 5003,
      "Wow": 5004,
      "Xu": 5005,
      "YÃªu": 5006,
      "aka": 5007,
      "bÃ¡c": 5008,
      "bat": 5009,
      "bá»įn": 5010,
      "ct": 5011,
      "cu": 5012,
      "cÃ¡c": 5013,
      "cung": 5014,
      "cÃ¡i": 5015,
      "com": 5016,
      "de": 5017,
      "di": 5018,
      "eÏĥ": 5019,
      "ft": 5020,
      "full": 5021,
      "gg": 5022,
      "ht": 5023,
      "hu": 5024,
      "hiá»ĩn": 5025,
      "ial": 5026,
      "ket": 5027,
      "lay": 5028,
      "ler": 5029,
      "me": 5030,
      "mo": 5031,
      "moi": 5032,
      "men": 5033,
      "má»įi": 5034,
      "nV": 5035,
      "na": 5036,
      "oll": 5037,
      "oogle": 5038,
      "pr": 5039,
      "phá»": 5040,
      "ple": 5041,
      "pHCM": 5042,
      "qo": 5043,
      "su": 5044,
      "san": 5045,
      "sáº½": 5046,
      "sino": 5047,
      "táº¡i": 5048,
      "tar": 5049,
      "uan": 5050,
      "vao": 5051,
      "váº«n": 5052,
      "xx": 5053,
      "zá»": 5054,
      "¨NG": 5055,
      "©y": 5056,
      "¯m": 5057,
      "¯t": 5058,
      "µng": 5059,
      "Ã©c": 5060,
      "Éª": 5061,
      "Ð¼": 5062,
      "ĠÃª": 5063,
      "ĠÃ¹": 5064,
      "ĠÃ´n": 5065,
      "ĠÆ°a": 5066,
      "ĠÃło": 5067,
      "ĠÃĢ": 5068,
      "Ġuoc": 5069,
      "Ġá»ĵn": 5070,
      "ĠâĢį": 5071,
      "Ģá´į": 5072,
      "ĮT": 5073,
      "ĲT": 5074,
      "Ľn": 5075,
      "Ľp": 5076,
      "ŀNG": 5077,
      "Łm": 5078,
      "Łn": 5079,
      "á»£": 5080,
      "áº¨": 5081,
      "ĠtÃł": 5082,
      "Ġtanh": 5083,
      "ĠtÃ½": 5084,
      "ĠtÃłnh": 5085,
      "ĠtÄĥm": 5086,
      "Ġtá»ĳc": 5087,
      "Ġtáº¥u": 5088,
      "Ġtiá»ĩm": 5089,
      "ĠtÃ¢ng": 5090,
      "Ġcl": 5091,
      "Ġcn": 5092,
      "Ġcp": 5093,
      "Ġcáº¥t": 5094,
      "ĠcÆ°á»£c": 5095,
      "Ġcáº©n": 5096,
      "Ġcáº§y": 5097,
      "ĠnÆ°á»Ľng": 5098,
      "ĠnÃºp": 5099,
      "Ġnáºµng": 5100,
      "ĠnNáº¡p": 5101,
      "ĠÄĳam": 5102,
      "ĠÄĳiá»ĥn": 5103,
      "ĠÄĳÃºc": 5104,
      "ĠÄĳáº¯n": 5105,
      "ĠÄĳÃºt": 5106,
      "ĠÄĳÃ¹a": 5107,
      "ĠÄĳáº«m": 5108,
      "hÃ³": 5109,
      "Ġlm": 5110,
      "Ġlang": 5111,
      "Ġlung": 5112,
      "Ġliá»ģu": 5113,
      "Ġleo": 5114,
      "Ġláº¯c": 5115,
      "Ġluyá»ĩn": 5116,
      "Ġláº§y": 5117,
      "ĠlÃ¡ng": 5118,
      "Ġláº¯ng": 5119,
      "ĠlÆ°Æ¡n": 5120,
      "Ġláº¹o": 5121,
      "Ġljk": 5122,
      "Æ°i": 5123,
      "Ġvf": 5124,
      "Ġváº¡n": 5125,
      "Ġváº¥y": 5126,
      "Ġváº§n": 5127,
      "Ġváº¿u": 5128,
      "Ġváº¯c": 5129,
      "Ġváº¯ng": 5130,
      "Ġvvv": 5131,
      "ĠmÆ°á»Ľ": 5132,
      "Ġmin": 5133,
      "ĠmÃ²n": 5134,
      "ĠmÃ©": 5135,
      "Ġmáº§y": 5136,
      "ĠmÃ©p": 5137,
      "ĠmÃ³n": 5138,
      "Ġmieng": 5139,
      "Ġbk": 5140,
      "Ġbn": 5141,
      "Ġbs": 5142,
      "Ġbáº¡": 5143,
      "ĠbáºŃ": 5144,
      "Ġbanh": 5145,
      "ĠbÆ¡i": 5146,
      "Ġbáº§n": 5147,
      "Ġbáº£ng": 5148,
      "ĠbáºŃn": 5149,
      "Ġbáº£y": 5150,
      "ĠbÆ°á»Ľm": 5151,
      "ĠkÃ¬m": 5152,
      "Ġkáº¹o": 5153,
      "Ġkuma": 5154,
      "ĠdÃª": 5155,
      "Ġdá»ĵi": 5156,
      "ĠdÃ¡i": 5157,
      "ĠdiÃªn": 5158,
      "Ġdá»ĳc": 5159,
      "ĠduyÃªn": 5160,
      "Ġdáº£i": 5161,
      "ĠdÆ°ng": 5162,
      "Ġgay": 5163,
      "Ġgon": 5164,
      "Ġgáº¡o": 5165,
      "Ġgoc": 5166,
      "ĠgÄĳ": 5167,
      "Ġget": 5168,
      "Ġgá»ĳi": 5169,
      "Ġsx": 5170,
      "Ġsáº£": 5171,
      "ĠsÃ¬": 5172,
      "Ġsac": 5173,
      "Ġsoc": 5174,
      "ĠsÄĥn": 5175,
      "ĠsÃ¡p": 5176,
      "ĠsÃ¡u": 5177,
      "Ġshare": 5178,
      "ĠngÃ³": 5179,
      "ĠngÆ¡": 5180,
      "Ġngai": 5181,
      "Ġnganh": 5182,
      "ĠngÃ¢m": 5183,
      "Ġngá»į": 5184,
      "Ġngáº¡o": 5185,
      "Ġngáº¯m": 5186,
      "Ġngap": 5187,
      "Ġnguyá»ģn": 5188,
      "Ġngáº¯n": 5189,
      "ĠngÆ°á»¡ng": 5190,
      "ĠngÃ³n": 5191,
      "ĠtrÆ°a": 5192,
      "Ġtráº½": 5193,
      "ĠtruyÃªn": 5194,
      "Ġtrieu": 5195,
      "Ãªp": 5196,
      "ĠchÆ°á»Ľc": 5197,
      "Ġchem": 5198,
      "Ġchat": 5199,
      "ĠchÆ°ng": 5200,
      "Ġchieu": 5201,
      "ĠTM": 5202,
      "ĠTÃł": 5203,
      "ĠTÃ´": 5204,
      "ĠTam": 5205,
      "ĠTao": 5206,
      "ĠTháº£": 5207,
      "ĠTinh": 5208,
      "ĠTel": 5209,
      "ĠTá»Ļi": 5210,
      "ĠTáº¾": 5211,
      "ĠTÃ¬m": 5212,
      "ĠTiáº¿p": 5213,
      "ĠTÃį": 5214,
      "ĠTAY": 5215,
      "ĠTANG": 5216,
      "ĠTÃĤY": 5217,
      "ĠhÅ©": 5218,
      "ĠhÃłn": 5219,
      "Ġhuyá»ĩn": 5220,
      "Ġhiáº¿u": 5221,
      "ĠhÆ°u": 5222,
      "ĠÄĳá»¥": 5223,
      "ĠÄĳá»ĳ": 5224,
      "ĠÄĳá»Ł": 5225,
      "ĠÄĳá»±ng": 5226,
      "ĠÄĳá»ĳc": 5227,
      "ĠlÃło": 5228,
      "Ġpay": 5229,
      "Ġpin": 5230,
      "Ġpalestine": 5231,
      "Ġple": 5232,
      "ĠCs": 5233,
      "ĠCÃ¢u": 5234,
      "ĠCas": 5235,
      "ĠCháº¿": 5236,
      "ĠCAN": 5237,
      "ĠCáº¦U": 5238,
      "ĠCáº¤P": 5239,
      "ĠthÃ©p": 5240,
      "áº¥ng": 5241,
      "ĠrÃ¢m": 5242,
      "ĠrÄĥn": 5243,
      "ĠráºŃn": 5244,
      "ĠrÃ¡ng": 5245,
      "Ġrieng": 5246,
      "Ġthiá»ģn": 5247,
      "Ġthiá»ĩp": 5248,
      "Æ¡c": 5249,
      "Æ¡p": 5250,
      "Ġqa": 5251,
      "Ġcá»Ļi": 5252,
      "Ġcá»§i": 5253,
      "ĠNoi": 5254,
      "ĠNáº¡n": 5255,
      "ĠNÃªu": 5256,
      "ĠVP": 5257,
      "ĠVÃ¢y": 5258,
      "ĠVÃŃ": 5259,
      "ĠVÃło": 5260,
      "ĠVIá»Ĩ": 5261,
      "ĠVoa": 5262,
      "Ġxl": 5263,
      "ĠxÃł": 5264,
      "Ġxam": 5265,
      "Ġxay": 5266,
      "ĠxÆ¡i": 5267,
      "Ġxui": 5268,
      "ĠxÆ°ng": 5269,
      "Ġxxx": 5270,
      "ĠkhÃ©o": 5271,
      "Ġchá»įc": 5272,
      "and": 5273,
      "ĠMI": 5274,
      "ĠMÄ©": 5275,
      "ĠMÃły": 5276,
      "ĠMáºŃt": 5277,
      "ĠMáº·c": 5278,
      "ĠMien": 5279,
      "ĠMÃ¹a": 5280,
      "ĠMá»ĵm": 5281,
      "ĠMáº«u": 5282,
      "ĠMáº¸": 5283,
      "ĠMáº¶T": 5284,
      "ĠMPL": 5285,
      "ame": 5286,
      "ĠHT": 5287,
      "ĠHe": 5288,
      "ĠHáº¿t": 5289,
      "ĠHiá»ĩp": 5290,
      "ĠHÃĥ": 5291,
      "ĠHÃĮNH": 5292,
      "Ġgiu": 5293,
      "ĠgiÃ´ng": 5294,
      "Ġgiáº¥u": 5295,
      "Ġhá»©ng": 5296,
      "Ġhá»§y": 5297,
      "Ġhá»Ľt": 5298,
      "Ġtháº§m": 5299,
      "Ġtháº¥u": 5300,
      "Ġmá»ģm": 5301,
      "ĠnÃ³c": 5302,
      "aoke": 5303,
      "Ġbá»ķng": 5304,
      "ĠchÃ´ng": 5305,
      "ĠchÃ¨o": 5306,
      "ĠchÃ´n": 5307,
      "Ġthá»¥": 5308,
      "Ġthá»Ľt": 5309,
      "ĠÄĲA": 5310,
      "ĠÄĲa": 5311,
      "ĠÄĲÃ´": 5312,
      "ĠÄĲai": 5313,
      "ĠÄĲáº§u": 5314,
      "ĠÄĲáº·t": 5315,
      "ĠÄĲá»Ļng": 5316,
      "ĠÄĲÃĬ": 5317,
      "ĠÄĲáº¹p": 5318,
      "ĠÄĲANG": 5319,
      "ĠÄĲIá»ĢU": 5320,
      "ĠmÃłn": 5321,
      "him": 5322,
      "Ġlá»ĥ": 5323,
      "Ġlá»ıng": 5324,
      "chiáº¿n": 5325,
      "ĠBO": 5326,
      "ĠBÃ´": 5327,
      "ĠBang": 5328,
      "ĠBiÃªn": 5329,
      "ĠBÃ¡n": 5330,
      "ĠBáº±ng": 5331,
      "ĠBiá»ĥn": 5332,
      "ĠBáº¡ch": 5333,
      "ĠBAC": 5334,
      "ĠBáº¦U": 5335,
      "ĠBBC": 5336,
      "ĠBáº®N": 5337,
      "ĠBigo": 5338,
      "ĠPu": 5339,
      "ĠPot": 5340,
      "ĠLe": 5341,
      "ĠLáº¡i": 5342,
      "ĠLao": 5343,
      "ĠLÃ²": 5344,
      "ĠLÃº": 5345,
      "ĠLÃºc": 5346,
      "ĠLáºł": 5347,
      "ĠLÃļ": 5348,
      "ĠLOáºłI": 5349,
      "Æ°Æ¡m": 5350,
      "Ġá»§y": 5351,
      "ĠDE": 5352,
      "ĠDong": 5353,
      "ĠDáº«n": 5354,
      "ĠDANG": 5355,
      "ĠDONG": 5356,
      "ĠDUNG": 5357,
      "ĠDáºªN": 5358,
      "Ãºn": 5359,
      "ena": 5360,
      "ence": 5361,
      "ĠhÃ´ng": 5362,
      "ĠhÃ¢m": 5363,
      "Ġsá»¯": 5364,
      "ĠTráº£": 5365,
      "ĠTrÆ°á»Ľc": 5366,
      "ĠTrá»±c": 5367,
      "ĠSe": 5368,
      "ĠSÆ°": 5369,
      "ĠSan": 5370,
      "ĠSÄ©": 5371,
      "ĠSÄĳ": 5372,
      "ĠSÃ¡ng": 5373,
      "ĠSá»ĳng": 5374,
      "ĠSá»ĲNG": 5375,
      "ĠSALE": 5376,
      "ĠKE": 5377,
      "ĠKI": 5378,
      "ĠKO": 5379,
      "ĠKy": 5380,
      "ĠKie": 5381,
      "ĠKÃªnh": 5382,
      "ĠKUMA": 5383,
      "Ġnháº¯m": 5384,
      "Ġkhuy": 5385,
      "Ġkhanh": 5386,
      "ĠkhÆ¡i": 5387,
      "Ġkhuyen": 5388,
      "Ġkhuyáº¿n": 5389,
      "Ġhoáº¡": 5390,
      "ĠQG": 5391,
      "Ġtrá»¯": 5392,
      "Ġtrá»įn": 5393,
      "ĠVND": 5394,
      "ĠluÃ¢n": 5395,
      "ĠGD": 5396,
      "ĠGiáº¿t": 5397,
      "ĠGá»įi": 5398,
      "ĠGiá»ĳng": 5399,
      "ĠGoogle": 5400,
      "ĠNghi": 5401,
      "ĠNgá»įc": 5402,
      "Ġná»©": 5403,
      "Ġná»ģ": 5404,
      "Ġbá»ĭch": 5405,
      "Ġdá»ĭp": 5406,
      "ĠAD": 5407,
      "ĠphÆ¡i": 5408,
      "Ġphap": 5409,
      "Ġphuong": 5410,
      "ÄĲÃ¡m": 5411,
      "ÄĲá»ĵng": 5412,
      "Ġdola": 5413,
      "Ġdollar": 5414,
      "ĠquyÃªt": 5415,
      "Ġtoa": 5416,
      "ĠÄĳá»ĵn": 5417,
      "ath": 5418,
      "ation": 5419,
      "Ġtuoi": 5420,
      "Ġpháº³ng": 5421,
      "Ġthuáº«n": 5422,
      "Ġtiáº¿áĺīg": 5423,
      "ĠkhÃ¡i": 5424,
      "ĠkhÃ¡m": 5425,
      "ĠkhÃ¡n": 5426,
      "ĠUP": 5427,
      "ĠUk": 5428,
      "ÃĶi": 5429,
      "Ġag": 5430,
      "Ġas": 5431,
      "Ġaáĺīh": 5432,
      "Ġcuc": 5433,
      "Ġcut": 5434,
      "Ġcuoi": 5435,
      "Ġtá»±u": 5436,
      "NguyÃªn": 5437,
      "eless": 5438,
      "ĠÄĲá»Ŀi": 5439,
      "ĠÄĲá»ĭt": 5440,
      "ĠÄĲá»ĭnh": 5441,
      "ĠÄĲá»ĭa": 5442,
      "ĠÄĲá»ĺC": 5443,
      "ĠXÃ£": 5444,
      "ĠCHON": 5445,
      "Ġcasino": 5446,
      "ĠTHE": 5447,
      "ĠTHU": 5448,
      "ĠTHANH": 5449,
      "ĠTHáºº": 5450,
      "ĠtÆ°ng": 5451,
      "Ġoai": 5452,
      "ÃģNG": 5453,
      "ĠthÃ¡m": 5454,
      "ĠthÃ¡ch": 5455,
      "ĠQuoc": 5456,
      "Ġfoll": 5457,
      "ĠTá»ĺI": 5458,
      "ĠnhÃ©t": 5459,
      "Ġtá»ķn": 5460,
      "ale": 5461,
      "ĠRá»ĵng": 5462,
      "ĠRáº¤T": 5463,
      "ĠRáºº": 5464,
      "Ġkhoai": 5465,
      "ÄĳÃª": 5466,
      "Äĳung": 5467,
      "ÄĳÃ¢y": 5468,
      "ĠTRANG": 5469,
      "ĠTRÆ¯á»ľNG": 5470,
      "ĠTRIá»ĨU": 5471,
      "art": 5472,
      "araoke": 5473,
      "ĠChÆ°Æ¡ng": 5474,
      "ĠmÃ¡ng": 5475,
      "ChÆ°Æ¡ng": 5476,
      "Chuc": 5477,
      "Check": 5478,
      "ĠFac": 5479,
      "ĠFor": 5480,
      "ĠNHIá»ĢU": 5481,
      "Æłn": 5482,
      "Ġuraina": 5483,
      "ase": 5484,
      "ĠHoan": 5485,
      "ĠchÃ¡t": 5486,
      "Tran": 5487,
      "Ġngá»«ng": 5488,
      "ĠThá»ĥ": 5489,
      "Ġbacho": 5490,
      "ĠNhau": 5491,
      "ĠNhÆ¡n": 5492,
      "Æ¯á»ŀNG": 5493,
      "ĠNGÃĤN": 5494,
      "Ġhá»Ļp": 5495,
      "ĠPhu": 5496,
      "Ġdeu": 5497,
      "ĠsÆ°c": 5498,
      "ĠQUAN": 5499,
      "ÃĵA": 5500,
      "ÃĵM": 5501,
      "ĠTQH": 5502,
      "ĠkhÃ³i": 5503,
      "Ġsub": 5504,
      "Ġsuáº¥t": 5505,
      "Ġnghá»ħ": 5506,
      "Ġphia": 5507,
      "Ã¨n": 5508,
      "ĠOan": 5509,
      "ĠOTP": 5510,
      "ĠONLINE": 5511,
      "Ġwan": 5512,
      "Ġwill": 5513,
      "Ġnghien": 5514,
      "ĠVá»Ĭ": 5515,
      "ĠVá»Ľ": 5516,
      "Ġkhá»ıa": 5517,
      "Ġcongsan": 5518,
      "Ġhuynh": 5519,
      "Ġxá»©ng": 5520,
      "Ġxá»īa": 5521,
      "Iá»ĨM": 5522,
      "ĠYoutube": 5523,
      "Ġthá»ĭnh": 5524,
      "Ġkháº¥u": 5525,
      "ĠVinFast": 5526,
      "ĠChinh": 5527,
      "ĠNá»Ķ": 5528,
      "Ġruá»ĵi": 5529,
      "Ġvietnam": 5530,
      "ĠLá»ĮT": 5531,
      "Ġzá»ĵi": 5532,
      "Ġhahaha": 5533,
      "Æ¯ÆłI": 5534,
      "ĠHDH": 5535,
      "ĠThÃª": 5536,
      "Chá»Ńi": 5537,
      "Ġinbx": 5538,
      "Ġï¸ıï¸ı": 5539,
      "ĠxÃ³t": 5540,
      "ĠCHá»Ĭ": 5541,
      "ĠviÃªáĺī": 5542,
      "ÄĤN": 5543,
      "Ġnuá»Ľ": 5544,
      "Ġlife": 5545,
      "Ġlive": 5546,
      "Ġchá»¯i": 5547,
      "ĠnhuáºŃn": 5548,
      "ĠFULLhd": 5549,
      "ick": 5550,
      "ĠTháº»": 5551,
      "ĠTháºŃm": 5552,
      "Nha": 5553,
      "NhÆ°ng": 5554,
      "Ġáĺīá»ķi": 5555,
      "ĠáĺīÃ¨": 5556,
      "ĠáĺīhÃ©": 5557,
      "ĠVIETT": 5558,
      "Cá»¥": 5559,
      "ĠÃģN": 5560,
      "Ġcanada": 5561,
      "Ġgá»Ĺ": 5562,
      "Ġgá»£i": 5563,
      "ĠVÃĢO": 5564,
      "NhÃ³m": 5565,
      "Vá»«a": 5566,
      "Ġib": 5567,
      "Ġiran": 5568,
      "ave": 5569,
      "thanh": 5570,
      "Ġláº¡y": 5571,
      "ĠCuBa": 5572,
      "Há»ıi": 5573,
      "áº®C": 5574,
      "áº®T": 5575,
      "ĠkhuÃ´n": 5576,
      "Giáº¥y": 5577,
      "ThÃŃch": 5578,
      "ĠÄĳep": 5579,
      "ĠlÃºa": 5580,
      "ĠCTY": 5581,
      "VietNguyen": 5582,
      "Thá»©": 5583,
      "Thá»Ŀi": 5584,
      "ĠTIEN": 5585,
      "ĠDá»ĬCH": 5586,
      "ĠMisthy": 5587,
      "ĠSHBET": 5588,
      "ÃĴA": 5589,
      "Ġhuá»·": 5590,
      "Ġtá»ıa": 5591,
      "ĠLuÃ´n": 5592,
      "Ġyour": 5593,
      "ĠTrÃ²áĺī": 5594,
      "ChÃ¡u": 5595,
      "Î±Ð¼": 5596,
      "ĠthÃłáĺīh": 5597,
      "ĠhÃ¡ng": 5598,
      "ight": 5599,
      "UYá»Ĩ": 5600,
      "Ġdont": 5601,
      "Ġquá»³": 5602,
      "ello": 5603,
      "Ġcomment": 5604,
      "Êľá´ľÉ´É¢": 5605,
      "Êľá´Ģá´į": 5606,
      "MyLinh": 5607,
      "Ġá´Ħ": 5608,
      "Ġbá»£m": 5609,
      "ĠÄĲÃĵI": 5610,
      "thanksdocthanksdocthanksdocthanksdoc": 5611,
      "chÃºng": 5612,
      "ĠHdEM": 5613,
      "ĠKhá»Łi": 5614,
      "ĠCHÃļC": 5615,
      "ĠnghÃªnh": 5616,
      "faceredheartshapefaceredheartshapefaceredheartshapefaceredheartshapefaceredheartshapefaceredheartshapefaceredheartshapefaceredheartshape": 5617,
      "Ġucraina": 5618,
      "Ġits": 5619,
      "Ġváº¹n": 5620,
      "ĠCrow": 5621,
      "ĠthÃ¨m": 5622,
      "ĠnhÃºng": 5623,
      "Ġadmin": 5624,
      "RAEL": 5625,
      "Ð½Î¹": 5626,
      "â²ģ": 5627,
      "Ġcmt": 5628,
      "ĠHuáº¿": 5629,
      "ĠParis": 5630,
      "Ná»ķ": 5631,
      "PhÃ¡p": 5632,
      "ĠÃģn": 5633,
      "Ġcccd": 5634,
      "ĠmÃ¬n": 5635,
      "ĠUKR": 5636,
      "ĠTá»ĶNG": 5637,
      "fornia": 5638,
      "ganistan": 5639,
      "ĠtÃºy": 5640,
      "ĠnÃŃn": 5641,
      "ĠnÃ©m": 5642,
      "ĠTOÃĢN": 5643,
      "ĠÄĳá»£t": 5644,
      "ĠGá»ĮI": 5645,
      "Ġukrena": 5646,
      "ĠKHá»İE": 5647,
      "Ukraine": 5648,
      "ĠÉ´Êľá´ľÉ´É¢": 5649,
      "ĠlÃµa": 5650,
      "ĠThÃºy": 5651,
      "ĠLÆ¯á»¢NG": 5652,
      "ĠAMEN": 5653,
      "ĠemthÆ°á»Łng": 5654,
      "redit": 5655,
      "ĠPHáºłM": 5656,
      "ĠEuro": 5657,
      "Ġá´ĽÊľá´Ģá´į": 5658,
      "Xuáº¥t": 5659,
      "ĠmÆ°á»Ľn": 5660,
      "ĠbáºŃc": 5661,
      "Ġngá»įt": 5662,
      "ĠTháº£o": 5663,
      "Ġplease": 5664,
      "ĠVIá»ĨC": 5665,
      "ĠHÃĥY": 5666,
      "ĠSÄĳt": 5667,
      "ĠKiev": 5668,
      "Ġfollow": 5669,
      "Ġnuá»Ľc": 5670,
      "ĠVIETTEL": 5671,
      "MyLinhPhan": 5672,
      "AS": 5673,
      "Ae": 5674,
      "BE": 5675,
      "BN": 5676,
      "BV": 5677,
      "Bá»ĳ": 5678,
      "Bai": 5679,
      "Báº£o": 5680,
      "CN": 5681,
      "CÃ¡": 5682,
      "Cai": 5683,
      "CÅ©ng": 5684,
      "CÃ¹ng": 5685,
      "Cor": 5686,
      "Du": 5687,
      "Dáº¡": 5688,
      "Dan": 5689,
      "Dung": 5690,
      "DÃ¹": 5691,
      "Dol": 5692,
      "EW": 5693,
      "EBO": 5694,
      "GA": 5695,
      "GH": 5696,
      "GR": 5697,
      "Giá»": 5698,
      "Gáº§n": 5699,
      "HQ": 5700,
      "Há»ĵi": 5701,
      "HÃłi": 5702,
      "Hello": 5703,
      "IÃĬU": 5704,
      "ISA": 5705,
      "Isarel": 5706,
      "KT": 5707,
      "KÃŃnh": 5708,
      "LO": 5709,
      "LU": 5710,
      "Lá»": 5711,
      "LÃª": 5712,
      "Lam": 5713,
      "LÃ¢u": 5714,
      "Láº¥y": 5715,
      "Láº§n": 5716,
      "LÃ½": 5717,
      "LÃ£o": 5718,
      "MC": 5719,
      "Ma": 5720,
      "Mai": 5721,
      "ND": 5722,
      "Na": 5723,
      "NÄĥm": 5724,
      "NAM": 5725,
      "OM": 5726,
      "OO": 5727,
      "PH": 5728,
      "Pháº£n": 5729,
      "PAY": 5730,
      "QH": 5731,
      "Qui": 5732,
      "SU": 5733,
      "Sáº½": 5734,
      "Sá»ĳng": 5735,
      "TR": 5736,
      "TU": 5737,
      "TÃªn": 5738,
      "Tuy": 5739,
      "TÃłi": 5740,
      "Tiáº¿n": 5741,
      "Tui": 5742,
      "TÃłu": 5743,
      "Tien": 5744,
      "TáºłI": 5745,
      "Uy": 5746,
      "URL": 5747,
      "VT": 5748,
      "Vo": 5749,
      "VÃ´": 5750,
      "Vay": 5751,
      "Viá»ĩc": 5752,
      "VÃ¢ng": 5753,
      "YOR": 5754,
      "af": 5755,
      "all": 5756,
      "bÃªn": 5757,
      "bÃ²": 5758,
      "bÃ¬nh": 5759,
      "bum": 5760,
      "bout": 5761,
      "bag": 5762,
      "btn": 5763,
      "cac": 5764,
      "dt": 5765,
      "dy": 5766,
      "duoc": 5767,
      "ee": 5768,
      "fas": 5769,
      "fore": 5770,
      "film": 5771,
      "fganistan": 5772,
      "ga": 5773,
      "gh": 5774,
      "giá»Ŀ": 5775,
      "hq": 5776,
      "hay": 5777,
      "hon": 5778,
      "hoc": 5779,
      "her": 5780,
      "hbag": 5781,
      "iv": 5782,
      "kg": 5783,
      "king": 5784,
      "lo": 5785,
      "let": 5786,
      "lÃŃnh": 5787,
      "ma": 5788,
      "má»¹": 5789,
      "mer": 5790,
      "má»Ļt": 5791,
      "nB": 5792,
      "nC": 5793,
      "nL": 5794,
      "nb": 5795,
      "nd": 5796,
      "nk": 5797,
      "ns": 5798,
      "nt": 5799,
      "nÃªn": 5800,
      "nay": 5801,
      "nÆ°á»Ľc": 5802,
      "nÄĲ": 5803,
      "nÃły": 5804,
      "nhá»¯ng": 5805,
      "oÃłi": 5806,
      "pi": 5807,
      "po": 5808,
      "phÃ¡": 5809,
      "qh": 5810,
      "rn": 5811,
      "rat": 5812,
      "ria": 5813,
      "row": 5814,
      "ress": 5815,
      "se": 5816,
      "sh": 5817,
      "sip": 5818,
      "tc": 5819,
      "to": 5820,
      "tu": 5821,
      "tay": 5822,
      "tháºŃt": 5823,
      "tra": 5824,
      "tháº¿": 5825,
      "toÃłn": 5826,
      "ue": 5827,
      "uv": 5828,
      "ust": 5829,
      "vo": 5830,
      "vÃ´": 5831,
      "van": 5832,
      "vin": 5833,
      "vel": 5834,
      "vest": 5835,
      "vic": 5836,
      "wn": 5837,
      "wan": 5838,
      "xem": 5839,
      "xac": 5840,
      "xar": 5841,
      "ym": 5842,
      "¡o": 5843,
      "¡nh": 5844,
      "¡ch": 5845,
      "¨A": 5846,
      "ªáĺīg": 5847,
      "«n": 5848,
      "«u": 5849,
      "®A": 5850,
      "Ã¸": 5851,
      "Å¯": 5852,
      "á¥": 5853,
      "áĳ": 5854,
      "Ġç": 5855,
      "Ġao": 5856,
      "ĠÃº": 5857,
      "Ġen": 5858,
      "Ġat": 5859,
      "ĠÃºng": 5860,
      "ĠÃ¡m": 5861,
      "ĠÆ°ng": 5862,
      "Ġáº¥n": 5863,
      "Ġáº©n": 5864,
      "ĠÃ¡nh": 5865,
      "ĠÃ³i": 5866,
      "ĠÃį": 5867,
      "ĠÉ¢": 5868,
      "ĠÎ±": 5869,
      "ĠÑĤ": 5870,
      "ĩá´": 5871,
      "ĬNH": 5872,
      "İŁ": 5873,
      "ĵn": 5874,
      "Ŀm": 5875,
      "Ńng": 5876,
      "á»ľ": 5877,
      "á»ĥn": 5878,
      "á»¥c": 5879,
      "á»ķng": 5880,
      "ngu": 5881,
      "ngli": 5882,
      "nguyÃªn": 5883,
      "Ġtw": 5884,
      "ĠtÃ¡": 5885,
      "Ġton": 5886,
      "ĠtÃłng": 5887,
      "Ġtáº§n": 5888,
      "Ġtáº£n": 5889,
      "ĠtÃ¹ng": 5890,
      "ĠtÃ©": 5891,
      "ĠtÃºng": 5892,
      "ĠtiÃª": 5893,
      "Ġtiá»ħn": 5894,
      "Ġtieu": 5895,
      "Ġtest": 5896,
      "Ġtáº¡p": 5897,
      "Ġtiá»ģm": 5898,
      "ĠtiÃªm": 5899,
      "ĠcÆ°Æ¡ng": 5900,
      "ĠcÆ¡n": 5901,
      "ĠcáºŃy": 5902,
      "ĠcÄĥm": 5903,
      "Ġcoc": 5904,
      "ĠcÃło": 5905,
      "Ġcuá»ĳc": 5906,
      "ĠcÃ²ng": 5907,
      "ĠcáºŃu": 5908,
      "Ġnáº¥y": 5909,
      "ĠnÃ¡o": 5910,
      "Ġnew": 5911,
      "Ġnáº»o": 5912,
      "ĠÄĳÆ¡": 5913,
      "ĠÄĳoi": 5914,
      "ĠÄĳua": 5915,
      "ĠÄĳáº£n": 5916,
      "ĠÄĳÃły": 5917,
      "ĠÄĳuá»ĳc": 5918,
      "ĠÄĳuoc": 5919,
      "ĠÄĳá´Ģ": 5920,
      "hÃ´m": 5921,
      "Ġlá»ĳ": 5922,
      "Ġlay": 5923,
      "Ġlá»ĵ": 5924,
      "ĠlÃ´n": 5925,
      "ĠlÆ°a": 5926,
      "Ġloc": 5927,
      "Ġlieu": 5928,
      "Ġláº·p": 5929,
      "Ġliá»ģm": 5930,
      "ĠláºŃu": 5931,
      "Ġvl": 5932,
      "Ġvon": 5933,
      "Ġvung": 5934,
      "ĠvÃº": 5935,
      "ĠvÃ´i": 5936,
      "Ġváº£i": 5937,
      "Ġváº¿t": 5938,
      "Ġvuong": 5939,
      "Ġvvn": 5940,
      "Ġviáº¿ng": 5941,
      "Ġváº·n": 5942,
      "Ġváº±n": 5943,
      "Ġmáº¡": 5944,
      "Ġmem": 5945,
      "ĠmÃ¢u": 5946,
      "Ġmáº§u": 5947,
      "Ġmeo": 5948,
      "Ġmac": 5949,
      "ĠmÄĥn": 5950,
      "Ġmáº¯m": 5951,
      "ĠmÃªnh": 5952,
      "ĠmÆ°Æ¡i": 5953,
      "ĠmÃºt": 5954,
      "Ġmáº£nh": 5955,
      "ĠmÃ¢t": 5956,
      "Ġmá»ĳt": 5957,
      "Ġmic": 5958,
      "Ġmuá»ĳi": 5959,
      "Ġmobi": 5960,
      "ĠmÆ°c": 5961,
      "ĠmÄĥt": 5962,
      "há»į": 5963,
      "há»įc": 5964,
      "Ġbáº¿": 5965,
      "Ġben": 5966,
      "Ġbau": 5967,
      "Ġbui": 5968,
      "ĠbÃ¡t": 5969,
      "Ġbut": 5970,
      "Ġbáº¹p": 5971,
      "ĠbÃŃt": 5972,
      "ĠbÃ³i": 5973,
      "ĠbÃ³c": 5974,
      "Ġbit": 5975,
      "ĠbÃ¢t": 5976,
      "ĠbÃ³p": 5977,
      "Ġbáº©y": 5978,
      "ĠbÃ©o": 5979,
      "ĠbÄĥt": 5980,
      "Ġkk": 5981,
      "ĠkÃ´": 5982,
      "Ġket": 5983,
      "ĠkÃŃt": 5984,
      "Ġkiá»ĩm": 5985,
      "ĠkÃ¨o": 5986,
      "ĠkiÃªm": 5987,
      "Ġkáº¹t": 5988,
      "Ġkaka": 5989,
      "nhanh": 5990,
      "Ġdv": 5991,
      "Ġdz": 5992,
      "ĠdÃ´i": 5993,
      "ĠdáºŃp": 5994,
      "ĠdÃło": 5995,
      "ĠdáºŃt": 5996,
      "Ġdá»Ļi": 5997,
      "ĠdÃ£y": 5998,
      "ĠdÃ´t": 5999,
      "ĠdÃ²m": 6000,
      "Ġgs": 6001,
      "Ġgu": 6002,
      "Ġgai": 6003,
      "ĠgÃ¡c": 6004,
      "ĠgÃłi": 6005,
      "ĠgÃ²n": 6006,
      "ĠgÃ¹": 6007,
      "Ġgáº§m": 6008,
      "ĠgÃ£y": 6009,
      "ĠgÃ³t": 6010,
      "Ġgáº·m": 6011,
      "ĠgÆ°i": 6012,
      "Ġsoi": 6013,
      "Ġsen": 6014,
      "Ġsáº¡n": 6015,
      "ĠsÆ°a": 6016,
      "ĠsÃ¡o": 6017,
      "Ġsáº¡o": 6018,
      "ĠsÃ¹ng": 6019,
      "Ġsat": 6020,
      "Ġsap": 6021,
      "ĠsÃºt": 6022,
      "ĠsiÃªng": 6023,
      "Ġsáº£y": 6024,
      "Ġsell": 6025,
      "ĠsÆ°á»Ŀn": 6026,
      "Ġship": 6027,
      "Ġsbtn": 6028,
      "Ġnge": 6029,
      "Ġngan": 6030,
      "ĠngÃ´ng": 6031,
      "ĠngÃ¡n": 6032,
      "ĠngÆ°ng": 6033,
      "Ġngáº¡c": 6034,
      "ĠngÃ³ng": 6035,
      "ĠtrÃª": 6036,
      "Ġtran": 6037,
      "ĠtrÃ¹": 6038,
      "ĠtrÆ°ng": 6039,
      "Ġtrá»Ļi": 6040,
      "Ġtruyen": 6041,
      "Ġtrum": 6042,
      "Ġtráº¡ng": 6043,
      "Ġtráº¡m": 6044,
      "Ãªsu": 6045,
      "ĠchÃł": 6046,
      "ĠchÆ¡": 6047,
      "Ġcham": 6048,
      "ĠchÃłng": 6049,
      "ĠchÄ©": 6050,
      "Ġchac": 6051,
      "Ġchut": 6052,
      "ĠchÆ°á»Ľng": 6053,
      "Ġchina": 6054,
      "ĠToi": 6055,
      "ĠTÆ°Æ¡ng": 6056,
      "ĠTÃ´n": 6057,
      "ĠTá»Ļc": 6058,
      "ĠTÃĬN": 6059,
      "ĠTá»ĳt": 6060,
      "ĠTAN": 6061,
      "ĠTiáº¿c": 6062,
      "ĠTáº¬N": 6063,
      "ĠTÄĤNG": 6064,
      "ĠTÃģC": 6065,
      "ĠTOAN": 6066,
      "ĠTex": 6067,
      "ĠTDT": 6068,
      "ĠTpHCM": 6069,
      "ĠTÃĴA": 6070,
      "ĠhÆ°á»Ľc": 6071,
      "ĠhÆ°á»Ŀng": 6072,
      "Ġheo": 6073,
      "ĠhuyÃªn": 6074,
      "Ġpt": 6075,
      "Ġpu": 6076,
      "ĠpÃ¡n": 6077,
      "Ġpeo": 6078,
      "Ġpal": 6079,
      "ĠCP": 6080,
      "ĠCÆ¡": 6081,
      "ĠCÆ°á»Ľc": 6082,
      "ĠCÄĲ": 6083,
      "ĠCáºŃp": 6084,
      "ĠCáº£i": 6085,
      "ĠCÆł": 6086,
      "ĠCÃ¡ch": 6087,
      "ĠCÃºt": 6088,
      "ĠCast": 6089,
      "ĠCÆ¯á»ļ": 6090,
      "ĠCEO": 6091,
      "ĠCáº¦N": 6092,
      "ĠCÃĤU": 6093,
      "ĠCáº¦M": 6094,
      "ĠCÃĻNG": 6095,
      "ĠCredit": 6096,
      "Ġnhen": 6097,
      "Ġnhap": 6098,
      "ĠthÃŃnh": 6099,
      "ĠthÃ´n": 6100,
      "Ġrem": 6101,
      "ĠrÃ¢u": 6102,
      "ĠrÃªu": 6103,
      "ĠrÃło": 6104,
      "Ġráº£i": 6105,
      "Ġrut": 6106,
      "ĠrÃ²ng": 6107,
      "Ġráº£nh": 6108,
      "ĠrÆ°á»¡i": 6109,
      "ĠrÆ°á»Łi": 6110,
      "Ġright": 6111,
      "Ġthung": 6112,
      "Ġthinh": 6113,
      "ĠthÃły": 6114,
      "Ġthiá»ĥu": 6115,
      "Ġthiet": 6116,
      "Ġthieu": 6117,
      "Æ¡ng": 6118,
      "Ġcá»Łi": 6119,
      "Ġquáº¥y": 6120,
      "ĠquÄĥng": 6121,
      "Ġquáº©n": 6122,
      "ĠNK": 6123,
      "ĠNS": 6124,
      "ĠNu": 6125,
      "ĠNÄĥng": 6126,
      "ĠNÃ¡t": 6127,
      "ĠNuoc": 6128,
      "ĠNAO": 6129,
      "ĠNÃ¢ng": 6130,
      "ĠNAP": 6131,
      "ĠNáºłN": 6132,
      "ĠNEW": 6133,
      "ĠVÃ´": 6134,
      "ĠViáº¿t": 6135,
      "ĠVÃĶ": 6136,
      "ĠVui": 6137,
      "ĠVÃµ": 6138,
      "ĠVÃ£i": 6139,
      "ĠVAY": 6140,
      "ĠVÆ¯ÆłNG": 6141,
      "ĠVÄ©nh": 6142,
      "ĠVUI": 6143,
      "ĠVÄĤN": 6144,
      "ĠxÆ°": 6145,
      "Ġxao": 6146,
      "ĠxÃ´ng": 6147,
      "Ġxiáº¿t": 6148,
      "ĠxÃ¡m": 6149,
      "ĠxÃ³i": 6150,
      "Ġxáº¯p": 6151,
      "Ġxáº©y": 6152,
      "ĠkhÃ¢m": 6153,
      "Ġchá»Ļ": 6154,
      "Ġchá»¯ng": 6155,
      "Ġchá»¯a": 6156,
      "Ġchá»«a": 6157,
      "ĠMT": 6158,
      "ĠMU": 6159,
      "ĠMe": 6160,
      "ĠMÃ¡": 6161,
      "ĠMÃ¬": 6162,
      "ĠMáº¡i": 6163,
      "ĠManh": 6164,
      "ĠMÃ¢u": 6165,
      "ĠMau": 6166,
      "ĠMÃĶ": 6167,
      "ĠMÃłu": 6168,
      "ĠMÃŃt": 6169,
      "ĠMAT": 6170,
      "ĠMÃ³n": 6171,
      "ama": 6172,
      "amil": 6173,
      "Ġtá»©": 6174,
      "Ġtá»Ľ": 6175,
      "Ġtá»ıi": 6176,
      "Ġtá»ĭt": 6177,
      "ĠHA": 6178,
      "ĠHy": 6179,
      "ĠHÃ¬": 6180,
      "ĠHÃ´ng": 6181,
      "ĠHÃ¬nh": 6182,
      "ĠHá»Ļ": 6183,
      "ĠHiá»ģn": 6184,
      "ĠHat": 6185,
      "ĠHáºł": 6186,
      "ĠHÃ¨": 6187,
      "ĠHit": 6188,
      "ĠHOA": 6189,
      "ĠHAY": 6190,
      "ĠHANG": 6191,
      "ĠHEO": 6192,
      "ĠHáº¢I": 6193,
      "ĠHÃ£ng": 6194,
      "ĠHáº¤P": 6195,
      "ĠHáº¢O": 6196,
      "ĠHáº®N": 6197,
      "Ġvá»ı": 6198,
      "Ġvá»Ļi": 6199,
      "Ġgiáº§u": 6200,
      "Ġgiáº»": 6201,
      "ĠgiÃ£y": 6202,
      "Ġhá»·": 6203,
      "Ġhá»ıa": 6204,
      "Ġtháº¯n": 6205,
      "Ġtháº©m": 6206,
      "Ġtháº¯t": 6207,
      "Ġmá»ķ": 6208,
      "Ġbá»ĥ": 6209,
      "Ġbá»ī": 6210,
      "Ġbá»Ľ": 6211,
      "Ġbá»Ľi": 6212,
      "Ġbá»«ng": 6213,
      "Ġthá»ģ": 6214,
      "Ġthá»īu": 6215,
      "ĠnÃłm": 6216,
      "ĠÄĲO": 6217,
      "ĠÄĲV": 6218,
      "ĠÄĲu": 6219,
      "ĠÄĲáº¿": 6220,
      "ĠÄĲang": 6221,
      "ĠÄĲen": 6222,
      "ĠÄĲÃ¢u": 6223,
      "ĠÄĲÆ°a": 6224,
      "ĠÄĲÃĶ": 6225,
      "ĠÄĲá»Ļc": 6226,
      "ĠÄĲáº·c": 6227,
      "ĠÄĲÃłm": 6228,
      "ĠÄĲÃªm": 6229,
      "ĠÄĲáº¤T": 6230,
      "ĠÄĲáºº": 6231,
      "ĠÄĲáº¾N": 6232,
      "ĠÄĲÃģNH": 6233,
      "ĠÄĲÃĤU": 6234,
      "ĠÄĲIá»ĨN": 6235,
      "ĠÄĲÃļNG": 6236,
      "háº£y": 6237,
      "Ġlá»ķ": 6238,
      "Ġlá»¥t": 6239,
      "Ġlá»¥m": 6240,
      "che": 6241,
      "chu": 6242,
      "chung": 6243,
      "ĠBÃ¡": 6244,
      "ĠBai": 6245,
      "ĠBen": 6246,
      "ĠBÄĲ": 6247,
      "ĠBÄĥng": 6248,
      "ĠBÃ©": 6249,
      "ĠBáº¯t": 6250,
      "ĠBÃĢ": 6251,
      "ĠBÃŃch": 6252,
      "ĠBAM": 6253,
      "ĠBÃį": 6254,
      "ĠBáº°NG": 6255,
      "ĠBlink": 6256,
      "ĠBalan": 6257,
      "áº¯k": 6258,
      "ĠPK": 6259,
      "ĠPT": 6260,
      "ĠPr": 6261,
      "ĠPháº£n": 6262,
      "ĠPá»ĳt": 6263,
      "ĠPlu": 6264,
      "ĠPALE": 6265,
      "ĠPNV": 6266,
      "ĠPlay": 6267,
      "ĠPence": 6268,
      "ĠPsip": 6269,
      "ĠLáº¡": 6270,
      "ĠLÃ¢n": 6271,
      "ĠLáº¥y": 6272,
      "ĠLÄĲ": 6273,
      "ĠLáºŃp": 6274,
      "ĠLoc": 6275,
      "ĠLÃło": 6276,
      "ĠLuc": 6277,
      "ĠLien": 6278,
      "ĠLÅ¨": 6279,
      "ĠLÃĥ": 6280,
      "ĠLaza": 6281,
      "ĠLINH": 6282,
      "ĠLiÃªm": 6283,
      "ĠLÃĿ": 6284,
      "ĠLBN": 6285,
      "oig": 6286,
      "Ġá»Ķ": 6287,
      "Ġgiá»Ń": 6288,
      "ĠDÃ¬": 6289,
      "ĠDáº§u": 6290,
      "ĠDáº¡o": 6291,
      "ĠDÃ¹ng": 6292,
      "ĠDAO": 6293,
      "ĠDAY": 6294,
      "ĠDAN": 6295,
      "ĠDav": 6296,
      "ĠDAC": 6297,
      "ĠDLV": 6298,
      "ĠDzá»": 6299,
      "ĠDCN": 6300,
      "ents": 6301,
      "ĠhÃ¹": 6302,
      "ĠnhÃŃ": 6303,
      "ĠnhÃ´ng": 6304,
      "ĠnhÃ¢t": 6305,
      "ĠÄĳá»ĥu": 6306,
      "ĠTrai": 6307,
      "ĠTriá»ģu": 6308,
      "ĠTrum": 6309,
      "Ġnhá»ĭn": 6310,
      "Ġnhá»Łn": 6311,
      "Ġháº»": 6312,
      "ĠSA": 6313,
      "ĠSp": 6314,
      "ĠSang": 6315,
      "ĠSen": 6316,
      "ĠSÃłn": 6317,
      "ĠSáº»": 6318,
      "ĠSÆł": 6319,
      "ĠSim": 6320,
      "ĠSá»Ĳ": 6321,
      "ĠSAI": 6322,
      "ĠSANG": 6323,
      "ĠSÆ¯á»ļNG": 6324,
      "ÃŃa": 6325,
      "ÃŃu": 6326,
      "ĠKG": 6327,
      "ĠKY": 6328,
      "ĠKiáº¿n": 6329,
      "ĠKÃªu": 6330,
      "ĠKIá»ĨT": 6331,
      "ĠKTT": 6332,
      "ĠKáºº": 6333,
      "Ġnháº¥n": 6334,
      "Ġnháº«n": 6335,
      "ĠkhÃł": 6336,
      "ĠkhuyÃªn": 6337,
      "Ġkhap": 6338,
      "ĠkhÄĥc": 6339,
      "Ġkhuyáº¿t": 6340,
      "ĠhoÃłnh": 6341,
      "ĠhoÄĥc": 6342,
      "ĠQK": 6343,
      "ĠQat": 6344,
      "Ġtrá»«ng": 6345,
      "Ġtrá»įc": 6346,
      "Ġlun": 6347,
      "Ġluoc": 6348,
      "ĠluÃ¢t": 6349,
      "ĠGA": 6350,
      "ĠGOI": 6351,
      "ĠNgáº¯n": 6352,
      "ĠNgÆ°Æ¡i": 6353,
      "ĠNgoÃłi": 6354,
      "Ġnghiá»ĩt": 6355,
      "ĠnghÃłnh": 6356,
      "Ġbá»ĭt": 6357,
      "Ġdá»¡": 6358,
      "Ġdá»ĭ": 6359,
      "áº½o": 6360,
      "ĠAb": 6361,
      "ĠAra": 6362,
      "ĠAfganistan": 6363,
      "Ġkhia": 6364,
      "Ġkhá»Ŀ": 6365,
      "Ġkhá»Ń": 6366,
      "Ġkhá»ķng": 6367,
      "Ġkhá»Łi": 6368,
      "aca": 6369,
      "ÄĲá»ĵ": 6370,
      "ÄĲÆ°á»£c": 6371,
      "ÄĲÃ¢u": 6372,
      "ÄĲÃłi": 6373,
      "ÄĲÆ°a": 6374,
      "ÄĲá»Ļc": 6375,
      "ÄĲÃ¡ng": 6376,
      "Ġtop": 6377,
      "ĠÄĳÃ¡o": 6378,
      "ĠnhÃło": 6379,
      "Ġtaxi": 6380,
      "athi": 6381,
      "Ġtuá»Ļt": 6382,
      "áº¹n": 6383,
      "Ġpháº¿t": 6384,
      "Ġthue": 6385,
      "Ġthui": 6386,
      "ĠthuÃ´c": 6387,
      "Ġloáº¡t": 6388,
      "ĠTha": 6389,
      "ĠThÆ°": 6390,
      "ĠThay": 6391,
      "ĠThua": 6392,
      "ĠThat": 6393,
      "ĠUu": 6394,
      "ĠUy": 6395,
      "Ġal": 6396,
      "Ġall": 6397,
      "Ġabout": 6398,
      "Ġcuong": 6399,
      "Ġcuá»Ļi": 6400,
      "Ġtá»±a": 6401,
      "Æ¯NG": 6402,
      "Ngu": 6403,
      "ĠÄĲá»Ķ": 6404,
      "ĠÄĲá»ĺNG": 6405,
      "ĠÄĲá»¨A": 6406,
      "ĠXL": 6407,
      "ĠXU": 6408,
      "ĠXinh": 6409,
      "ĠXra": 6410,
      "ĠXEM": 6411,
      "ĠXÃ³a": 6412,
      "ĠXÃŃu": 6413,
      "ĠCHÃģ": 6414,
      "ĠCHUNG": 6415,
      "ĠCHáº¤P": 6416,
      "ĠCHÃģNH": 6417,
      "ĠCHUá»ĺT": 6418,
      "ĠCHUYÃĬN": 6419,
      "ĠCHUYá»Ĩ": 6420,
      "ĠTHÃĤN": 6421,
      "ĠTHIá»ĨT": 6422,
      "ĠTHÃĻ": 6423,
      "ĠTHáº°NG": 6424,
      "ĠTHáº¢O": 6425,
      "ĠTHáº¤Y": 6426,
      "ĠTHáº¢M": 6427,
      "ĠTHáº²NG": 6428,
      "ĠoO": 6429,
      "Ġom": 6430,
      "Ġour": 6431,
      "ÃģCH": 6432,
      "Ġlap": 6433,
      "Ġká»ģ": 6434,
      "Ġthit": 6435,
      "ĠQuáº§n": 6436,
      "ĠQuáºŃn": 6437,
      "Ġphá»ķ": 6438,
      "Ġphá»ĳi": 6439,
      "ÃĤT": 6440,
      "ï¸ıðŁħ±ï¸ı": 6441,
      "ĠTá»Ń": 6442,
      "ĠTá»¤C": 6443,
      "ĠTá»ĺC": 6444,
      "ĠPhilipp": 6445,
      "Ġanim": 6446,
      "ĠIsarel": 6447,
      "ĠIDol": 6448,
      "alk": 6449,
      "als": 6450,
      "ĠRE": 6451,
      "ĠRÃµ": 6452,
      "ĠROU": 6453,
      "ĠRUá»ĺT": 6454,
      "ĠRFA": 6455,
      "áº©ng": 6456,
      "ĠkhoÃ¡c": 6457,
      "Äĳáº¥t": 6458,
      "Äĳang": 6459,
      "ÄĳÆ°á»£c": 6460,
      "Äĳáº§u": 6461,
      "ÄĳÃºng": 6462,
      "ÄĳÃ¡nh": 6463,
      "ĠTRE": 6464,
      "ĠTRI": 6465,
      "ĠTRUY": 6466,
      "ĠTRON": 6467,
      "ĠTRANH": 6468,
      "ĠTRUYá»": 6469,
      "ute": 6470,
      "Ġmafia": 6471,
      "Ġmaga": 6472,
      "ara": 6473,
      "ĠChan": 6474,
      "ĠChar": 6475,
      "Chuyá»ĩn": 6476,
      "Ġchum": 6477,
      "Ġchuong": 6478,
      "ĠchuÃ´ng": 6479,
      "Ġchuá»Ļng": 6480,
      "ĠgiÃ¡p": 6481,
      "ĠFAC": 6482,
      "ĠCá»©u": 6483,
      "ĠCá»ĲT": 6484,
      "ĠGiÃł": 6485,
      "ĠGiÃ£n": 6486,
      "ĠGiÃªsu": 6487,
      "ĠNHI": 6488,
      "ĠNHÃĵM": 6489,
      "aina": 6490,
      "Ġbody": 6491,
      "Ġvá»¥ng": 6492,
      "ĠHoÃłi": 6493,
      "ĠHoÃłn": 6494,
      "ĠHoáº·c": 6495,
      "esia": 6496,
      "esiden": 6497,
      "esla": 6498,
      "TrÃªn": 6499,
      "TrÃ¬nh": 6500,
      "TrÆ°á»Ŀng": 6501,
      "Truyá»ģn": 6502,
      "ÃĬNH": 6503,
      "Ġngá»«": 6504,
      "ĠThá»ķ": 6505,
      "ĠThá»±c": 6506,
      "ĠthÃªu": 6507,
      "appy": 6508,
      "CHá»": 6509,
      "CHAT": 6510,
      "etr": 6511,
      "Æ¯á»ł": 6512,
      "Ġbuá»ĵi": 6513,
      "Ġbuá»ĵng": 6514,
      "ĠNGHá»": 6515,
      "ĠNGOáºłI": 6516,
      "Ġxuong": 6517,
      "hehe": 6518,
      "kkk": 6519,
      "ĠhÃ£m": 6520,
      "ĠhÃ£o": 6521,
      "ĠQUOC": 6522,
      "ÃĵI": 6523,
      "ĠHá»ĩ": 6524,
      "ĠHá»ĸ": 6525,
      "ĠHá»ĺI": 6526,
      "reens": 6527,
      "Ġsug": 6528,
      "Ġsupp": 6529,
      "ĠCSBV": 6530,
      "áº¤M": 6531,
      "ĠVietlot": 6532,
      "ĠPHAI": 6533,
      "ĠPHÆ¯ÆłNG": 6534,
      "ĠPHá»¦": 6535,
      "ĠPHáº¢N": 6536,
      "Ġtrá»£n": 6537,
      "Ġduoi": 6538,
      "Ġduá»ĩ": 6539,
      "Tho": 6540,
      "Thoi": 6541,
      "ThÃłnh": 6542,
      "ĠOr": 6543,
      "ĠOng": 6544,
      "ĠthoÃ¡i": 6545,
      "ĠmÃ´m": 6546,
      "ĠnghiÃªp": 6547,
      "ĠVá»Ģ": 6548,
      "ĠVá»«a": 6549,
      "ĠVá»ĩn": 6550,
      "ĠtÃ¹y": 6551,
      "ÄĲá»ģ": 6552,
      "ÄĲá»©ng": 6553,
      "ÄĲá»©a": 6554,
      "ory": 6555,
      "iti": 6556,
      "Ġxá»ī": 6557,
      "Ġxá»ĭt": 6558,
      "ĠMá»ĺT": 6559,
      "ĠKá»ĥ": 6560,
      "ĠYear": 6561,
      "ĠYOU": 6562,
      "ĠYáº¾U": 6563,
      "Ġkháº¯c": 6564,
      "Ġrá»Ľt": 6565,
      "Ġrá»§i": 6566,
      "ĠVina": 6567,
      "ĠMyMy": 6568,
      "QuÃ½": 6569,
      "inger": 6570,
      "Ġcá»ĳc": 6571,
      "Ġear": 6572,
      "ĠhÃ³i": 6573,
      "ĠhÃ³t": 6574,
      "Tá»ª": 6575,
      "Tá»ĩ": 6576,
      "Tá»ķ": 6577,
      "Ġmuá»Ļi": 6578,
      "Ġmuá»Ĺi": 6579,
      "Ġvietcong": 6580,
      "ĠLá»ª": 6581,
      "ĠLá»ĺ": 6582,
      "ĠLá»Ŀi": 6583,
      "ĠzáºŃy": 6584,
      "Ġzel": 6585,
      "Ġhaha": 6586,
      "ĠxÃ£y": 6587,
      "ĠThÃ¢n": 6588,
      "ĠThÃ´i": 6589,
      "ĠBá»ĺ": 6590,
      "ĠBá»ķn": 6591,
      "ĠEngli": 6592,
      "ĠvideÏĥ": 6593,
      "Chá»§": 6594,
      "acho": 6595,
      "ĠcÆ°t": 6596,
      "ÃļC": 6597,
      "Ġinbox": 6598,
      "ĠÃĤM": 6599,
      "ĠCHá»¨C": 6600,
      "uber": 6601,
      "à¸Ĺh": 6602,
      "ĠTháº§n": 6603,
      "Nhat": 6604,
      "Ġmá»ĵi": 6605,
      "Ġmá»ĵn": 6606,
      "ĠVIÃĬT": 6607,
      "Cá»ķ": 6608,
      "Cá»¥c": 6609,
      "ĠVÃĢNG": 6610,
      "NhÃ¢p": 6611,
      "Ġtanda": 6612,
      "Iáº¾M": 6613,
      "Iáº¾U": 6614,
      "Vá»ģ": 6615,
      "Vá»ĭt": 6616,
      "ĠTRá»ĺ": 6617,
      "Ġjob": 6618,
      "ĠKhuyáº¿n": 6619,
      "tham": 6620,
      "theo": 6621,
      "trong": 6622,
      "ĠCháº¡y": 6623,
      "giÄĥc": 6624,
      "ppe": 6625,
      "áº®P": 6626,
      "ĠlÃ¡p": 6627,
      "Ġback": 6628,
      "ĠNháºŃp": 6629,
      "Giao": 6630,
      "Giáº£i": 6631,
      "Ġtiktok": 6632,
      "Ġcome": 6633,
      "ĠvuÃ´ng": 6634,
      "ĠchÆ°c": 6635,
      "ĠchÆ°i": 6636,
      "ĠhÃłáĺīg": 6637,
      "ĠIndon": 6638,
      "ĠVietnamese": 6639,
      "Cháº³ng": 6640,
      "outh": 6641,
      "upid": 6642,
      "Ġkenh": 6643,
      "ĠCTKM": 6644,
      "ĠCUOP": 6645,
      "ĠThuá»·": 6646,
      "ĠUSA": 6647,
      "LuÃ´n": 6648,
      "ĠtÃ´t": 6649,
      "Ġbenh": 6650,
      "Thá»§": 6651,
      "Thá»±c": 6652,
      "ĠDá»ĭch": 6653,
      "ĠKhoÃ¡n": 6654,
      "Ãīp": 6655,
      "Ġtuyet": 6656,
      "ĠCáº¢NH": 6657,
      "ĠMike": 6658,
      "ï¸ıï¸ıï¸ıï¸ı": 6659,
      "ÃĴNG": 6660,
      "ĠÆłN": 6661,
      "ĠÆłn": 6662,
      "Ġvinf": 6663,
      "ĠmÃ£n": 6664,
      "Ġshop": 6665,
      "Ġhuá»ĩ": 6666,
      "ĠhÃºp": 6667,
      "oss": 6668,
      "ĠbÃ¹n": 6669,
      "Ġstream": 6670,
      "ĠTinder": 6671,
      "ĠHOÃĢ": 6672,
      "ĠHOÃĢN": 6673,
      "ĠQUYEN": 6674,
      "ĠQUYáº¾T": 6675,
      "ChÃ¡n": 6676,
      "ChÃ¡nh": 6677,
      "Doanh": 6678,
      "Hoang": 6679,
      "HoÃłng": 6680,
      "ĠhÃ¡n": 6681,
      "Ġukraina": 6682,
      "ĠCalifornia": 6683,
      "egreens": 6684,
      "ĠRá»«ng": 6685,
      "VIDeO": 6686,
      "tá»«": 6687,
      "tá»±": 6688,
      "ĠNhá»Ŀ": 6689,
      "ĠNhá»©t": 6690,
      "ĠHaiiti": 6691,
      "Ġcommie": 6692,
      "APH": 6693,
      "Phim": 6694,
      "á»ĮNG": 6695,
      "ĠChÃ¡u": 6696,
      "ĠBIET": 6697,
      "ĠLiber": 6698,
      "ĠLiby": 6699,
      "Ġhomeless": 6700,
      "Phone": 6701,
      "Ġace": 6702,
      "á»Ľp": 6703,
      "Ġnato": 6704,
      "Ġviec": 6705,
      "NguoiYeu": 6706,
      "ĠCHÃļA": 6707,
      "ĠCHÃļNG": 6708,
      "ĠOne": 6709,
      "ĠOnline": 6710,
      "BOO": 6711,
      "ips": 6712,
      "ĠÃĶi": 6713,
      "ĠÄĳÃ¨n": 6714,
      "Ġváº¹m": 6715,
      "Ġgood": 6716,
      "Ġsyria": 6717,
      "ĠCCC": 6718,
      "ĠkhÃ´áĺīg": 6719,
      "ĠnhÃºm": 6720,
      "Ġkhoing": 6721,
      "umaHuy": 6722,
      "chinh": 6723,
      "ĠTPHCM": 6724,
      "ĠGHÃīT": 6725,
      "ĠNghá»ĩ": 6726,
      "âĢįï¸ıâĢįï¸ıâĢįï¸ıâĢįï¸ıâĢįï¸ıâĢįï¸ıâĢįï¸ıâĢįï¸ı": 6727,
      "Khá»ķ": 6728,
      "NuocViet": 6729,
      "PhÃ¡t": 6730,
      "cá»§a": 6731,
      "nhÃ¢n": 6732,
      "nhÃ¬n": 6733,
      "thing": 6734,
      "ĠÃĲ": 6735,
      "ĠcccÄĳ": 6736,
      "ĠTIáº¾NG": 6737,
      "ĠMAGA": 6738,
      "Ġá»¦ng": 6739,
      "ĠKhÃŃ": 6740,
      "Ġfacebluesmilingfacebluesmilingfacebluesmiling": 6741,
      "Tháº§y": 6742,
      "VinhNguyen": 6743,
      "port": 6744,
      "Ð¸g": 6745,
      "ĠåİŁ": 6746,
      "Ġlá»£n": 6747,
      "ĠBáºłNn": 6748,
      "ĠISRAEL": 6749,
      "Chuáº©n": 6750,
      "Ġwebsite": 6751,
      "ĠLá»ļN": 6752,
      "ĠLá»ļP": 6753,
      "Ġhihihi": 6754,
      "chÃ¡u": 6755,
      "very": 6756,
      "ÃĪO": 6757,
      "ØªØ": 6758,
      "ĠÆ¯u": 6759,
      "ĠkÃ¨m": 6760,
      "ĠTaiwan": 6761,
      "ĠCIips": 6762,
      "ĠMáºłNG": 6763,
      "ĠHihi": 6764,
      "ĠXá»¬": 6765,
      "issinger": 6766,
      "ĠPHÃģP": 6767,
      "ĠFULLHd": 6768,
      "ĠVIDeO": 6769,
      "ĠAmerica": 6770,
      "ĠCrimea": 6771,
      "Ġweapons": 6772,
      "ThiÃªn": 6773,
      "ggy": 6774,
      "mosa": 6775,
      "Ġtráº½n": 6776,
      "ĠTelegram": 6777,
      "ĠCashbag": 6778,
      "Ġdollars": 6779,
      "Ġtiáº¿áĺīgTiáº¿p": 6780,
      "arthy": 6781,
      "ĠFacebook": 6782,
      "ĠThÃªm": 6783,
      "ĠUKRN": 6784,
      "ĠVIETTELPAY": 6785,
      "EBOOK": 6786,
      "GRAM": 6787,
      "YORK": 6788,
      "xaren": 6789,
      "ĠÃįch": 6790,
      "ĠtiÃªp": 6791,
      "ĠchÄ©a": 6792,
      "ĠTexas": 6793,
      "Ġpeople": 6794,
      "ĠCÄĲCS": 6795,
      "ĠCastro": 6796,
      "ĠCÆ¯á»ļP": 6797,
      "ĠNEWYORK": 6798,
      "ĠHitler": 6799,
      "ĠBÄĲS": 6800,
      "ĠBAMBOO": 6801,
      "ĠBlinken": 6802,
      "ĠPlus": 6803,
      "ĠPsiphon": 6804,
      "ĠLÃĥNH": 6805,
      "ĠDavid": 6806,
      "ĠDzá»Ŀm": 6807,
      "ĠDCNL": 6808,
      "ĠKTTK": 6809,
      "ĠQatar": 6810,
      "ĠCHÃģU": 6811,
      "ĠCHUYá»ĨN": 6812,
      "ĠPhilippine": 6813,
      "ĠROUGH": 6814,
      "ĠTRUYá»ĢN": 6815,
      "ĠFACEBOOK": 6816,
      "esident": 6817,
      "ĠNGHá»Ĩ": 6818,
      "ĠVietlott": 6819,
      "ĠEnglish": 6820,
      "ĠIndonesia": 6821,
      "egreensmiling": 6822,
      "ĠLiberia": 6823,
      "NguoiYeuNuocViet": 6824,
      "AD": 6825,
      "AE": 6826,
      "AV": 6827,
      "All": 6828,
      "ARA": 6829,
      "ASA": 6830,
      "ARE": 6831,
      "AKE": 6832,
      "Be": 6833,
      "Báº£": 6834,
      "BÃªn": 6835,
      "Bay": 6836,
      "Báº¥t": 6837,
      "BÃ²": 6838,
      "BÃłi": 6839,
      "BiÃªn": 6840,
      "Biá»ĥu": 6841,
      "Biden": 6842,
      "BAC": 6843,
      "BUM": 6844,
      "BuÃ´n": 6845,
      "CU": 6846,
      "CÆ¡": 6847,
      "Cong": 6848,
      "CÆ°á»Ŀi": 6849,
      "Cáº¯t": 6850,
      "Cáº¥m": 6851,
      "CÆłN": 6852,
      "Cáº¢M": 6853,
      "CÃģCH": 6854,
      "Carthy": 6855,
      "DD": 6856,
      "DM": 6857,
      "Dm": 6858,
      "Dat": 6859,
      "DBAC": 6860,
      "EC": 6861,
      "EE": 6862,
      "EP": 6863,
      "ER": 6864,
      "ECHAT": 6865,
      "EDBAC": 6866,
      "FM": 6867,
      "FR": 6868,
      "For": 6869,
      "Fit": 6870,
      "FULL": 6871,
      "GL": 6872,
      "GT": 6873,
      "Gon": 6874,
      "Gia": 6875,
      "Good": 6876,
      "He": 6877,
      "Há»ĵ": 6878,
      "Hung": 6879,
      "HÃłng": 6880,
      "Hiá»ĩu": 6881,
      "Há»Ļi": 6882,
      "Hien": 6883,
      "HÃ³ng": 6884,
      "HáºŃu": 6885,
      "Hack": 6886,
      "HOAN": 6887,
      "HXH": 6888,
      "IA": 6889,
      "IB": 6890,
      "Ib": 6891,
      "ING": 6892,
      "Iran": 6893,
      "IÃĬM": 6894,
      "Kg": 6895,
      "KÃŃ": 6896,
      "Kiáº¿n": 6897,
      "Kiá»ĥu": 6898,
      "KLÄĲ": 6899,
      "KhÃ³": 6900,
      "KÃĬNH": 6901,
      "Li": 6902,
      "Ly": 6903,
      "Long": 6904,
      "Lanh": 6905,
      "LÃ¡o": 6906,
      "LáºŃp": 6907,
      "Lá»Ŀi": 6908,
      "Loáº¡i": 6909,
      "Lá»§": 6910,
      "LHQ": 6911,
      "Lá»Ľp": 6912,
      "MI": 6913,
      "Mi": 6914,
      "Mn": 6915,
      "MÃł": 6916,
      "MÃ¡": 6917,
      "Máº¥t": 6918,
      "MÃ´i": 6919,
      "Máº¹": 6920,
      "MÃºp": 6921,
      "MÆ°á»£n": 6922,
      "Máº¾N": 6923,
      "MÃ¡y": 6924,
      "Má»Ł": 6925,
      "Má»Ĺi": 6926,
      "MBac": 6927,
      "NÃ´": 6928,
      "NÆ¡i": 6929,
      "NIS": 6930,
      "OB": 6931,
      "OS": 6932,
      "Oi": 6933,
      "OME": 6934,
      "PP": 6935,
      "Pn": 6936,
      "Phá»": 6937,
      "Phe": 6938,
      "POR": 6939,
      "PING": 6940,
      "QT": 6941,
      "Qt": 6942,
      "Quyáº¿t": 6943,
      "RW": 6944,
      "Ra": 6945,
      "RÃ¡c": 6946,
      "Ráº¯c": 6947,
      "RAI": 6948,
      "SE": 6949,
      "SH": 6950,
      "Si": 6951,
      "So": 6952,
      "St": 6953,
      "Su": 6954,
      "Sang": 6955,
      "Sum": 6956,
      "Soan": 6957,
      "SIN": 6958,
      "TM": 6959,
      "Ta": 6960,
      "To": 6961,
      "Ton": 6962,
      "Tau": 6963,
      "TiÃªn": 6964,
      "TÃło": 6965,
      "Táº£i": 6966,
      "TÃŃch": 6967,
      "ThÃ´ng": 6968,
      "Táº¥m": 6969,
      "Tá»ĳt": 6970,
      "TOP": 6971,
      "TmQ": 6972,
      "TÃ³m": 6973,
      "UN": 6974,
      "Uá»ĳng": 6975,
      "VF": 6976,
      "VM": 6977,
      "Van": 6978,
      "VÃ¢y": 6979,
      "Váº½": 6980,
      "Váº¿u": 6981,
      "VáºŃn": 6982,
      "Váº¯ng": 6983,
      "VOA": 6984,
      "VIá»ĨT": 6985,
      "Wh": 6986,
      "Web": 6987,
      "XÃ£": 6988,
      "XÃ¢m": 6989,
      "XÆ°a": 6990,
      "Xáº¡o": 6991,
      "You": 6992,
      "ZA": 6993,
      "ak": 6994,
      "ax": 6995,
      "bc": 6996,
      "bn": 6997,
      "bt": 6998,
      "bÃł": 6999,
      "bÃ³": 7000,
      "bang": 7001,
      "bÃ¢y": 7002,
      "biáº¿t": 7003,
      "bÃ©": 7004,
      "bui": 7005,
      "bÃªnh": 7006,
      "bom": 7007,
      "ca": 7008,
      "cÃ¡": 7009,
      "cai": 7010,
      "cháº£": 7011,
      "cua": 7012,
      "cÃ¡m": 7013,
      "cháº¿": 7014,
      "dam": 7015,
      "dai": 7016,
      "dung": 7017,
      "del": 7018,
      "dia": 7019,
      "eM": 7020,
      "ec": 7021,
      "ez": 7022,
      "ean": 7023,
      "eÉ´": 7024,
      "fg": 7025,
      "fi": 7026,
      "fu": 7027,
      "fer": 7028,
      "fic": 7029,
      "fly": 7030,
      "go": 7031,
      "gon": 7032,
      "gia": 7033,
      "gic": 7034,
      "hh": 7035,
      "hÃł": 7036,
      "hao": 7037,
      "hhaha": 7038,
      "io": 7039,
      "iat": 7040,
      "ile": 7041,
      "iktok": 7042,
      "ifer": 7043,
      "jh": 7044,
      "jj": 7045,
      "jet": 7046,
      "jnk": 7047,
      "km": 7048,
      "ku": 7049,
      "ká»": 7050,
      "káº¿t": 7051,
      "ká»³": 7052,
      "lÃªn": 7053,
      "lam": 7054,
      "lai": 7055,
      "láº¡i": 7056,
      "lon": 7057,
      "lÅ©": 7058,
      "len": 7059,
      "luc": 7060,
      "lÃºc": 7061,
      "les": 7062,
      "less": 7063,
      "lá»§": 7064,
      "my": 7065,
      "miá»ģn": 7066,
      "muá»ĳn": 7067,
      "med": 7068,
      "muÃ´n": 7069,
      "ni": 7070,
      "no": 7071,
      "nhá»": 7072,
      "nen": 7073,
      "nÃªu": 7074,
      "nÃ¢ng": 7075,
      "náº±m": 7076,
      "now": 7077,
      "nChÃ¡": 7078,
      "nZalo": 7079,
      "nGiáº¥y": 7080,
      "oy": 7081,
      "oai": 7082,
      "ost": 7083,
      "oáĺī": 7084,
      "oom": 7085,
      "oxin": 7086,
      "pl": 7087,
      "pt": 7088,
      "pháº£": 7089,
      "pen": 7090,
      "phan": 7091,
      "pol": 7092,
      "pers": 7093,
      "phim": 7094,
      "roi": 7095,
      "rá»ĵi": 7096,
      "rac": 7097,
      "rump": 7098,
      "rist": 7099,
      "rÎ±": 7100,
      "rry": 7101,
      "so": 7102,
      "sai": 7103,
      "sang": 7104,
      "sen": 7105,
      "sau": 7106,
      "ser": 7107,
      "sew": 7108,
      "tg": 7109,
      "thá»": 7110,
      "tÃªn": 7111,
      "tao": 7112,
      "tui": 7113,
      "thÃ´ng": 7114,
      "the": 7115,
      "ting": 7116,
      "tiáº¿ng": 7117,
      "tly": 7118,
      "ud": 7119,
      "uÃª": 7120,
      "uld": 7121,
      "vi": 7122,
      "vay": 7123,
      "vÃ¢y": 7124,
      "ven": 7125,
      "vie": 7126,
      "viet": 7127,
      "vit": 7128,
      "vil": 7129,
      "wh": 7130,
      "win": 7131,
      "wow": 7132,
      "xh": 7133,
      "yÃªu": 7134,
      "zz": 7135,
      "¢ng": 7136,
      "¤P": 7137,
      "¤c": 7138,
      "§ĺ": 7139,
      "§à¸Ĺ": 7140,
      "¨Ĥ": 7141,
      "¨ng": 7142,
      "ª¿": 7143,
      "°A": 7144,
      "±ÑĤ": 7145,
      "²Î¹": 7146,
      "²á´ı": 7147,
      "´t": 7148,
      "·c": 7149,
      "·t": 7150,
      "¸Ń": 7151,
      "¹m": 7152,
      "¹ck": 7153,
      "½n": 7154,
      "Ã¥": 7155,
      "Ã¼": 7156,
      "Ä«": 7157,
      "Ä©c": 7158,
      "Å«": 7159,
      "Ìģ": 7160,
      "Î½": 7161,
      "Ïĩ": 7162,
      "Ð²Î¹": 7163,
      "Ñħ": 7164,
      "Ñı": 7165,
      "Óİ": 7166,
      "Ø¡": 7167,
      "Ø§": 7168,
      "Ø©": 7169,
      "Ø®": 7170,
      "Ø¯": 7171,
      "Ø·": 7172,
      "Ùĥ": 7173,
      "ÙĦ": 7174,
      "ÙĪ": 7175,
      "ÙĬ": 7176,
      "ä¸Ń": 7177,
      "æ¨Ĥ": 7178,
      "èª¿": 7179,
      "ĠÎ": 7180,
      "ĠÃ¢": 7181,
      "ĠÃ¬": 7182,
      "Ġá»ĵ": 7183,
      "Ġinh": 7184,
      "Ġua": 7185,
      "Ġuá»ĳn": 7186,
      "Ġel": 7187,
      "ĠÃ¡t": 7188,
      "Ġáº¿t": 7189,
      "ĠiÃªu": 7190,
      "Ġáº§m": 7191,
      "Ġá»ĳi": 7192,
      "ĠÃºp": 7193,
      "Ġáº¡t": 7194,
      "ĠÆ¯ÆłNG": 7195,
      "ĠÊľá´": 7196,
      "Ġáº¦M": 7197,
      "ĠÃīp": 7198,
      "ĠÌģ": 7199,
      "ĠÏĩ": 7200,
      "ĠÐ²Î¹": 7201,
      "ĠÑħ": 7202,
      "Ġä¸Ń": 7203,
      "Ġæ¨Ĥ": 7204,
      "ĥng": 7205,
      "ħáĺī": 7206,
      "İI": 7207,
      "ĲI": 7208,
      "ĲĪ": 7209,
      "ĴN": 7210,
      "ĵi": 7211,
      "ķm": 7212,
      "ĸI": 7213,
      "Ľc": 7214,
      "Ŀn": 7215,
      "ŀI": 7216,
      "łÉª": 7217,
      "á»ĭ": 7218,
      "á»§a": 7219,
      "á»¥y": 7220,
      "ngÃły": 7221,
      "Ġtk": 7222,
      "Ġtem": 7223,
      "ĠtÃ¡i": 7224,
      "Ġtua": 7225,
      "ĠtÆ¡n": 7226,
      "Ġtáº¿n": 7227,
      "Ġtáº±ng": 7228,
      "ĠtÃ¡m": 7229,
      "Ġtáº¿t": 7230,
      "Ġtáº¥p": 7231,
      "ĠtÃ¨": 7232,
      "ĠtÃ©t": 7233,
      "ĠtiÃªt": 7234,
      "ĠtÄ©nh": 7235,
      "Ġcc": 7236,
      "ĠcÃ´i": 7237,
      "ĠcÃłn": 7238,
      "Ġcli": 7239,
      "ĠcÆ°a": 7240,
      "ĠcÄĳ": 7241,
      "Ġcáº¥n": 7242,
      "ĠcÆ°u": 7243,
      "ĠcÃ²i": 7244,
      "ĠcÆ°Æ¡i": 7245,
      "Ġcáº¡p": 7246,
      "ĠcÄĥc": 7247,
      "ĠcÆ°á»¡ng": 7248,
      "ĠcÃ¢p": 7249,
      "ĠcÄĥt": 7250,
      "ĠcÆ°á»¡i": 7251,
      "ĠcÄĥp": 7252,
      "ĠcÎ±Ð¼": 7253,
      "ĠcÐ½Î¹": 7254,
      "ĠÄı": 7255,
      "ĠÄĥng": 7256,
      "ĠnÆ°": 7257,
      "Ġnáº¡": 7258,
      "Ġnáº¡i": 7259,
      "Ġnang": 7260,
      "Ġná»ĵi": 7261,
      "ĠnÃ¢m": 7262,
      "Ġná»ĵng": 7263,
      "Ġnáº·c": 7264,
      "ĠnTr": 7265,
      "Ġnum": 7266,
      "Ġnáº¥m": 7267,
      "Ġnit": 7268,
      "ĠnÃºt": 7269,
      "Ġnáº¯ng": 7270,
      "ĠniÃªm": 7271,
      "ĠnZalo": 7272,
      "Ġntn": 7273,
      "ĠnNháºŃn": 7274,
      "ĠnHá»Ĺ": 7275,
      "Ġnick": 7276,
      "ĠnUy": 7277,
      "Ġnpt": 7278,
      "Ãłin": 7279,
      "Ãłch": 7280,
      "ĠÄĳk": 7281,
      "ĠÄĳÃ¬": 7282,
      "ĠÄĳÅ©": 7283,
      "ĠÄĳÃ¹": 7284,
      "ĠÄĳáº½": 7285,
      "ĠÄĳÃłnh": 7286,
      "ĠÄĳat": 7287,
      "ĠÄĳáº¯m": 7288,
      "ĠÄĳáº§m": 7289,
      "ĠÄĳáº¡ch": 7290,
      "ĠÄĳáº¯ng": 7291,
      "ĠÄĳeu": 7292,
      "ĠÄĳiá»ģm": 7293,
      "ĠÄĳáº¥ng": 7294,
      "hÃ¨o": 7295,
      "ĠlÆ°": 7296,
      "ĠlÃ¹": 7297,
      "ĠlÃªu": 7298,
      "Ġlac": 7299,
      "Ġlat": 7300,
      "Ġláº¹": 7301,
      "Ġláº¯t": 7302,
      "ĠlÄĥn": 7303,
      "Ġláº¿t": 7304,
      "ĠliÃªu": 7305,
      "ĠlÄĳ": 7306,
      "ĠlÃ¡nh": 7307,
      "ĠlÃ³c": 7308,
      "ĠlÃªnh": 7309,
      "ĠlÃ©t": 7310,
      "ĠliÃªng": 7311,
      "ĠlÆ°á»Ľi": 7312,
      "ĠlÃ¨o": 7313,
      "ĠlÃ©o": 7314,
      "ĠlÆ°á»£n": 7315,
      "Ġlone": 7316,
      "ĠlÃ¢p": 7317,
      "ĠlÆ°c": 7318,
      "Ġláº±n": 7319,
      "Ġlhq": 7320,
      "ĠvÃ³": 7321,
      "Ġváº¥t": 7322,
      "Ġváº·t": 7323,
      "Ġvut": 7324,
      "ĠvÃµ": 7325,
      "Ġváº¥p": 7326,
      "Ġvet": 7327,
      "Ġváº§y": 7328,
      "ĠvÃ¨": 7329,
      "ĠvÃªnh": 7330,
      "ĠvÃ²i": 7331,
      "Ġvuá»ĳt": 7332,
      "ĠvÎ¹": 7333,
      "ĠvÎ±": 7334,
      "ĠvÃ¡y": 7335,
      "ĠvÃ£ng": 7336,
      "Ġváº«y": 7337,
      "Ġvoucher": 7338,
      "Ġms": 7339,
      "ĠmÃ³": 7340,
      "ĠmÃ¡c": 7341,
      "Ġmao": 7342,
      "Ġmon": 7343,
      "Ġmen": 7344,
      "Ġmáº§n": 7345,
      "Ġmiáº¿n": 7346,
      "Ġmáº¡o": 7347,
      "ĠmÆ°ng": 7348,
      "ĠmiÃªu": 7349,
      "ĠmÃºc": 7350,
      "ĠmÃ¡ch": 7351,
      "ĠmÃ²ng": 7352,
      "ĠmÃŃt": 7353,
      "Ġmine": 7354,
      "Ġmáº¡t": 7355,
      "Ġmá»ĳng": 7356,
      "ĠmÄĥc": 7357,
      "Ġmáº·n": 7358,
      "Ġmxh": 7359,
      "há»ģ": 7360,
      "há»ĳng": 7361,
      "há»ıi": 7362,
      "Ġby": 7363,
      "Ġbuy": 7364,
      "ĠbÃ¢u": 7365,
      "Ġbáº¥y": 7366,
      "Ġbua": 7367,
      "ĠbÃ´n": 7368,
      "Ġbáº»": 7369,
      "ĠbÃ¹ng": 7370,
      "Ġbiáº¿m": 7371,
      "ĠbiÃªu": 7372,
      "Ġbra": 7373,
      "Ġbet": 7374,
      "Ġbiá»ħn": 7375,
      "Ġbia": 7376,
      "ĠbÆ°u": 7377,
      "ĠbÃ¹i": 7378,
      "Ġbri": 7379,
      "Ġbáº«y": 7380,
      "Ġbalan": 7381,
      "Ġbbc": 7382,
      "ĠkÃªn": 7383,
      "Ġkai": 7384,
      "Ġkem": 7385,
      "Ġkáº½": 7386,
      "Ġká»ģn": 7387,
      "ĠkiÃªu": 7388,
      "Ġkieu": 7389,
      "Ġkit": 7390,
      "Ġkiá»ģm": 7391,
      "Ġkaraoke": 7392,
      "nhung": 7393,
      "háº§n": 7394,
      "ĠdÃ¢": 7395,
      "ĠdÃªn": 7396,
      "ĠdÃ´ng": 7397,
      "Ġdem": 7398,
      "Ġdiáº¿t": 7399,
      "ĠdÃ¢u": 7400,
      "ĠdÆ¡i": 7401,
      "ĠdÆ°a": 7402,
      "Ġdáº»": 7403,
      "Ġdáº¯t": 7404,
      "Ġdiet": 7405,
      "ĠdÃ¡t": 7406,
      "ĠdiÃªu": 7407,
      "Ġdiá»ĩu": 7408,
      "Ġdap": 7409,
      "Ġdiá»ĩm": 7410,
      "ĠdÃ³c": 7411,
      "ĠdÃ¢ng": 7412,
      "ĠdÃ´c": 7413,
      "ĠdáºŃm": 7414,
      "Ġdáº»o": 7415,
      "Ġdáº·m": 7416,
      "Ġdduoc": 7417,
      "Ã³à¸Ĺg": 7418,
      "Ġgd": 7419,
      "ĠgÃ¢n": 7420,
      "Ġgao": 7421,
      "ĠgÃ£": 7422,
      "ĠgÃ²": 7423,
      "Ġgáº¯t": 7424,
      "ĠgáºŃt": 7425,
      "Ġgáº·t": 7426,
      "Ġgáº¥u": 7427,
      "Ġgiáº¿m": 7428,
      "ĠgÃµ": 7429,
      "Ġgáº§y": 7430,
      "Ġgáº¡t": 7431,
      "Ġgom": 7432,
      "ĠgÃ´c": 7433,
      "Ġgiáº¿ng": 7434,
      "Ġgdp": 7435,
      "Ġgop": 7436,
      "ĠgÄĥp": 7437,
      "Ġgroup": 7438,
      "Ġsg": 7439,
      "Ġsem": 7440,
      "Ġsin": 7441,
      "ĠsÃ¢m": 7442,
      "Ġsáº¥y": 7443,
      "Ġsáº£o": 7444,
      "Ġsll": 7445,
      "Ġsáº¥p": 7446,
      "ĠsÃ²ng": 7447,
      "ĠsÃ³i": 7448,
      "Ġsieu": 7449,
      "ĠsÃ³c": 7450,
      "ĠsÃ©t": 7451,
      "ĠsÃ¢p": 7452,
      "Ġspe": 7453,
      "ĠsCor": 7454,
      "Ġngháº": 7455,
      "Ġngá»ĳ": 7456,
      "ĠngÆ°á»£": 7457,
      "Ġngoi": 7458,
      "ĠngÆ¡i": 7459,
      "Ġngáº¯c": 7460,
      "ĠngÆ°á»£ng": 7461,
      "Ġngháº¿": 7462,
      "Ġngáº©n": 7463,
      "Ġnguyen": 7464,
      "Ġngáº§m": 7465,
      "Ġngá»įc": 7466,
      "Ġngáº©ng": 7467,
      "Ġtron": 7468,
      "Ġtriáº¿t": 7469,
      "ĠtrÃ´n": 7470,
      "Ġtroc": 7471,
      "Ġtráº¥u": 7472,
      "ĠtriÃªu": 7473,
      "ĠtrÃºc": 7474,
      "Ġtriá»ħn": 7475,
      "ĠtrÃ³i": 7476,
      "Ġtrym": 7477,
      "Ãªc": 7478,
      "Ġchao": 7479,
      "Ġchen": 7480,
      "Ġchap": 7481,
      "ĠchÆ°á»Łi": 7482,
      "ĠTt": 7483,
      "ĠTá»ĳ": 7484,
      "ĠTong": 7485,
      "ĠTÃ¬nh": 7486,
      "ĠTÃŃ": 7487,
      "ĠTÆ°á»Ŀng": 7488,
      "ĠTáº§u": 7489,
      "ĠTiá»ĥu": 7490,
      "ĠTáº£o": 7491,
      "ĠTÃĶ": 7492,
      "ĠTÃ¡m": 7493,
      "ĠTÃŃch": 7494,
      "ĠTiÃªu": 7495,
      "ĠTáº¥n": 7496,
      "ĠTÆ°á»Ľng": 7497,
      "ĠTÃĤN": 7498,
      "ĠTÃ¢t": 7499,
      "ĠToan": 7500,
      "ĠTáº±m": 7501,
      "ĠTUNG": 7502,
      "ĠTTT": 7503,
      "ĠTINH": 7504,
      "ĠTET": 7505,
      "ĠTÃĶI": 7506,
      "ĠTEL": 7507,
      "ĠTÃĻ": 7508,
      "ĠTUá»": 7509,
      "ĠTÃ³m": 7510,
      "ĠTÃģT": 7511,
      "ĠTÃĤM": 7512,
      "ĠTáº¦M": 7513,
      "ĠTÆ¯ÆłI": 7514,
      "ĠTesla": 7515,
      "Ġhd": 7516,
      "Ġhs": 7517,
      "Ġht": 7518,
      "Ġhie": 7519,
      "Ġhup": 7520,
      "áº¿É´": 7521,
      "ĠÄĳá»ħ": 7522,
      "ĠÄĳá»ĩ": 7523,
      "ĠÄĳá»Ľn": 7524,
      "ĠlÃłn": 7525,
      "Ġpl": 7526,
      "ĠpÃ´": 7527,
      "ĠpÃ¡c": 7528,
      "Ġpit": 7529,
      "ĠpÏħ": 7530,
      "Ġpalestin": 7531,
      "ĠCB": 7532,
      "ĠCM": 7533,
      "ĠCÆ°": 7534,
      "ĠCÃ¡": 7535,
      "ĠCanh": 7536,
      "ĠCháº£": 7537,
      "ĠCoi": 7538,
      "ĠCÃ¢y": 7539,
      "ĠCÃ´n": 7540,
      "ĠCÆ°á»Ŀng": 7541,
      "ĠCÃ¡n": 7542,
      "ĠCac": 7543,
      "ĠCá»į": 7544,
      "ĠCáº¡o": 7545,
      "ĠCÃ¹ng": 7546,
      "ĠCáº£ng": 7547,
      "ĠCÃĢ": 7548,
      "ĠCáºŃn": 7549,
      "ĠCap": 7550,
      "ĠCÃ¡nh": 7551,
      "ĠCor": 7552,
      "ĠCONG": 7553,
      "ĠCuá»ĳi": 7554,
      "ĠCOI": 7555,
      "ĠCÃĤY": 7556,
      "ĠCty": 7557,
      "ĠCÆłN": 7558,
      "ĠCÅ¨NG": 7559,
      "ĠCáº¬P": 7560,
      "ĠCáº®P": 7561,
      "Ġnhay": 7562,
      "Ġnhao": 7563,
      "Ġnhang": 7564,
      "Ġnhiá»ĩt": 7565,
      "Ġnhoi": 7566,
      "ĠnhÆ°á»£c": 7567,
      "ĠnhÃłn": 7568,
      "ĠthÃŃt": 7569,
      "ĠthÃ¢u": 7570,
      "ĠthÃ©t": 7571,
      "ĠthÃ¨n": 7572,
      "Ġri": 7573,
      "ĠrÆ¡": 7574,
      "ĠrÃ¬": 7575,
      "Ġrong": 7576,
      "Ġrá»ĵ": 7577,
      "Ġrung": 7578,
      "ĠrÃ¬nh": 7579,
      "Ġrá»Ļ": 7580,
      "ĠrÃº": 7581,
      "Ġráº§n": 7582,
      "Ġriá»ĩp": 7583,
      "Ġráº§m": 7584,
      "Ġráº¯n": 7585,
      "Ġrá»ĳt": 7586,
      "Ġráº¡p": 7587,
      "ĠráºŃm": 7588,
      "ĠrÃ£nh": 7589,
      "Ġrá»Ńa": 7590,
      "ĠrÃ¨n": 7591,
      "ĠthÆ°á»Ľc": 7592,
      "Ġthap": 7593,
      "Ġthuyá»ģn": 7594,
      "Ġqt": 7595,
      "ĠqÃ¡": 7596,
      "Ġqit": 7597,
      "Ġqoan": 7598,
      "ĠqÃºa": 7599,
      "Ġcá»±": 7600,
      "Ġquáº¥t": 7601,
      "ĠquÃ¢y": 7602,
      "ĠquÄ©": 7603,
      "ĠquÃ¨": 7604,
      "Ġquáº¡t": 7605,
      "ĠquÃ©o": 7606,
      "Ġquáº¹t": 7607,
      "ĠNi": 7608,
      "ĠNk": 7609,
      "ĠNo": 7610,
      "ĠNÆ¡i": 7611,
      "ĠNÃły": 7612,
      "ĠNas": 7613,
      "ĠNor": 7614,
      "ĠNÃĬN": 7615,
      "ĠNeu": 7616,
      "ĠNÃ³ng": 7617,
      "ĠNANG": 7618,
      "ĠNob": 7619,
      "ĠNÃ£o": 7620,
      "ĠNINH": 7621,
      "ĠNÆłI": 7622,
      "ĠNáºµng": 7623,
      "ĠNáº¾U": 7624,
      "ĠNáº®NG": 7625,
      "ĠNPH": 7626,
      "ĠVK": 7627,
      "ĠVU": 7628,
      "ĠVa": 7629,
      "ĠVan": 7630,
      "ĠVÃłi": 7631,
      "ĠVáº¡n": 7632,
      "ĠVÆ¡i": 7633,
      "ĠVáº«n": 7634,
      "ĠVáº£i": 7635,
      "ĠVing": 7636,
      "ĠVol": 7637,
      "ĠVÆ°á»£t": 7638,
      "ĠVÆ¯A": 7639,
      "ĠVÄ¨": 7640,
      "ĠVTC": 7641,
      "ĠVoucher": 7642,
      "ĠVVo": 7643,
      "Ġxh": 7644,
      "Ġxang": 7645,
      "ĠxiÃªn": 7646,
      "ĠxáºŃp": 7647,
      "ĠxÃło": 7648,
      "ĠxÃŃch": 7649,
      "ĠxÆ°á»Ľng": 7650,
      "ĠxÃ³c": 7651,
      "Ġxoa": 7652,
      "Ġxá»Ļn": 7653,
      "ĠkhÃ´i": 7654,
      "Ġchá»Ń": 7655,
      "Ġchá»Ńa": 7656,
      "Ġchá»įi": 7657,
      "ana": 7658,
      "ans": 7659,
      "anv": 7660,
      "any": 7661,
      "anka": 7662,
      "ĠMY": 7663,
      "ĠMao": 7664,
      "ĠMÆ°á»Ŀi": 7665,
      "ĠMang": 7666,
      "ĠMÃ¢y": 7667,
      "ĠMat": 7668,
      "ĠMÃ¡t": 7669,
      "ĠMáº·t": 7670,
      "ĠMÃºc": 7671,
      "ĠMiá»ħn": 7672,
      "ĠMÃ³c": 7673,
      "ĠMá»ĳi": 7674,
      "ĠMÃļ": 7675,
      "ĠMiá»ĩng": 7676,
      "ĠMANG": 7677,
      "ĠMONG": 7678,
      "ĠMus": 7679,
      "ĠMad": 7680,
      "ĠMOI": 7681,
      "ĠMos": 7682,
      "ĠMÃĢY": 7683,
      "ĠMáº¦N": 7684,
      "ĠMáº¹o": 7685,
      "ĠMÃ¡u": 7686,
      "ĠMáº¤Y": 7687,
      "ĠMex": 7688,
      "ĠMXH": 7689,
      "ĠMáº½o": 7690,
      "ĠMFM": 7691,
      "Ġtá»§": 7692,
      "Ġtá»¥ng": 7693,
      "Ġtá»§i": 7694,
      "Ġtá»Łm": 7695,
      "ĠHG": 7696,
      "ĠHJ": 7697,
      "ĠHÃ´": 7698,
      "ĠHáº£": 7699,
      "ĠHoi": 7700,
      "ĠHÃłi": 7701,
      "ĠHÆ¡i": 7702,
      "ĠHiáº¿n": 7703,
      "ĠHoc": 7704,
      "ĠHer": 7705,
      "ĠHÆ°á»Łng": 7706,
      "ĠHÃĬ": 7707,
      "ĠHet": 7708,
      "ĠHiáº¿u": 7709,
      "ĠHá»ĳi": 7710,
      "ĠHÃºt": 7711,
      "ĠHÅ¨": 7712,
      "ĠHá»ĳt": 7713,
      "ĠHTT": 7714,
      "ĠHOI": 7715,
      "ĠHáº¬N": 7716,
      "ĠHáº¾T": 7717,
      "ĠHÆłN": 7718,
      "ĠHIá»ĨN": 7719,
      "ĠHOAN": 7720,
      "ĠHÆ¯á»ļNG": 7721,
      "ĠHÆ¯á»ŀNG": 7722,
      "ĠHappy": 7723,
      "Ġvá»§": 7724,
      "Ġvá»ķ": 7725,
      "ĠgiÃ¢y": 7726,
      "ĠgiÃłng": 7727,
      "Ġgieo": 7728,
      "Ġgiáº¯c": 7729,
      "ĠgiáºŃn": 7730,
      "Ġgiun": 7731,
      "Ġgive": 7732,
      "ĠgiÃ¹m": 7733,
      "ĠgiÃªt": 7734,
      "Ġgift": 7735,
      "Ġhá»§": 7736,
      "Ġhá»¥t": 7737,
      "Ġhá»±c": 7738,
      "Ġhá»Ļt": 7739,
      "Ġhá»ķn": 7740,
      "Ġhá»ĳc": 7741,
      "Ġhá»Ńu": 7742,
      "Æ°á»Ľt": 7743,
      "Ġtháº¡t": 7744,
      "Ġtháº¯p": 7745,
      "ĠtháºŃn": 7746,
      "Ġtháº¹n": 7747,
      "Ġtháº¡o": 7748,
      "Ġmá»¥": 7749,
      "Ġmá»§": 7750,
      "Ġmá»±c": 7751,
      "Ġmá»ıi": 7752,
      "Ġmá»įc": 7753,
      "Ġmá»¥a": 7754,
      "Ġchonh": 7755,
      "ĠchoÃ¡": 7756,
      "Ġbá»±c": 7757,
      "Ġbá»Ļt": 7758,
      "Ġbá»Ļi": 7759,
      "Ġbá»¥c": 7760,
      "Ġbá»ķn": 7761,
      "ĠchÃ²": 7762,
      "ĠchÃµ": 7763,
      "ĠchÃ©c": 7764,
      "ĠchÃ©p": 7765,
      "ĠchÃ¢t": 7766,
      "ĠchÃ´m": 7767,
      "ona": 7768,
      "ond": 7769,
      "Ġthá»±": 7770,
      "Ġthá»į": 7771,
      "Ġthá»ĳ": 7772,
      "Ġthá»īnh": 7773,
      "Ġthá»ĳt": 7774,
      "Ġthá»ĳn": 7775,
      "ĠnÃłn": 7776,
      "Äĥy": 7777,
      "ĠÄĲL": 7778,
      "ĠÄĲN": 7779,
      "ĠÄĲU": 7780,
      "ĠÄĲÃª": 7781,
      "ĠÄĲá»ĵ": 7782,
      "ĠÄĲÆ°Æ¡ng": 7783,
      "ĠÄĲÃ¹": 7784,
      "ĠÄĲÃ´i": 7785,
      "ĠÄĲÃłn": 7786,
      "ĠÄĲáº¥y": 7787,
      "ĠÄĲÃłng": 7788,
      "ĠÄĲÃło": 7789,
      "ĠÄĲáº£o": 7790,
      "ĠÄĲÃģ": 7791,
      "ĠÄĲáº¾": 7792,
      "ĠÄĲÃ³i": 7793,
      "ĠÄĲÃį": 7794,
      "ĠÄĲÆ¯Æł": 7795,
      "ĠÄĲiá»ģm": 7796,
      "ĠÄĲCS": 7797,
      "ĠÄĲÃĢO": 7798,
      "ĠÄĲÃĤY": 7799,
      "ĠÄĲÆłN": 7800,
      "ĠÄĲUA": 7801,
      "ĠÄĲÄ¨": 7802,
      "ĠÄĲáº¸": 7803,
      "ĠÄĲáº¥ng": 7804,
      "ĠÄĲáº¯k": 7805,
      "ango": 7806,
      "angNguyen": 7807,
      "ĠmÃłng": 7808,
      "ember": 7809,
      "inar": 7810,
      "ines": 7811,
      "inds": 7812,
      "Ġlá»¯": 7813,
      "Ġlá»ıi": 7814,
      "Ġlá»©a": 7815,
      "Ġlá»±u": 7816,
      "Ġlá»Ńng": 7817,
      "cha": 7818,
      "chau": 7819,
      "chÆ°a": 7820,
      "cheo": 7821,
      "chÃło": 7822,
      "chuyen": 7823,
      "ĠBR": 7824,
      "ĠBT": 7825,
      "ĠBo": 7826,
      "ĠBam": 7827,
      "ĠBuy": 7828,
      "ĠBong": 7829,
      "ĠBÃ¹": 7830,
      "ĠBÃŃ": 7831,
      "ĠBáº§u": 7832,
      "ĠBÃłnh": 7833,
      "ĠBÃ¡o": 7834,
      "ĠBÃĶ": 7835,
      "ĠBra": 7836,
      "ĠBÃ¡nh": 7837,
      "ĠBia": 7838,
      "ĠBáº¯n": 7839,
      "ĠBIá»ĨT": 7840,
      "ĠBÃ³ng": 7841,
      "ĠBáº£y": 7842,
      "ĠBON": 7843,
      "ĠBáº¢O": 7844,
      "ĠBÄĲT": 7845,
      "ĠBacho": 7846,
      "ĠBoss": 7847,
      "ĠdÃ¢nt": 7848,
      "ĠPe": 7849,
      "ĠPÃº": 7850,
      "ĠPhÃª": 7851,
      "ĠPew": 7852,
      "ĠLO": 7853,
      "ĠLX": 7854,
      "ĠLÃ³": 7855,
      "ĠLÅ©": 7856,
      "ĠLÃ¡i": 7857,
      "ĠLÃłng": 7858,
      "ĠLÃłnh": 7859,
      "ĠLÄĥng": 7860,
      "ĠLá»Ļi": 7861,
      "ĠLÃĬ": 7862,
      "ĠLÃ²ng": 7863,
      "ĠLáº§m": 7864,
      "ĠLÃ²i": 7865,
      "ĠLAI": 7866,
      "ĠLáº£nh": 7867,
      "ĠLÆ¯ÆłNG": 7868,
      "ĠLAN": 7869,
      "ĠLá»ĲC": 7870,
      "ĠLONG": 7871,
      "ĠLON": 7872,
      "ĠLá»įc": 7873,
      "ĠLáº¬T": 7874,
      "ĠLÄ©nh": 7875,
      "ĠLos": 7876,
      "ĠList": 7877,
      "ĠLÃ©n": 7878,
      "ĠLÃĤM": 7879,
      "ĠLVM": 7880,
      "ĠnhÆ°g": 7881,
      "Æ°Æ¡áĺīg": 7882,
      "ĠphÃ¢t": 7883,
      "Ġá»§": 7884,
      "Ġá»ª": 7885,
      "Ġá»ī": 7886,
      "Ġá»Ĭ": 7887,
      "Ġá»§a": 7888,
      "Ġá»ıi": 7889,
      "Ġá»§i": 7890,
      "Ġá»¨NG": 7891,
      "Ġá»¨ng": 7892,
      "Ġgiá»¥c": 7893,
      "Ġgiá»įt": 7894,
      "ĠDA": 7895,
      "ĠDU": 7896,
      "ĠDa": 7897,
      "ĠDao": 7898,
      "ĠDÆ°á»£c": 7899,
      "ĠDáº§n": 7900,
      "ĠDÃ¡m": 7901,
      "ĠDÃĬ": 7902,
      "ĠDAI": 7903,
      "ĠDAM": 7904,
      "ĠDÆ°á»Ľi": 7905,
      "ĠDÆ¯á»ļ": 7906,
      "ĠDINH": 7907,
      "ĠDANH": 7908,
      "ĠDiá»ħm": 7909,
      "ĠDÅ¨NG": 7910,
      "ĠDIá»ĨN": 7911,
      "ĠDÃĻNG": 7912,
      "ĠDÆ¯á»ł": 7913,
      "Ãºm": 7914,
      "enki": 7915,
      "ĠcháºŃt": 7916,
      "ĠcháºŃm": 7917,
      "Ġcháº§u": 7918,
      "ĠhÃ©": 7919,
      "ĠhÃŃ": 7920,
      "ĠhÃ¢n": 7921,
      "ĠhÃ£i": 7922,
      "ĠhÃ©n": 7923,
      "ĠnhÃ¡t": 7924,
      "ĠnhÃ¢p": 7925,
      "ĠnhÃ´t": 7926,
      "Ġsá»¥": 7927,
      "Ġsá»įt": 7928,
      "ĠTrQ": 7929,
      "ĠTre": 7930,
      "ĠTrÃ¬nh": 7931,
      "ĠTrÃŃ": 7932,
      "ĠTráºŃn": 7933,
      "ĠTruc": 7934,
      "ĠTriÃªu": 7935,
      "ĠTrÃ¡ch": 7936,
      "Ġnhá»įc": 7937,
      "ĠÄĳia": 7938,
      "ĠÄĳit": 7939,
      "ĠÄĳich": 7940,
      "Ġháº¥t": 7941,
      "Ġháº¥n": 7942,
      "ĠSC": 7943,
      "ĠSG": 7944,
      "ĠSP": 7945,
      "ĠSX": 7946,
      "ĠSh": 7947,
      "ĠSÃĶ": 7948,
      "ĠSiÃªu": 7949,
      "ĠSáº¢": 7950,
      "ĠSTB": 7951,
      "ĠSAC": 7952,
      "ĠSUC": 7953,
      "ĠSÃ¡u": 7954,
      "ĠSÃģT": 7955,
      "ĠSri": 7956,
      "ĠSÄĲT": 7957,
      "ĠSáº®C": 7958,
      "ĠSIÃĬU": 7959,
      "ĠSdt": 7960,
      "ĠSouth": 7961,
      "ĠSEC": 7962,
      "ĠSOME": 7963,
      "ĠSTOP": 7964,
      "ĠMá»¹Na": 7965,
      "ĠKÃ´ng": 7966,
      "ĠKiá»ĩt": 7967,
      "ĠKá»¹": 7968,
      "ĠKáº¿t": 7969,
      "ĠKiáº¿m": 7970,
      "ĠKÃĬ": 7971,
      "ĠKiá»ĩm": 7972,
      "ĠKkk": 7973,
      "ĠKia": 7974,
      "ĠKINH": 7975,
      "ĠKÃī": 7976,
      "ĠKáº¾T": 7977,
      "ĠKkkkk": 7978,
      "ĠKIá»ĤU": 7979,
      "ĠKute": 7980,
      "ĠKumaHuy": 7981,
      "ĠKissinger": 7982,
      "ĠKwh": 7983,
      "Ġnháº½": 7984,
      "Ġkhan": 7985,
      "Ġkham": 7986,
      "Ġkhao": 7987,
      "ĠkhÃłn": 7988,
      "Ġkhoc": 7989,
      "Ġkhui": 7990,
      "Ġkhiáº¿u": 7991,
      "Ġkhiá»ħ": 7992,
      "uad": 7993,
      "Æ¡nev": 7994,
      "lit": 7995,
      "lion": 7996,
      "lice": 7997,
      "ĠQÃº": 7998,
      "ĠQÄĲ": 7999,
      "Ġtrá»Ĺi": 8000,
      "ĠVNPT": 8001,
      "Ġhá»įng": 8002,
      "Ġluáº©n": 8003,
      "Ġrac": 8004,
      "ĠGÃ¬": 8005,
      "ĠGÃ²": 8006,
      "ĠGáº§n": 8007,
      "ĠGÃĢ": 8008,
      "ĠGÃĤY": 8009,
      "ĠGáº¦N": 8010,
      "ĠGAP": 8011,
      "ĠGÄĥp": 8012,
      "ĠGame": 8013,
      "ĠGOO": 8014,
      "ĠNgh": 8015,
      "ĠNgá»ĳ": 8016,
      "ĠNgÃ£": 8017,
      "ĠNgang": 8018,
      "ĠNgá»ĵi": 8019,
      "ĠNguyá»ĩn": 8020,
      "ĠNghiá»ĩn": 8021,
      "uyá»ħáĺī": 8022,
      "NGU": 8023,
      "Ġná»ı": 8024,
      "Ġná»ĩn": 8025,
      "Ã´ns": 8026,
      "Ġdá»ĥ": 8027,
      "Ġdá»Ĺ": 8028,
      "Ġdá»įn": 8029,
      "Ġdá»įng": 8030,
      "Ġdá»ķm": 8031,
      "ĠphÃ¡ch": 8032,
      "iel": 8033,
      "iers": 8034,
      "ĠAK": 8035,
      "ĠAt": 8036,
      "ĠAll": 8037,
      "ĠAut": 8038,
      "ĠAbe": 8039,
      "ĠAPP": 8040,
      "ĠAlice": 8041,
      "Ġpho": 8042,
      "Ġpham": 8043,
      "Ġphao": 8044,
      "ĠphÅ©": 8045,
      "Ġphang": 8046,
      "ĠphÃłng": 8047,
      "Ġphiá»ģn": 8048,
      "Ġphone": 8049,
      "ĠphÆ°Æ¡áĺīg": 8050,
      "Ġkog": 8051,
      "Ġkhá»©a": 8052,
      "Ġkhá»ĳc": 8053,
      "ÄĲI": 8054,
      "ÄĲM": 8055,
      "ÄĲa": 8056,
      "ÄĲu": 8057,
      "ÄĲÃ¡": 8058,
      "ÄĲai": 8059,
      "ÄĲang": 8060,
      "ÄĲung": 8061,
      "ÄĲÆ¡n": 8062,
      "ÄĲiá»ģu": 8063,
      "ÄĲÆ°á»Ŀng": 8064,
      "ÄĲáº¡o": 8065,
      "ÄĲá»Ļi": 8066,
      "ÄĲiá»ģm": 8067,
      "ÄĲá»įc": 8068,
      "ÄĲÃ£ng": 8069,
      "ÄĲCT": 8070,
      "ĠcÃ´nghÃ£y": 8071,
      "Ġdog": 8072,
      "Ġdoáº¡": 8073,
      "Ġdoggy": 8074,
      "Ġsaopháº£i": 8075,
      "Ġquyet": 8076,
      "Ġquyá»ĥn": 8077,
      "Ġtoang": 8078,
      "ĠquÃ¡t": 8079,
      "Ġtal": 8080,
      "Ġtap": 8081,
      "Ġemail": 8082,
      "ĠemchÃºc": 8083,
      "á»įÐ¸g": 8084,
      "ating": 8085,
      "ated": 8086,
      "athy": 8087,
      "atrump": 8088,
      "Ġtut": 8089,
      "ĠtuÃ´ng": 8090,
      "Ġtuáº¥n": 8091,
      "hÃºc": 8092,
      "ocket": 8093,
      "Ġpháº¿": 8094,
      "Ġpháº©y": 8095,
      "Ġpháº«u": 8096,
      "Ġthuáº©n": 8097,
      "ĠthuÃ¢t": 8098,
      "Ġlol": 8099,
      "ĠloÃ£ng": 8100,
      "Ġlogic": 8101,
      "Ġcoáĺī": 8102,
      "ĠThÃł": 8103,
      "ĠThang": 8104,
      "ĠThiá»ĩn": 8105,
      "ĠThÆ°á»Ŀng": 8106,
      "ĠThÄĥm": 8107,
      "ĠThÄĥng": 8108,
      "ĠThÆ°á»£ng": 8109,
      "ĠThiáº¿u": 8110,
      "ĠThun": 8111,
      "ĠThail": 8112,
      "Ġquá»ĳcn": 8113,
      "ĠnayClip": 8114,
      "ĠUng": 8115,
      "ĠUá»ĳng": 8116,
      "ÃĶC": 8117,
      "Ġak": 8118,
      "Ġar": 8119,
      "ĠaÄĳ": 8120,
      "Ġare": 8121,
      "Ġarou": 8122,
      "Ġafg": 8123,
      "ÃĢM": 8124,
      "Ġcuba": 8125,
      "stem": 8126,
      "NgÆ°": 8127,
      "Ngay": 8128,
      "NgÃ¢n": 8129,
      "Ngon": 8130,
      "NgÃ´n": 8131,
      "NghÄ©": 8132,
      "Ngá»¥y": 8133,
      "NghÃ¨o": 8134,
      "ĠÄĲá»¦": 8135,
      "ĠÄĲá»§": 8136,
      "ĠÄĲá»Ĵ": 8137,
      "ĠÄĲá»©ng": 8138,
      "ĠÄĲá»©a": 8139,
      "ĠÄĲá»ĢU": 8140,
      "ĠÄĲá»ľI": 8141,
      "ĠÄĲá»ĶI": 8142,
      "ĠÄĲá»ªáĺīg": 8143,
      "ĠÄĲá»ĬNH": 8144,
      "ĠÄĲá»ĲI": 8145,
      "ĠXi": 8146,
      "ĠXo": 8147,
      "ĠXÃį": 8148,
      "ĠXONG": 8149,
      "ĠXUNG": 8150,
      "ĠXÃĤU": 8151,
      "ĠXáº¤U": 8152,
      "ĠXPhÃº": 8153,
      "ĠXKLÄĲ": 8154,
      "ĠCHA": 8155,
      "ĠCHÆł": 8156,
      "ĠCHáº¬": 8157,
      "ĠCHÃĢO": 8158,
      "ĠCHáº¾T": 8159,
      "Ġcaf": 8160,
      "Ġcar": 8161,
      "eri": 8162,
      "ery": 8163,
      "ervic": 8164,
      "erans": 8165,
      "ĠTHA": 8166,
      "ĠTHÃĶNG": 8167,
      "ĠTHANG": 8168,
      "ĠTHá»¦": 8169,
      "ĠTHÃĬM": 8170,
      "ĠTHáº®NG": 8171,
      "Ġnguá»Ŀi": 8172,
      "Ġngupi": 8173,
      "uisew": 8174,
      "Ġháº¡m": 8175,
      "Ġháº¡ch": 8176,
      "Ġbaokáº¿t": 8177,
      "Ġgiapháº£": 8178,
      "ĠchiÃªm": 8179,
      "Ġout": 8180,
      "Ġoto": 8181,
      "Ġchá»§i": 8182,
      "Æ°ngÄĳ": 8183,
      "ĠthÃ¡o": 8184,
      "ĠthÃ¡p": 8185,
      "Ġká»ī": 8186,
      "Ġthis": 8187,
      "Ġthiu": 8188,
      "Ġthien": 8189,
      "ĠthiÃªu": 8190,
      "ĠQue": 8191,
      "ĠQuÃł": 8192,
      "ĠQuáº¿": 8193,
      "ĠQuáº£": 8194,
      "ĠQuá»¹": 8195,
      "ĠQuÃŃ": 8196,
      "ĠQuÃ´c": 8197,
      "NHA": 8198,
      "Ġfan": 8199,
      "Ġfuc": 8200,
      "Ġfast": 8201,
      "Ġfun": 8202,
      "Ġfamil": 8203,
      "Ġphá»©c": 8204,
      "Ġphá»ĵn": 8205,
      "ucThang": 8206,
      "ÃĤNG": 8207,
      "ĠTá»¤": 8208,
      "ĠTá»©": 8209,
      "ĠTá»İ": 8210,
      "ĠTá»Ĳ": 8211,
      "ĠTá»ľ": 8212,
      "ĠTá»ĭch": 8213,
      "ĠTá»ĭnh": 8214,
      "ĠTá»ĬCH": 8215,
      "ĠPhidel": 8216,
      "Ġtiáº¿ngPhi": 8217,
      "Ġtiáº¿ngchÃ¡u": 8218,
      "Ġtiáº¿ngThiÃªn": 8219,
      "Ġtiáº¿ngbÃ©": 8220,
      "ĠIx": 8221,
      "ĠIRáº¯c": 8222,
      "hÃ¡ng": 8223,
      "ales": 8224,
      "ĠRang": 8225,
      "ĠRau": 8226,
      "ĠRev": 8227,
      "áº©u": 8228,
      "ĠkhoÃ¡": 8229,
      "ĠkhoÃ¡i": 8230,
      "Ġviá»ĩcn": 8231,
      "Äĳa": 8232,
      "Äĳc": 8233,
      "Äĳu": 8234,
      "ÄĳÃ³": 8235,
      "ÄĳÃ´ng": 8236,
      "ÄĳÃ£": 8237,
      "Äĳinh": 8238,
      "Äĳiá»ĩn": 8239,
      "Äĳáº¿n": 8240,
      "Äĳáº£ng": 8241,
      "ÄĳáºŃp": 8242,
      "ÄĳÃ¡m": 8243,
      "Äĳá»ĵng": 8244,
      "Äĳuoc": 8245,
      "Äĳá»ķi": 8246,
      "ÄĳÃ¢t": 8247,
      "Äĳá»Ŀi": 8248,
      "Äĳá»įc": 8249,
      "ÄĳÆ°c": 8250,
      "ĠTRÆł": 8251,
      "ĠTREO": 8252,
      "ĠTRÆ¯á»ļC": 8253,
      "ĠTRáºº": 8254,
      "ĠTRÃĢO": 8255,
      "ĠTRÃģNH": 8256,
      "ĠTRÃļNG": 8257,
      "Ġmake": 8258,
      "áĺīk": 8259,
      "ĠÆ¡ic": 8260,
      "ars": 8261,
      "ĠChui": 8262,
      "ĠChrist": 8263,
      "Ġbá»ıà¸Ĺg": 8264,
      "Chac": 8265,
      "Chuong": 8266,
      "Ġchuan": 8267,
      "ĠchuÃ¢n": 8268,
      "ĠchuÃ´i": 8269,
      "Ġchuá»Ļc": 8270,
      "ĠchuÃ´t": 8271,
      "ĠgiÃ¡ng": 8272,
      "ĠFid": 8273,
      "ĠFun": 8274,
      "ĠFATA": 8275,
      "ĠFCP": 8276,
      "ĠFRE": 8277,
      "ĠFPT": 8278,
      "ĠFDI": 8279,
      "Ġbá»ĳi": 8280,
      "Ġcliphd": 8281,
      "ĠCá»¤C": 8282,
      "ĠCá»°C": 8283,
      "ĠGiÃ¡": 8284,
      "ĠGiÃ³": 8285,
      "ĠGiÃ¡m": 8286,
      "ĠGiáº£i": 8287,
      "ĠGiáº·c": 8288,
      "ĠGirl": 8289,
      "ĠGiÆ¡nev": 8290,
      "ĠNHA": 8291,
      "ĠNHáºł": 8292,
      "ĠNHAN": 8293,
      "ĠNHAU": 8294,
      "ĠNHIá»ĨM": 8295,
      "Iá»ĩt": 8296,
      "Ġdip": 8297,
      "Ġdis": 8298,
      "Ġmáº¥tn": 8299,
      "Ġum": 8300,
      "Ġuá»·": 8301,
      "Ġuá»ķng": 8302,
      "ashin": 8303,
      "ĠHom": 8304,
      "ĠHopp": 8305,
      "ĠHome": 8306,
      "ĠchÃ¡c": 8307,
      "esale": 8308,
      "esku": 8309,
      "ĠChÃ¢n": 8310,
      "Tri": 8311,
      "Tranh": 8312,
      "TrÃ²": 8313,
      "TrÃ¡i": 8314,
      "Tráº§n": 8315,
      "Tráº£i": 8316,
      "Trá»įng": 8317,
      "Trump": 8318,
      "Ġngá»Ľ": 8319,
      "Ġngá»«a": 8320,
      "Ġngá»±a": 8321,
      "ĠThá»¥c": 8322,
      "ĠThá»¥y": 8323,
      "Ġsoon": 8324,
      "Ġsold": 8325,
      "Ġsorry": 8326,
      "CHINH": 8327,
      "CHÃĢO": 8328,
      "CHUYÃĬN": 8329,
      "etine": 8330,
      "áº¢nh": 8331,
      "Ġmáº¹o": 8332,
      "Ġbaby": 8333,
      "ĠNhu": 8334,
      "ĠNhung": 8335,
      "ĠNhÃłn": 8336,
      "Æ¯á»Ľt": 8337,
      "Æ¯á»Ľc": 8338,
      "ĠNGÃĶ": 8339,
      "ĠNGUá»": 8340,
      "ĠNGÃĶN": 8341,
      "ĠNGÆ¯ÆłI": 8342,
      "isa": 8343,
      "idee": 8344,
      "Ġdec": 8345,
      "Ġxuan": 8346,
      "ĠxuÃ¢t": 8347,
      "Ġbank": 8348,
      "ĠhÃ£nh": 8349,
      "áº¾CH": 8350,
      "ĠQUÃĬ": 8351,
      "ĠQUáº¢": 8352,
      "ĠQUÃĤN": 8353,
      "ĠQUÃĬN": 8354,
      "ĠQUAY": 8355,
      "ĠQUáº¦N": 8356,
      "ÃĵNG": 8357,
      "ĠtÃ¢mnChÃ¡": 8358,
      "ĠHá»¦": 8359,
      "ĠHá»ĥ": 8360,
      "ĠHá»Į": 8361,
      "ĠHá»ĺ": 8362,
      "ĠHá»£i": 8363,
      "ĠHá»£p": 8364,
      "ĠHá»ĴNG": 8365,
      "ĠHá»¡i": 8366,
      "Ġnor": 8367,
      "Ġnow": 8368,
      "Ġnothing": 8369,
      "Ġsup": 8370,
      "Ġcá»ķng": 8371,
      "ĠCSK": 8372,
      "ĠCSGT": 8373,
      "Ġdá»¥ngn": 8374,
      "áº¤n": 8375,
      "ĠVietjet": 8376,
      "ĠPHI": 8377,
      "ĠPHU": 8378,
      "ĠPHá»": 8379,
      "ĠPHá»Ĳ": 8380,
      "ĠPHAN": 8381,
      "ĠPHUC": 8382,
      "ĠPHAP": 8383,
      "ĠPHáº¨": 8384,
      "ĠPHIáº¾U": 8385,
      "ĠPHÃĴNG": 8386,
      "Ġnghá»ĭch": 8387,
      "ĠphiÃªu": 8388,
      "Ġphilippines": 8389,
      "Ġtrá»£t": 8390,
      "ĠKHÃĵ": 8391,
      "ĠKHAI": 8392,
      "ĠKHOA": 8393,
      "ĠKHONG": 8394,
      "ThÆ¡": 8395,
      "Than": 8396,
      "Tham": 8397,
      "Thay": 8398,
      "ThÆ°Æ¡ng": 8399,
      "ThÆ°a": 8400,
      "ThÆ°á»Łng": 8401,
      "ThuÃª": 8402,
      "ĠOR": 8403,
      "ĠOf": 8404,
      "ĠOmen": 8405,
      "Ġthoat": 8406,
      "Ġthoáº£ng": 8407,
      "Ġwa": 8408,
      "Ġway": 8409,
      "Ġwhi": 8410,
      "Ġwar": 8411,
      "Ġwing": 8412,
      "Ġwhen": 8413,
      "Ġwont": 8414,
      "Ġwalk": 8415,
      "ĠÃ´t": 8416,
      "hop": 8417,
      "hoáº·c": 8418,
      "hoango": 8419,
      "ĠVá»Ĩ": 8420,
      "ĠVá»ĭ": 8421,
      "otw": 8422,
      "ÄĲá»Ŀi": 8423,
      "ĠmÃ¡yn": 8424,
      "á»ĲI": 8425,
      "ordan": 8426,
      "ĠChá»Ľ": 8427,
      "ĠChá»Ń": 8428,
      "ĠChá»«ng": 8429,
      "ĠChá»įn": 8430,
      "ĠchÃ³p": 8431,
      "Ġhuyáº¿t": 8432,
      "Ġxá»§a": 8433,
      "Ġxá»ĭn": 8434,
      "ĠMá»µ": 8435,
      "ĠMá»ī": 8436,
      "ĠMá»Ŀi": 8437,
      "ĠMá»Ĺi": 8438,
      "ĠMá»ªNG": 8439,
      "ĠKá»²": 8440,
      "ĠKá»¶": 8441,
      "ĠYÃĬN": 8442,
      "ĠGIáº¢": 8443,
      "ĠGIAM": 8444,
      "ĠGIáº¾T": 8445,
      "ĠGIÃĤY": 8446,
      "ĠGIáº¤Y": 8447,
      "Ġcame": 8448,
      "Ġkháº³ng": 8449,
      "Ġkháº¡c": 8450,
      "Ġkháº©y": 8451,
      "Ġrá»ı": 8452,
      "Ġrá»¥ng": 8453,
      "Ġrá»¥p": 8454,
      "Ġrá»©a": 8455,
      "ĠVinfas": 8456,
      "ĠVinashin": 8457,
      "ĠChim": 8458,
      "ĠChin": 8459,
      "ĠChiÃªu": 8460,
      "ĠChina": 8461,
      "QuÃª": 8462,
      "QuÃ©t": 8463,
      "QuangNguyen": 8464,
      "Ġex": 8465,
      "ĠNá»±c": 8466,
      "ĠNá»¯a": 8467,
      "ĠNá»ĢN": 8468,
      "Ġrun": 8469,
      "Ġruá»Ļng": 8470,
      "Tá»©c": 8471,
      "áº¬U": 8472,
      "Ġviettel": 8473,
      "ĠLá»«a": 8474,
      "ĠLá»ĬCH": 8475,
      "AMAS": 8476,
      "Ãįt": 8477,
      "ĠÄĳuá»£": 8478,
      "Ġza": 8479,
      "Ġzai": 8480,
      "ĠÄĳÃ´t": 8481,
      "Ġbir": 8482,
      "Ġseaf": 8483,
      "faceblu": 8484,
      "hanistan": 8485,
      "Å¨I": 8486,
      "ĠThÃŃ": 8487,
      "ĠThÃ¬n": 8488,
      "ĠBá»İ": 8489,
      "ĠBá»ı": 8490,
      "ĠBá»Ľt": 8491,
      "ĠBá»¡i": 8492,
      "ĠBá»ĮN": 8493,
      "ĠBá»ŀI": 8494,
      "ĠEX": 8495,
      "ĠEáĹ°": 8496,
      "ĠEyes": 8497,
      "AYS": 8498,
      "á´ĩ": 8499,
      "ĠcÆ°c": 8500,
      "ĠMaidan": 8501,
      "Ġnhá»Ľp": 8502,
      "ÃļP": 8503,
      "Ġï¸ıðŁħ±ï¸ı": 8504,
      "ĠDoanh": 8505,
      "ĠStop": 8506,
      "ĠStore": 8507,
      "Ġvideos": 8508,
      "ĠtÃŃm": 8509,
      "ĠCHá»ĬCH": 8510,
      "ĠCHá»ĮN": 8511,
      "ChÃºa": 8512,
      "Viá»ĩtNam": 8513,
      "Ġnup": 8514,
      "Ġnuoi": 8515,
      "ĠnuÃ³c": 8516,
      "Ġnuot": 8517,
      "Ġlià¸Ĺ": 8518,
      "Ġliáĺīk": 8519,
      "âĢįâĢį": 8520,
      "luÃ´n": 8521,
      "ubers": 8522,
      "Ġtraà¸Ĺg": 8523,
      "Ġnhuá»ĩ": 8524,
      "ice": 8525,
      "ico": 8526,
      "ict": 8527,
      "ĠTháº¡nh": 8528,
      "ĠNhÃ¬": 8529,
      "ĠNhÃ¢t": 8530,
      "ĠNhÃ¢p": 8531,
      "ĠhÃ²i": 8532,
      "ĠhÃ²m": 8533,
      "Nhai": 8534,
      "ola": 8535,
      "olina": 8536,
      "olFit": 8537,
      "TBT": 8538,
      "Ġland": 8539,
      "vnch": 8540,
      "Ġáĺīá»Ļi": 8541,
      "ĠZARA": 8542,
      "ĠZdung": 8543,
      "ĠVIC": 8544,
      "ĠVIN": 8545,
      "ĠVINH": 8546,
      "ĠVIáº¾T": 8547,
      "ĠSá»¢": 8548,
      "ĠSá»¨C": 8549,
      "Cá»Ŀ": 8550,
      "Cá»§a": 8551,
      "ĠÃģC": 8552,
      "ĠÃģo": 8553,
      "ĠÃģp": 8554,
      "Ġlinkfly": 8555,
      "Ġgá»¥c": 8556,
      "ĠVÃĢN": 8557,
      "NhÃ©t": 8558,
      "usd": 8559,
      "Ġháº¡nn": 8560,
      "Vá»£": 8561,
      "Ġiu": 8562,
      "Ġich": 8563,
      "Ġixaren": 8564,
      "Ġiwin": 8565,
      "Ġcheck": 8566,
      "Ġlá»ĩch": 8567,
      "ĠTRá»ľI": 8568,
      "Ġjo": 8569,
      "ĠKhu": 8570,
      "ĠKhong": 8571,
      "ĠKhen": 8572,
      "ĠvÃ¢yse": 8573,
      "Ġsongai": 8574,
      "ĠCoolFit": 8575,
      "trÃªn": 8576,
      "tran": 8577,
      "trÃ¢n": 8578,
      "trung": 8579,
      "trinh": 8580,
      "ĠWor": 8581,
      "ĠWASA": 8582,
      "ĠWinds": 8583,
      "ĠthÆ¡m": 8584,
      "ChÃ¹m": 8585,
      "ĠCuli": 8586,
      "Há»ĸ": 8587,
      "Há»£p": 8588,
      "Há»Ľt": 8589,
      "giÃ¡": 8590,
      "giong": 8591,
      "ppin": 8592,
      "rlanka": 8593,
      "áº®M": 8594,
      "ĠlÃ¡u": 8595,
      "Ġhiem": 8596,
      "ĠNháº¯n": 8597,
      "Ġkhuáº¥t": 8598,
      "Giáº·c": 8599,
      "ThÃ¢n": 8600,
      "É´Ð½": 8601,
      "Ġtiem": 8602,
      "Ġnghá»īa": 8603,
      "ĠAnton": 8604,
      "Ġcoming": 8605,
      "Ġcombat": 8606,
      "ĠÄĳáº¿ch": 8607,
      "ĠPhÃŃ": 8608,
      "ĠPhÃ³ng": 8609,
      "Ġphep": 8610,
      "Ġtiec": 8611,
      "Ġmenh": 8612,
      "ĠDOI": 8613,
      "ĠDOJ": 8614,
      "ĠÄĳÃ³nÃ³": 8615,
      "ĠInter": 8616,
      "ĠInbx": 8617,
      "ĠInbox": 8618,
      "outuber": 8619,
      "vvv": 8620,
      "ĠCÃģCH": 8621,
      "Ġthank": 8622,
      "Ġthanks": 8623,
      "VietHoang": 8624,
      "Ġbefore": 8625,
      "Ġkich": 8626,
      "ĠCALI": 8627,
      "ĠCASIN": 8628,
      "ĠNHá»¤C": 8629,
      "ALBUM": 8630,
      "Thá»ĥ": 8631,
      "Î¹á»Ľ": 8632,
      "Ïħll": 8633,
      "ĠdÆ°t": 8634,
      "Ġtrá»Ļn": 8635,
      "ĠTIÃĬN": 8636,
      "ĠTIKT": 8637,
      "ĠDá»±": 8638,
      "ĠKhoáº£ng": 8639,
      "ETRAI": 8640,
      "IDAPH": 8641,
      "ĠlÃŃu": 8642,
      "iá»ħu": 8643,
      "ĠCáº¢M": 8644,
      "ĠSHARE": 8645,
      "Äĳá»¥": 8646,
      "ewidee": 8647,
      "ope": 8648,
      "urt": 8649,
      "ury": 8650,
      "urqo": 8651,
      "Ġnhiu": 8652,
      "Ġnhiem": 8653,
      "ĠNgá»§": 8654,
      "ĠNgá»±a": 8655,
      "Ġukaina": 8656,
      "ĠÆłáĺī": 8657,
      "ĠLuu": 8658,
      "entus": 8659,
      "Ġyours": 8660,
      "ĠTHá»¨C": 8661,
      "Ġstill": 8662,
      "Ġstupid": 8663,
      "Ġstars": 8664,
      "ĠTag": 8665,
      "ĠTaxi": 8666,
      "Ġreco": 8667,
      "Ġrevie": 8668,
      "Tronghoango": 8669,
      "ChÃ¡y": 8670,
      "HoÃł": 8671,
      "HoÃłi": 8672,
      "HoKinh": 8673,
      "quay": 8674,
      "quÃ¢n": 8675,
      "ÊľÉª": 8676,
      "ĠnCÃ´ng": 8677,
      "ĠrÃ´id": 8678,
      "Ġchá»Ľp": 8679,
      "ĠDevil": 8680,
      "ĠhÃ¡i": 8681,
      "THUC": 8682,
      "THáº°NG": 8683,
      "THIá»ĤU": 8684,
      "thÃ¢y": 8685,
      "áº¶C": 8686,
      "Ġtep": 8687,
      "Ġteam": 8688,
      "ĠÄĳÄ©a": 8689,
      "Ġchiáº¿un": 8690,
      "ĠHUYEN": 8691,
      "ĠRá»ķ": 8692,
      "Vinfast": 8693,
      "VinFast": 8694,
      "kyou": 8695,
      "kyNguyen": 8696,
      "tá»ķ": 8697,
      "xhcnvn": 8698,
      "Ġáĺīgá»§": 8699,
      "Ġáĺīgoáĺī": 8700,
      "Ġáĺīguyá»ħáĺī": 8701,
      "Ġà¸Ĺay": 8702,
      "Ġà¸ĹhÃ©": 8703,
      "Ġà¸ĹÃ³à¸Ĺg": 8704,
      "Ġtruáº¥t": 8705,
      "ĠTÃĢU": 8706,
      "Ġhamac": 8707,
      "Ġquá»µ": 8708,
      "ĠNhá»Ľ": 8709,
      "ĠNhá»¥c": 8710,
      "ĠNhá»±t": 8711,
      "ĠNGHÄ¨": 8712,
      "ĠNGHIÃĬM": 8713,
      "Ġcommies": 8714,
      "Chinh": 8715,
      "China": 8716,
      "Phil": 8717,
      "rough": 8718,
      "Ġáº¤u": 8719,
      "Ġá´łÉª": 8720,
      "ĠáĹ°á»": 8721,
      "Ġtelesale": 8722,
      "ĠToÃł": 8723,
      "ĠCOC": 8724,
      "ĠCOVID": 8725,
      "ĠChÃ¡n": 8726,
      "ĠxoÃ¡y": 8727,
      "ĠBIEN": 8728,
      "ĠLike": 8729,
      "ĠnhÃ¡o": 8730,
      "ĠnhÃ¡nh": 8731,
      "ĠShoppe": 8732,
      "Ġhomong": 8733,
      "Ġdá»Łm": 8734,
      "Ġfacegreensmiling": 8735,
      "Ġhá»ĵngn": 8736,
      "Phong": 8737,
      "Phang": 8738,
      "Vnch": 8739,
      "chá»ĳng": 8740,
      "Ġáº¢NH": 8741,
      "ĠbÆ¡m": 8742,
      "ĠkÃŃn": 8743,
      "ĠSaiGon": 8744,
      "ĠKhá»ķ": 8745,
      "ĠKhá»ĳi": 8746,
      "ĠAIRW": 8747,
      "ĠAmen": 8748,
      "ĠQUÃģN": 8749,
      "ĠKHá»Ī": 8750,
      "ĠOntar": 8751,
      "BOX": 8752,
      "Bake": 8753,
      "Campuchia": 8754,
      "Khong": 8755,
      "bá»ĭ": 8756,
      "bá»ı": 8757,
      "bá»Łi": 8758,
      "daq": 8759,
      "ĠnBÃºn": 8760,
      "Ġváº¹t": 8761,
      "Ġgoogle": 8762,
      "ĠLUáº¬T": 8763,
      "ĠLUáº¬N": 8764,
      "ĠDICH": 8765,
      "ĠKhÃ¡c": 8766,
      "ĠGods": 8767,
      "ĠAlÃ´": 8768,
      "ĠXuáº¥t": 8769,
      "ĠCHIáº¾M": 8770,
      "ĠSHOPEE": 8771,
      "Bá»ı": 8772,
      "Bá»Łi": 8773,
      "Bá»Ľt": 8774,
      "iii": 8775,
      "â²©": 8776,
      "ĠbÃºn": 8777,
      "ĠNVC": 8778,
      "ĠGHTC": 8779,
      "erse": 8780,
      "ĠáĺīháºŃp": 8781,
      "ĠVIÃĬNn": 8782,
      "facebluesmilingfacebluesmilingfacebluesmiling": 8783,
      "lotte": 8784,
      "ĠTIáº¾P": 8785,
      "ĠHanoi": 8786,
      "ĠHÄĲBA": 8787,
      "ĠLoÃłi": 8788,
      "ĠLove": 8789,
      "Ġá»¦a": 8790,
      "ĠKhÃ³": 8791,
      "Ġvitinh": 8792,
      "ĠTHÃĢNG": 8793,
      "ĠPhillip": 8794,
      "ĠFEEDBAC": 8795,
      "ĠNGUOI": 8796,
      "Ġviews": 8797,
      "BAc": 8798,
      "Cuá»Ļc": 8799,
      "HoaNguyen": 8800,
      "LVM": 8801,
      "MER": 8802,
      "QUAN": 8803,
      "QUETRAI": 8804,
      "Tháº¥y": 8805,
      "VinhLe": 8806,
      "aaa": 8807,
      "land": 8808,
      "pham": 8809,
      "poration": 8810,
      "sá»±": 8811,
      "tháº¯ng": 8812,
      "tháº§y": 8813,
      "Ġáº¿ch": 8814,
      "ĠTUYEN": 8815,
      "Ġpris": 8816,
      "Ġlá»£Î¹": 8817,
      "ĠBeast": 8818,
      "ĠBuá»ķi": 8819,
      "ĠLIÃĬN": 8820,
      "ĠGá»ĮN": 8821,
      "ĠThank": 8822,
      "ĠThanks": 8823,
      "ĠThankyou": 8824,
      "ĠCHIEU": 8825,
      "ĠINST": 8826,
      "ĠINBOX": 8827,
      "Ġwebinar": 8828,
      "ĠKHá»İI": 8829,
      "ĠNewsom": 8830,
      "Dá»ĭch": 8831,
      "Má»¸": 8832,
      "Má»ħ": 8833,
      "STIN": 8834,
      "bank": 8835,
      "coÉ´É¢": 8836,
      "Ġáº»m": 8837,
      "á»³nh": 8838,
      "ĠnÄĲiá»ĥm": 8839,
      "ĠnÄĲÄĤNG": 8840,
      "hÃ¬áĺī": 8841,
      "ĠCarolina": 8842,
      "ĠxÃŃu": 8843,
      "ĠMcCarthy": 8844,
      "ĠMark": 8845,
      "ĠMáºłNH": 8846,
      "ĠHIÃĬM": 8847,
      "onturqo": 8848,
      "ĠÄĲÃĢI": 8849,
      "ĠPhá»¥c": 8850,
      "ĠSirlanka": 8851,
      "ĠGiá»Ľi": 8852,
      "ĠThoÃ¡t": 8853,
      "ĠCHECK": 8854,
      "ĠCá»¨T": 8855,
      "ĠCá»¨U": 8856,
      "ĠNGá»®": 8857,
      "ĠKHOáº¢N": 8858,
      "Ġworld": 8859,
      "ĠFULLHD": 8860,
      "ĠVIDEO": 8861,
      "handpinkwavinghandpinkwavinghandpinkwavinghandpinkwavinghandpinkwavinghandpinkwavinghandpinkwavinghandpinkwaving": 8862,
      "ĠAmerican": 8863,
      "Ġweaponry": 8864,
      "ĠZelenskyy": 8865,
      "KhÃ¡c": 8866,
      "Nhá»Ľ": 8867,
      "PhÃºt": 8868,
      "ction": 8869,
      "cuá»Ļc": 8870,
      "keting": 8871,
      "ĠÃ¹n": 8872,
      "Ġcncs": 8873,
      "Ġvfs": 8874,
      "Ġvvvv": 8875,
      "Ġkumahuy": 8876,
      "ĠTÃįN": 8877,
      "ĠTÃįCH": 8878,
      "ĠÄĳá»ĳp": 8879,
      "ĠVPN": 8880,
      "ĠLáºłY": 8881,
      "Ġkhuya": 8882,
      "ĠGDP": 8883,
      "Ġná»©oc": 8884,
      "Ġná»©Æ¡c": 8885,
      "ĠADN": 8886,
      "Ġagain": 8887,
      "ĠTRANGCHINH": 8888,
      "ĠFord": 8889,
      "Ġwant": 8890,
      "Ġwants": 8891,
      "ĠVá»ĬT": 8892,
      "Ġhahahaha": 8893,
      "ĠFULLhdem": 8894,
      "ĠFULLhdeM": 8895,
      "thanhtrÃ¢n": 8896,
      "Ġá´ĦÊľá´": 8897,
      "thanksdocthanksdocthanksdocthanksdocthanksdocthanksdoc": 8898,
      "Ð½Î¹áº¿É´": 8899,
      "â²ģâ²©": 8900,
      "Giá»ıi": 8901,
      "LOAI": 8902,
      "Lá»ĭch": 8903,
      "TRá»ĮNG": 8904,
      "TUBE": 8905,
      "bumcheo": 8906,
      "cacchau": 8907,
      "here": 8908,
      "nBáº±ng": 8909,
      "phÃ¡t": 8910,
      "rown": 8911,
      "taysai": 8912,
      "uventus": 8913,
      "vely": 8914,
      "vestream": 8915,
      "Ã¸ng": 8916,
      "Å¯Ã¸ng": 8917,
      "á¥±ÑĤ": 8918,
      "áĳ²á´ı": 8919,
      "Ġç§ĺ": 8920,
      "ĠÉ¢Î¹á»Ľ": 8921,
      "ĠÎ±Î¹": 8922,
      "ĠÑĤrÎ±": 8923,
      "ĩá´Ľ": 8924,
      "ĠÄĳá´ĢÉ´É¢": 8925,
      "Ġlá»ĳp": 8926,
      "Ġmicro": 8927,
      "Ġmobile": 8928,
      "Ġbuild": 8929,
      "ĠTDTV": 8930,
      "Ġpaletine": 8931,
      "Ġremember": 8932,
      "Ġchá»Ļm": 8933,
      "ĠMUÃĶN": 8934,
      "ĠHate": 8935,
      "ĠÄĲVH": 8936,
      "ĠBÃĢI": 8937,
      "ĠPKN": 8938,
      "ĠPresident": 8939,
      "ĠPALESTIN": 8940,
      "ĠLÄĲLÄĲ": 8941,
      "ĠLucifer": 8942,
      "ĠLazada": 8943,
      "ĠSplit": 8944,
      "ĠGAZA": 8945,
      "ĠUyÃªn": 8946,
      "ĠXUáº¤T": 8947,
      "ĠXraeo": 8948,
      "Ġanimals": 8949,
      "ĠCharlotte": 8950,
      "Ġngá»«i": 8951,
      "CHá»Ī": 8952,
      "Ġsuger": 8953,
      "Ġsuppor": 8954,
      "ĠYears": 8955,
      "ĠYOUTUBE": 8956,
      "ĠVinaPhone": 8957,
      "Ġearth": 8958,
      "ĠLá»ªA": 8959,
      "Ġzelesku": 8960,
      "NhatVinhLe": 8961,
      "ĠTRá»ĺM": 8962,
      "ĠLibya": 8963,
      "ĠCCCÄĲ": 8964,
      "ĠBáºłNnKÃĬNH": 8965,
      "ĠHihihi": 8966,
      "ĠFULLHdEM": 8967,
      "FROM": 8968,
      "Formosa": 8969,
      "HungH": 8970,
      "MBacHoKinh": 8971,
      "Phá»¥": 8972,
      "PORT": 8973,
      "Summer": 8974,
      "Website": 8975,
      "damh": 8976,
      "ká»ĥ": 8977,
      "luckyNguyen": 8978,
      "personturqo": 8979,
      "thá»Ŀi": 8980,
      "¹ckháº": 8981,
      "ĠÊľá´ĩá´Ľ": 8982,
      "ĠÐ²Î¹eÉ´": 8983,
      "ĠÑħÎ±Ð¼": 8984,
      "Ġclick": 8985,
      "ĠcÄĳcs": 8986,
      "ĠcÐ½Î¹Î±": 8987,
      "ĠnTruy": 8988,
      "Ġnumber": 8989,
      "ĠÄĳÃ¬n": 8990,
      "Ġveterans": 8991,
      "ĠvÎ¹á¥±ÑĤ": 8992,
      "ĠngÆ°á»£i": 8993,
      "ĠTELE": 8994,
      "Ġhiep": 8995,
      "Ġpitin": 8996,
      "ĠCÃĢNG": 8997,
      "ĠrÃ¬a": 8998,
      "ĠNasdaq": 8999,
      "ĠVingroup": 9000,
      "ĠMade": 9001,
      "ĠMexico": 9002,
      "ĠHTTT": 9003,
      "ĠÄĲÃįT": 9004,
      "ĠÄĲÆ¯ÆłC": 9005,
      "ĠÄĲáº¸P": 9006,
      "ĠLoship": 9007,
      "ĠDÆ¯á»ļI": 9008,
      "ĠDÆ¯á»łNG": 9009,
      "ĠTriÃªud": 9010,
      "ĠSTBN": 9011,
      "ĠKÃīM": 9012,
      "Ġkhiá»ħng": 9013,
      "ĠGOOGL": 9014,
      "ĠThailand": 9015,
      "Ġaround": 9016,
      "Ġafghanistan": 9017,
      "ĠXPhÃºc": 9018,
      "ĠCHáº¬M": 9019,
      "uisewaving": 9020,
      "Ġfamily": 9021,
      "ucThangNguyen": 9022,
      "ĠReverse": 9023,
      "ÄĳÆ°cthanhtrÃ¢n": 9024,
      "ĠFidel": 9025,
      "ĠFCPA": 9026,
      "ĠFREE": 9027,
      "ĠGiÆ¡nevÆ¡": 9028,
      "ĠHopper": 9029,
      "Ġsoldiers": 9030,
      "ĠNGUá»ĴN": 9031,
      "ĠtÃ¢mnChÃ¡t": 9032,
      "ĠPHáº¨M": 9033,
      "ĠÄĳuá»£c": 9034,
      "Ġseafood": 9035,
      "facebluewidee": 9036,
      "Ġlià¸Ĺk": 9037,
      "ĠWASAW": 9038,
      "ĠWindsor": 9039,
      "ĠInterpol": 9040,
      "ĠCASINO": 9041,
      "ĠTIKTOK": 9042,
      "IDAPHAT": 9043,
      "Ġreview": 9044,
      "ĠAIRWAYS": 9045,
      "ĠOntario": 9046,
      "ĠFEEDBACK": 9047,
      "QUETRAINHA": 9048,
      "ĠTRANGCHINHTHUC": 9049,
      "ĠÉ¢Î¹á»ĽÎ¹": 9050,
      "ĠÑĤrÎ±É´Ð½": 9051,
      "MBacHoKinhYeu": 9052,
      "personturqouisewaving": 9053,
      "ĠvÎ¹á¥±ÑĤcoÉ´É¢": 9054,
      "facebluewideeyes": 9055
    },
    "merges": [
      "á »",
      "á º",
      "n g",
      "Ġ t",
      "Ġ c",
      "Ġ Ä",
      "Ġ n",
      "Ã ł",
      "ĠÄ ĳ",
      "h Ã",
      "Ġ l",
      "Æ °",
      "Ġ v",
      "Ġ m",
      "h á»",
      "Ġ b",
      "Ġ k",
      "n h",
      "h áº",
      "Ã ¡",
      "i á»",
      "Æ° á»",
      "Ġ d",
      "Ã ³",
      "Ġ g",
      "Ġ s",
      "Ġ ng",
      "Ã ¢",
      "Ġt r",
      "Ã ª",
      "Ġc h",
      "Ġ T",
      "áº ¡",
      "Ġ h",
      "Ã ´",
      "áº ¿",
      "ĠÄĳ á»",
      "Ġl Ãł",
      "Ġ p",
      "Ġ C",
      "Ġn h",
      "Ġt hÃ",
      "áº ¥",
      "Ġ r",
      "Ġt h",
      "áº £",
      "Æ ¡",
      "Ġ q",
      "Ġc á»",
      "Ġq u",
      "Ġ N",
      "Ãª n",
      "Ġ V",
      "iá» ĩ",
      "Ġ x",
      "á» ĳ",
      "Ã ¬",
      "Ġk hÃ",
      "i áº¿",
      "Ŀ i",
      "Ġc há»",
      "a n",
      "Ġ M",
      "a m",
      "a y",
      "´ ng",
      "Ġc Ã³",
      "a i",
      "Ġv Ãł",
      "Ġt á»",
      "Ġ H",
      "Ġv á»",
      "Ġg i",
      "Ġ há»",
      "u y",
      "Ã¡ c",
      "Æ°á» Ľ",
      "Ġt háº",
      "o ng",
      "Ġm á»",
      "Ã¢ n",
      "ĠkhÃ ´ng",
      "Ġn Ã³",
      "Ľ i",
      "áº Ń",
      "ĠthÃ ¬",
      "áº¡ i",
      "a o",
      "Ġch o",
      "Ġb á»",
      "Ġc hÃ",
      "Æ°á» Ŀi",
      "§ a",
      "áº¥ t",
      "áº §",
      "Ġcá» §a",
      "Æ°á»Ľ c",
      "iá» ģ",
      "o n",
      "Å ©",
      "Ġt há»",
      "Ġn Ãł",
      "a nh",
      "Ä ĥ",
      "Ã´ ng",
      "ĠÄ Ĳ",
      "Ã £",
      "á» ĵ",
      "a ng",
      "Ã ²",
      "Ġm Ãł",
      "Ġng Æ°á»Ŀi",
      "h i",
      "iá»ĩ t",
      "Æ°á» £",
      "e m",
      "háº £",
      "i n",
      "Ġl á»",
      "c h",
      "Ġ B",
      "áº ¯",
      "Ġd Ã¢n",
      "u ng",
      "i nh",
      "Ġ P",
      "Ġ L",
      "o i",
      "Ġnh Æ°",
      "Ġn Æ°á»Ľc",
      "Æ° Æ¡",
      "Ġp hÃ",
      "Ġ á»",
      "Ã¬ nh",
      "ĠlÃł m",
      "Æ°á»£ c",
      "á» Ļ",
      "Ġg iá»",
      "Ġ D",
      "Å© ng",
      "Ã º",
      "á» ¹",
      "Ã¢ y",
      "u á»ĳ",
      "ĥ n",
      "e n",
      "Ġc Ã¡c",
      "Ġc háº",
      "háº£ i",
      "Ġ hÃ",
      "Æ°Æ¡ ng",
      "ĠÄĳ Æ°á»£c",
      "Ġn hÃ",
      "Ġs á»",
      "á»ĵ i",
      "ĠÄĳá» ĥ",
      "ĠT r",
      "iáº¿ t",
      "Ã¢ u",
      "a u",
      "Ġn há»",
      "Ãł i",
      "ĠÄĳ i",
      "Ġ háº",
      "Ã² n",
      "Ã ¹",
      "ĠnÃ³ i",
      "Ġ S",
      "Ã¢ m",
      "Ã¡ i",
      "áº¡ n",
      "ĠV iá»ĩt",
      "ĠM á»¹",
      "Ã Ń",
      "Ġc Å©ng",
      "± ng",
      "Ġc on",
      "Ã´ i",
      "Ġ K",
      "Ġg Ã¬",
      "ĠnÃł y",
      "Ãł n",
      "áº¥ y",
      "Ġn háº",
      "Ġp háº£i",
      "Ġk h",
      "Ġá» Ł",
      "ĠÄĳ Ã³",
      "u a",
      "Æ¡ n",
      "l i",
      "¢ n",
      "iá»ģ u",
      "Ġh o",
      "Ġr á»ĵi",
      "Ġ Q",
      "© c",
      "Ġtr á»",
      "i Ãªn",
      "ĠV N",
      "Ãł ng",
      "Ġhá» į",
      "Ġc áº£",
      "Ġl u",
      "ĠN am",
      "Ġvá» Ľi",
      "Ġr a",
      "Ġ G",
      "ĠN g",
      "uy á»",
      "N G",
      "áº ·",
      "Ġtr ong",
      "Æ¡ i",
      "ĠÄĳ Ã£",
      "iá»ģ n",
      "Ġng h",
      "áº§ n",
      "Ġn á»",
      "ĠnÃł o",
      "Ġbá» ĭ",
      "¯ ng",
      "Ġc Ã²n",
      "áºŃ y",
      "iáº¿ n",
      "Ń t",
      "Ã´ n",
      "Æ° a",
      "ĠÄ ĥn",
      "Æ°á» Ŀ",
      "li p",
      "ĳ ng",
      "iá»ĩ n",
      "Ġl áº¡i",
      "¿ t",
      "Æ°á»Ŀ ng",
      "Ġvá» ģ",
      "Ġd á»",
      "Ãª u",
      "ĠÄĳá» Ļ",
      "iá» ĥ",
      "áº£ n",
      "áº ½",
      "Ã¡ n",
      "áº§ u",
      "ĠphÃ ¡",
      "Ã ½",
      "i e",
      "Ń nh",
      "Ġ A",
      "Ġp h",
      "Ġx em",
      "Ġb iáº¿t",
      "¥ t",
      "ĠchÃ º",
      "Ãł nh",
      "e o",
      "ģ n",
      "áº¿ n",
      "± c",
      "Äĥ m",
      "Ġ anh",
      "Ġmá» Ľi",
      "Ä ©",
      "áº »",
      "Ġk o",
      "Ġk hi",
      "Ġ Ã´ng",
      "Ġk há»",
      "Ġtháº ¿",
      "Ġqu a",
      "a c",
      "Ä Ĳ",
      "Ġchá» ī",
      "ĠÄĳ Ã¢u",
      "Ġc Ã´ng",
      "Ļ t",
      "ĠvÃł o",
      "Ġt iá»ģn",
      "Ġnh iá»ģu",
      "Äĥ ng",
      "Ġtá» «",
      "Ġd o",
      "Ġs ao",
      "Ġqu y",
      "Ġ ai",
      "Ġt o",
      "Ġb áº¡n",
      "á»ĳ c",
      "´ i",
      "ĠÄĳ Ã¡",
      "Ġmá» Ļt",
      "ĠÄĳá» ĵ",
      "Ġh ay",
      "Ġnh Ãł",
      "Ġqu Ã¡",
      "uá»ĳ n",
      "Ġt a",
      "Ã¡ o",
      "Ãł y",
      "Ġnhá» ¯ng",
      "Ġc Ã¡i",
      "Ġ em",
      "ĠÄĳ áº¥t",
      "á» į",
      "Ġs áº½",
      "Ġt áº¡i",
      "Ġr áº¥t",
      "Ġv áºŃy",
      "áº¡ o",
      "Ã¹ ng",
      "ĠchÃ Ńnh",
      "a t",
      "Ġn Ãªn",
      "iá»ĥ u",
      "áº£ ng",
      "áºŃ p",
      "Ã ©",
      "ĠthÃ ´i",
      "Ġt u",
      "Ġm Ã¬nh",
      "hÃ º",
      "Ġl Ãªn",
      "Ġm uá»ĳn",
      "áº ¹",
      "Ġs á»ĳ",
      "Ġchá» ©",
      "ĠnhÃ ¢n",
      "ĠÄĳ áº¿n",
      "o c",
      "Ļ i",
      "Ġp háº",
      "Ġth u",
      "Ġgiá» Ŀ",
      "áº¿ u",
      "ĠÄĳá»ĵ ng",
      "Ġl o",
      "Ġ y",
      "ķ i",
      "¥ c",
      "Ġh Ãłng",
      "¥ y",
      "áº «",
      "Ãł o",
      "¯ a",
      "Ġt Ã´i",
      "Ġc o",
      "Ġt iáº¿",
      "Ġv Ã¬",
      "Ļ ng",
      "ĠkhÃ ¡",
      "ı i",
      "ĠT h",
      "áº£ o",
      "uy Ãªn",
      "Ġháº ¿t",
      "ĠÄĳ ang",
      "Ġqu á»ĳc",
      "ĠchÃº ng",
      "ĭ ch",
      "Ġcá» Ļng",
      "Ġn am",
      "Ġn ay",
      "ĠnhÆ° ng",
      "Ġ U",
      "áº¯ t",
      "Ġsá» ±",
      "Ã Ķ",
      "áºŃ t",
      "Ġn Äĥm",
      "Ġh Æ¡n",
      "Ġng Ãły",
      "Ãº ng",
      "Ġhá»į c",
      "E m",
      "Ġ a",
      "áº ±ng",
      "ĠÄĳ Ã¢y",
      "Äĥ n",
      "Ġgiá» Ľi",
      "Ġnháº ¥t",
      "Ã Ģ",
      "Ġc u",
      "s t",
      "Ġtá» ±",
      "Ġlu Ã´n",
      "áº« n",
      "Æ ¯",
      "Ġtháº ±ng",
      "Ġch iáº¿n",
      "ie t",
      "« ng",
      "N g",
      "uyá» ĩ",
      "e l",
      "ĠÄĲ á»",
      "áº¯ c",
      "Ġ X",
      "ĠÄĳ áº§u",
      "Ġd Ã¢m",
      "ĠC H",
      "į n",
      "Ġc a",
      "Ġv i",
      "e r",
      "áº¡ nh",
      "áºŃ n",
      "ĠT H",
      "Ġcá» ©",
      "Ġt in",
      "Ġv n",
      "Ġv Ã´",
      "Ġng ay",
      "Ġng o",
      "Æ°á» Ł",
      "Ġtr Ãªn",
      "Ġng u",
      "Ġt á»ĳ",
      "Ġqu an",
      "u i",
      "Ġháº ¡",
      "Ġb ao",
      "á» ģn",
      "Ġt Æ°",
      "Ġgi a",
      "Ã¡ m",
      "Ġch i",
      "Ġquy á»ģn",
      "ĠÄĳÃ¡ nh",
      "Æ°á»Ł ng",
      "³ ng",
      "ħ n",
      "Ã¡ t",
      "áº£ i",
      "Ġtháº ¥y",
      "Ġ o",
      "Ġthá» ĥ",
      "Ġmá» ¹",
      "Ġná» ¯a",
      "Ã ģ",
      "Ġtháº Ńt",
      "á»Ļ c",
      "l l",
      "Ġm ua",
      "Ġth eo",
      "Ġchá» §",
      "Ġchá» ĳng",
      "Ġnháº Ń",
      "Ġl a",
      "uá»ĳ c",
      "« a",
      "ĳ i",
      "Ġm inh",
      "Æ° ng",
      "á»ĵ ng",
      "Ġ Æ¡n",
      "Ġtr anh",
      "Ġch Æ°a",
      "ĠthÃ ¡",
      "áº· t",
      "Ġk á»",
      "Ġth i",
      "ĠQ u",
      "Ġm áº¥y",
      "Ġngh e",
      "N H",
      "Ġ f",
      "Ġp há»",
      "Ġbá» įn",
      "Ġngh Ä©",
      "u c",
      "Ġto Ãłn",
      "¸ ı",
      "Ã Ĥ",
      "ï ¸ı",
      "áº¿ t",
      "háº Ńt",
      "Ġs áº£n",
      "áº¥ u",
      "Ġth am",
      "ĠT á»",
      "iáº¿ m",
      "ĠP hi",
      "ÃŃ ch",
      "i Ãªu",
      "Ãł u",
      "Ġb Ã¡n",
      "Ġth Ãłnh",
      "Ġtiáº¿ ng",
      "Ġ an",
      "iá»ĩ c",
      "ĠnhÃ ©",
      "ĠTr ung",
      "Ġ I",
      "Ġv áº«n",
      "Ġs au",
      "hÃ ¡",
      "Ġh iá»ĥu",
      "Ġtá» ķ",
      "Ġsá»ĳ ng",
      "Ġ Em",
      "iá»ĩ u",
      "áº¯ m",
      "a l",
      "Ġ R",
      "áº ©",
      "Ġt Ãłi",
      "Ġcháº ¿t",
      "áº· c",
      "Ġkh o",
      "Ġv iá»ĩc",
      "Ä ĳ",
      "ĠT R",
      "Ġt ay",
      "Ġv iá»ĩt",
      "ĠkhÃ¡ c",
      "uyá»ĩ n",
      "u t",
      "á ĺ",
      "ĠÄĳ áº¡o",
      "Ġm a",
      "ĠphÃ¡ t",
      "áĺ ī",
      "iá» ĥn",
      "áº¥ n",
      "ĠQ uá»ĳc",
      "Ġ Æ¡i",
      "į ng",
      "Ãº c",
      "a r",
      "Ġb Ã¬nh",
      "ĠC h",
      "Ġbá» ı",
      "á»Ļ i",
      "ĠÄĳ Ãºng",
      "Ġm Ã¡",
      "C h",
      "u oc",
      "u ll",
      "Ġb Ã¡c",
      "hÃ ´ng",
      "Ġch u",
      "Ġgi Ã¡",
      "á»Ļ t",
      "ĠÄĳá»Ļ ng",
      "Ġhá» Ļi",
      "Ġ F",
      "Ġb á»ĳ",
      "Ġtr Æ°á»Ľc",
      "£ i",
      "§ ng",
      "ĠC lip",
      "Ã µ",
      "Ġc ao",
      "Ġc lip",
      "¯ c",
      "Ġv iÃªn",
      "Ġb áº±ng",
      "ĠC á»",
      "áº¥ p",
      "ĠG i",
      "ĠN H",
      "Ġchá» ĭ",
      "I á»",
      "Ġd i",
      "ĠÄĳá» ģ",
      "© ng",
      "Ġl Ã£",
      "ai n",
      "Ġhá» ĵ",
      "ĠnháºŃ n",
      "Ġtr ung",
      "Ġc áº§n",
      "Ġthá» Ŀi",
      "ĠPhi m",
      "Ġb áº¯t",
      "Æ°á»Ľ ng",
      "§ n",
      "Ġl áº¥y",
      "r a",
      "¬ n",
      "Ġb o",
      "Ġs ai",
      "ĠÄĳá» ĭ",
      "áº£ m",
      "Ġv Å©",
      "Ġm áº¥t",
      "Ġvá» ¥",
      "ĠNg a",
      "á»į i",
      "Æ ł",
      "Ġ u",
      "ĠP hÃº",
      "C lip",
      "a s",
      "¡ m",
      "á» Ń",
      "r ain",
      "Ġt áº¿",
      "ĠÄĳ áº£ng",
      "Ġk Ã½",
      "ĠH o",
      "ĠchÃ ¡",
      "Æ°á»£ ng",
      "ĠphÃ¡ p",
      "ĠÄĳ áº¡i",
      "Ġh Æ°Æ¡ng",
      "Ġtá» Ľi",
      "Ġtá»ĳ t",
      "e s",
      "Ġb Ãł",
      "ĠC hÃ",
      "Ġqu Ã¢n",
      "Ã¡c h",
      "á»Ļ ng",
      "Ġb áº£n",
      "Ġb áº£o",
      "T r",
      "¨ o",
      "Ã Ĭ",
      "Ġc Ã¹ng",
      "Ġng á»",
      "Ġtr Æ°á»Ŀng",
      "ĠT há»",
      "Ġthá» ©c",
      "i Ãª",
      "Ġc ua",
[...]
