{
  "version": "1.0",
  "truncation": null,
  "padding": null,
  "added_tokens": [
    {
      "id": 0,
      "special": true,
      "content": "<s>",
      "single_word": false,
      "lstrip": false,
      "rstrip": false,
      "normalized": false
    },
    {
      "id": 1,
      "special": true,
      "content": "<pad>",
      "single_word": false,
      "lstrip": false,
      "rstrip": false,
      "normalized": false
    },
    {
      "id": 2,
      "special": true,
      "content": "</s>",
      "single_word": false,
      "lstrip": false,
      "rstrip": false,
      "normalized": false
    },
    {
      "id": 3,
      "special": true,
      "content": "<unk>",
      "single_word": false,
      "lstrip": false,
      "rstrip": false,
      "normalized": false
    },
    {
      "id": 4,
      "special": true,
      "content": "<mask>",
      "single_word": false,
      "lstrip": false,
      "rstrip": false,
      "normalized": false
    }
  ],
  "normalizer": null,
  "pre_tokenizer": {
    "type": "ByteLevel",
    "add_prefix_space": false,
    "trim_offsets": true
  },
  "post_processor": null,
  "decoder": null,
  "model": {
    "type": "BPE",
    "dropout": null,
    "unk_token": null,
    "continuing_subword_prefix": null,
    "end_of_word_suffix": null,
    "fuse_unk": false,
    "vocab": {
      "<s>": 0,
      "<pad>": 1,
      "</s>": 2,
      "<unk>": 3,
      "<mask>": 4,
      "!": 5,
      "\"": 6,
      "#": 7,
      "$": 8,
      "%": 9,
      "&": 10,
      "'": 11,
      "(": 12,
      ")": 13,
      "*": 14,
      "+": 15,
      ",": 16,
      "-": 17,
      ".": 18,
      "/": 19,
      "0": 20,
      "1": 21,
      "2": 22,
      "3": 23,
      "4": 24,
      "5": 25,
      "6": 26,
      "7": 27,
      "8": 28,
      "9": 29,
      ":": 30,
      ";": 31,
      "<": 32,
      "=": 33,
      ">": 34,
      "?": 35,
      "A": 36,
      "B": 37,
      "C": 38,
      "D": 39,
      "E": 40,
      "F": 41,
      "G": 42,
      "H": 43,
      "I": 44,
      "J": 45,
      "K": 46,
      "L": 47,
      "M": 48,
      "N": 49,
      "O": 50,
      "P": 51,
      "Q": 52,
      "R": 53,
      "S": 54,
      "T": 55,
      "U": 56,
      "V": 57,
      "W": 58,
      "X": 59,
      "Y": 60,
      "Z": 61,
      "]": 62,
      "^": 63,
      "_": 64,
      "`": 65,
      "a": 66,
      "b": 67,
      "c": 68,
      "d": 69,
      "e": 70,
      "f": 71,
      "g": 72,
      "h": 73,
      "i": 74,
      "j": 75,
      "k": 76,
      "l": 77,
      "m": 78,
      "n": 79,
      "o": 80,
      "p": 81,
      "q": 82,
      "r": 83,
      "s": 84,
      "t": 85,
      "u": 86,
      "v": 87,
      "w": 88,
      "x": 89,
      "y": 90,
      "z": 91,
      "|": 92,
      "~": 93,
      "¡": 94,
      "¢": 95,
      "£": 96,
      "¤": 97,
      "¥": 98,
      "¦": 99,
      "§": 100,
      "¨": 101,
      "©": 102,
      "ª": 103,
      "«": 104,
      "¬": 105,
      "®": 106,
      "¯": 107,
      "°": 108,
      "±": 109,
      "²": 110,
      "³": 111,
      "´": 112,
      "µ": 113,
      "¶": 114,
      "·": 115,
      "¸": 116,
      "¹": 117,
      "º": 118,
      "»": 119,
      "¼": 120,
      "½": 121,
      "¾": 122,
      "¿": 123,
      "Ã": 124,
      "Ä": 125,
      "Å": 126,
      "Æ": 127,
      "Ì": 128,
      "á": 129,
      "â": 130,
      "ï": 131,
      "Ġ": 132,
      "Ģ": 133,
      "ģ": 134,
      "Ĥ": 135,
      "ĥ": 136,
      "Ħ": 137,
      "ħ": 138,
      "Ĩ": 139,
      "ĩ": 140,
      "Ī": 141,
      "ī": 142,
      "Ĭ": 143,
      "ĭ": 144,
      "Į": 145,
      "į": 146,
      "ı": 147,
      "Ĳ": 148,
      "ĳ": 149,
      "Ĵ": 150,
      "ĵ": 151,
      "Ķ": 152,
      "ķ": 153,
      "Ĺ": 154,
      "ĺ": 155,
      "Ļ": 156,
      "ļ": 157,
      "Ľ": 158,
      "ľ": 159,
      "Ŀ": 160,
      "ŀ": 161,
      "Ł": 162,
      "ł": 163,
      "Ń": 164,
      "á»": 165,
      "áº": 166,
      "ng": 167,
      "Ġc": 168,
      "Ġt": 169,
      "Ãł": 170,
      "Ġn": 171,
      "ĠÄ": 172,
      "ĠÄĳ": 173,
      "hÃ": 174,
      "Ġm": 175,
      "Ġl": 176,
      "Ã¡": 177,
      "háº": 178,
      "Ġv": 179,
      "Ġk": 180,
      "Æ°": 181,
      "nh": 182,
      "há»": 183,
      "Ġb": 184,
      "Ġs": 185,
      "iá»": 186,
      "Ġh": 187,
      "Ã³": 188,
      "Ġg": 189,
      "Ġd": 190,
      "Ġr": 191,
      "ĠthÃ": 192,
      "áº¿": 193,
      "Æ°á»": 194,
      "Ġp": 195,
      "on": 196,
      "áº¥": 197,
      "Ã¬": 198,
      "Ġng": 199,
      "áº¡": 200,
      "ĠlÃł": 201,
      "áº£": 202,
      "Ġnh": 203,
      "Ãª": 204,
      "ĠÄĳá»": 205,
      "Ġch": 206,
      "Ġtr": 207,
      "Æ¡": 208,
      "´ng": 209,
      "qu": 210,
      "Ġx": 211,
      "Ġth": 212,
      "ĠkhÃ": 213,
      "Ġqu": 214,
      "Ġvá»": 215,
      "..": 216,
      "ĠthÃ¬": 217,
      "Ġcá»": 218,
      "Ġtháº": 219,
      "Ãªn": 220,
      "Ľi": 221,
      "ĠmÃł": 222,
      "Ã¹": 223,
      "Ġchá»": 224,
      "ĠcÃ³": 225,
      "ĠnÃł": 226,
      "Ã¬nh": 227,
      "iá»ĩ": 228,
      "ĠcÃ¡": 229,
      "Ġmá»": 230,
      "ĠvÃł": 231,
      "á»ĳ": 232,
      "iáº¿": 233,
      "Ġ1": 234,
      "ua": 235,
      "Ã¢": 236,
      "Ã¹ng": 237,
      "ay": 238,
      "Ã´": 239,
      "©ng": 240,
      "Æ°á»£": 241,
      "Ġgi": 242,
      "ĠkhÃ´ng": 243,
      "ĠnhÆ°": 244,
      "in": 245,
      "Ġcháº": 246,
      "ĠÄĳáº": 247,
      "am": 248,
      "hÃ¬": 249,
      "ĠhÆ¡": 250,
      "ĠquÃ¡": 251,
      "ao": 252,
      "Ãłi": 253,
      "ĠdÃ¹ng": 254,
      "Ġcá»§": 255,
      "ĠnÃły": 256,
      "Ã²": 257,
      "áº¥t": 258,
      "ĠnÃ³": 259,
      "iá»ģ": 260,
      "áº¡i": 261,
      "á»ĵ": 262,
      "Ġcá»§a": 263,
      "ch": 264,
      "Ġthá»": 265,
      "Ġpháº": 266,
      "Ŀi": 267,
      "ĠhÆ¡n": 268,
      "Ġmua": 269,
      "Ġbá»": 270,
      "ĠcÅ": 271,
      "ĠcÃ¡i": 272,
      "Ìģ": 273,
      "áº¯": 274,
      "ang": 275,
      "áº§": 276,
      "em": 277,
      "Ġnháº": 278,
      "á»ĵi": 279,
      "Ġhá»": 280,
      "¹p": 281,
      "Äĥ": 282,
      "ĠmÃ¬nh": 283,
      "Ġváº": 284,
      "ung": 285,
      "ĠcÅ©ng": 286,
      "Ńt": 287,
      "£i": 288,
      "Ġtháº¥": 289,
      "one": 290,
      "ĠS": 291,
      "Æ°á»£c": 292,
      "iáº¿t": 293,
      "ÌĢ": 294,
      "Ġtá»": 295,
      "Ġrá»ĵi": 296,
      "Ġa": 297,
      "ĠC": 298,
      "Ġcon": 299,
      "Ġá»": 300,
      "Ġko": 301,
      "ĠÄĳÆ°á»£c": 302,
      "ĠM": 303,
      "Ġ2": 304,
      "uy": 305,
      "Ġkh": 306,
      "hÃ¬nh": 307,
      "Ã¡y": 308,
      "ĠhÃ¬nh": 309,
      "hone": 310,
      "ong": 311,
      "ĠÄĳáº¹p": 312,
      "Ġvá»Ľi": 313,
      "Ġcho": 314,
      "iá»ĩn": 315,
      "ĠgiÃ¡": 316,
      "¥t": 317,
      "Ġra": 318,
      "ĠT": 319,
      "Ġtháº¥y": 320,
      "Ġcáº£": 321,
      "ĠÄĳÃ": 322,
      "iá»ģu": 323,
      "Ġi": 324,
      "Ġráº¥t": 325,
      "ĠchÃ": 326,
      "Ã²n": 327,
      "ĠmÃ¡y": 328,
      "ÃŃ": 329,
      "Ġgiá»": 330,
      "ĠN": 331,
      "Ġná»": 332,
      "Ġpháº£i": 333,
      "Ġem": 334,
      "Æ°á»Ľ": 335,
      "Ġlá»": 336,
      "Ġnhá»": 337,
      "Ġháº": 338,
      "ĠnÄĥ": 339,
      "áº¡n": 340,
      "Ġtá»ĳ": 341,
      "ĠgÃ¬": 342,
      "Ġdá»": 343,
      "Ã´i": 344,
      "áº¥y": 345,
      "ĠÄĳá»ĥ": 346,
      "Ġpin": 347,
      "an": 348,
      "áº£n": 349,
      "...": 350,
      "phone": 351,
      "«n": 352,
      "Ãłng": 353,
      "ĠnhÆ°ng": 354,
      "Ġmá»Ľi": 355,
      "en": 356,
      "Ãº": 357,
      "ĠkhÃ¡": 358,
      "Ġláº¡i": 359,
      "ĠbÃ¡": 360,
      "Ġngh": 361,
      "er": 362,
      "Ġsá»": 363,
      "ĠphÃ": 364,
      "iá»ĥ": 365,
      "áº§n": 366,
      "áº¥u": 367,
      "Ġchá»ī": 368,
      "ĠxÃłi": 369,
      "ĠcÃ²n": 370,
      "Ļt": 371,
      "Æ°a": 372,
      "¯a": 373,
      "ĠÄĳi": 374,
      "ĠA": 375,
      "Ġbá»ĭ": 376,
      "Ġkhi": 377,
      "áº½": 378,
      "uyá»": 379,
      "au": 380,
      "ĠlÃłm": 381,
      "ĠÄĳÃ£": 382,
      "Ġtá»ĳt": 383,
      "Ì£": 384,
      "Ġ,": 385,
      "Ġ3": 386,
      "ĠÄĳÃ¢": 387,
      "Ġnhiá»ģu": 388,
      "Ġváº«n": 389,
      "Ġbáº¡n": 390,
      "Æ°á»Ľc": 391,
      "´i": 392,
      "Ġkáº¿": 393,
      "Ġvá»ģ": 394,
      "ÄĲ": 395,
      "iá»ģn": 396,
      "oi": 397,
      "áº¿u": 398,
      "00": 399,
      "ot": 400,
      "Ġlu": 401,
      "Ġhay": 402,
      "Ġngon": 403,
      "Ġná»¯a": 404,
      "ĠnÃªn": 405,
      "ĠthÃ´i": 406,
      "pp": 407,
      "ĠnÃło": 408,
      "áº·": 409,
      "Ã´ng": 410,
      "Æ°á»Ŀi": 411,
      "Ġtháº¿": 412,
      "Ã²ng": 413,
      "ĠH": 414,
      "le": 415,
      "©m": 416,
      "ĠÄĳang": 417,
      "Ġnháº¥t": 418,
      "hÃ¬n": 419,
      "anh": 420,
      "ĠmÃłn": 421,
      "uá»ĳ": 422,
      "Ġsáº½": 423,
      "Ã´n": 424,
      "ĠngÆ°á»Ŀi": 425,
      "Ġtrá»": 426,
      "Ġ6": 427,
      "áº¯m": 428,
      "Ńch": 429,
      "sung": 430,
      "Ãłn": 431,
      "amsung": 432,
      "Ġgiá»Ŀ": 433,
      "ĠlÃªn": 434,
      "ai": 435,
      "ĠB": 436,
      "ĩt": 437,
      "Ńy": 438,
      "ok": 439,
      "ĠnhÃ": 440,
      "ĠluÃ´n": 441,
      "ĠV": 442,
      "ĠhÃ": 443,
      "ĠcÃ¡c": 444,
      "Ġ5": 445,
      "ĠÃ": 446,
      "ĠchÆ°a": 447,
      "Ġ:": 448,
      "ony": 449,
      "¥p": 450,
      "Ġbiáº¿t": 451,
      "iÃª": 452,
      "¿t": 453,
      "Ĺi": 454,
      "Ġho": 455,
      "ÃŃnh": 456,
      "Ġdá»¥": 457,
      "ar": 458,
      "inh": 459,
      "oáº¡i": 460,
      "Ġ.": 461,
      "Ġ4": 462,
      "Ġtrong": 463,
      "ĠL": 464,
      "ĠÄĳá»Ļ": 465,
      "!!": 466,
      "Ã¡ng": 467,
      "±c": 468,
      "ĠP": 469,
      "ĠÄĳÃ³": 470,
      "ĠvÃ¬": 471,
      "Ġchá»©": 472,
      "uyá»ĩt": 473,
      "áº£o": 474,
      "Ġthá»ĥ": 475,
      "Ìī": 476,
      "Ãłnh": 477,
      "ĠnÄĥm": 478,
      "Ġmáº¥y": 479,
      "Ġsao": 480,
      "ĠtrÃªn": 481,
      "Ġthiáº¿t": 482,
      "ĠváºŃy": 483,
      "ĠkhÃ¡c": 484,
      "Ġdá»¥ng": 485,
      "Ńn": 486,
      "Ġmá»Ļt": 487,
      "Ġnghe": 488,
      "Ġy": 489,
      "áº§m": 490,
      "Ġcao": 491,
      "ĠÄĲ": 492,
      "ĠthÃŃch": 493,
      "ĠtháºŃt": 494,
      "Ġf": 495,
      "ĠtÃ´i": 496,
      "Ãły": 497,
      "ĠhÃłng": 498,
      "Æ¡i": 499,
      "eo": 500,
      "¯c": 501,
      "Ġtiá»ģn": 502,
      "Æ°á»£ng": 503,
      "ĠnÃ³i": 504,
      "áº¿n": 505,
      "Ġph": 506,
      "Ġtá»«": 507,
      "áº»": 508,
      "¡y": 509,
      "±ng": 510,
      "iá»ĩu": 511,
      "us": 512,
      "ķi": 513,
      "Æ°Æ¡": 514,
      "Ġá»Ł": 515,
      "ĠnÄĥng": 516,
      "mi": 517,
      "iá»ĥu": 518,
      "Ġto": 519,
      "ĠÄĳáº¿n": 520,
      "ĠG": 521,
      "Ġláº¯m": 522,
      "Ġháº¿t": 523,
      "ac": 524,
      "Ġqua": 525,
      "ĠI": 526,
      "Ġcáº£m": 527,
      "Ġw": 528,
      "ĠnhÃ¬n": 529,
      "MÃ¬nh": 530,
      "³ng": 531,
      "įi": 532,
      "ĠvÃło": 533,
      "ote": 534,
      "at": 535,
      "Ġsau": 536,
      "ĠcÃ´ng": 537,
      "Æ°á»Ŀ": 538,
      "Ġchá»¥p": 539,
      "Ġgá»": 540,
      "áº¥p": 541,
      "ĠX": 542,
      "Ġcam": 543,
      "Ã¡i": 544,
      "iá»ĩt": 545,
      "Ġcháº¥t": 546,
      "áº¯t": 547,
      "Ġiphone": 548,
      "pple": 549,
      "ĠngÃły": 550,
      "Æ°á»Ŀng": 551,
      "tr": 552,
      "Ġtiáº¿": 553,
      "Ġbáº": 554,
      "Ġxáº¥u": 555,
      "iÃªn": 556,
      "Ġtuyá»ĩt": 557,
      "©t": 558,
      "Ġbáº£o": 559,
      "Ġcháº¡y": 560,
      "era": 561,
      "ĠÄĳÃ¢y": 562,
      "im": 563,
      "Ġla": 564,
      "Ãºc": 565,
      "¯ng": 566,
      "Ńm": 567,
      "áº£nh": 568,
      "¥c": 569,
      "Ġá»ķ": 570,
      "Ġá»©ng": 571,
      "Ġai": 572,
      "om": 573,
      "Äĳ": 574,
      "įng": 575,
      "ĠÄĳc": 576,
      "Ã¢u": 577,
      "Ġpháº©m": 578,
      "¢n": 579,
      "«a": 580,
      "Ġáº£nh": 581,
      "ĠtÃŃnh": 582,
      "ĠÄĳiá»ĩn": 583,
      "ĠkÃ": 584,
      "ĠÄĳá»ĵ": 585,
      "Ġxem": 586,
      "uá»": 587,
      "hÃ´ng": 588,
      "Ġthoáº¡i": 589,
      "§n": 590,
      "Ġcáº¥p": 591,
      "Ġtay": 592,
      "Ġlo": 593,
      "Ġbáº£n": 594,
      "Ġlá»Ĺi": 595,
      "ĠbÃ¡c": 596,
      "Ġkhá»": 597,
      "Ġsá»ĳ": 598,
      "Ġdo": 599,
      "Ġcháº¯c": 600,
      "Ńp": 601,
      "ĠlÆ°á»£ng": 602,
      "Ã¡c": 603,
      "áº¡c": 604,
      "ĠÄĳÃ¢u": 605,
      "Ġso": 606,
      "Ã¢y": 607,
      "ĠR": 608,
      "Ġma": 609,
      "ĠdÃ²ng": 610,
      "ĠtrÆ°á»Ľc": 611,
      "Ġnhá»¯ng": 612,
      "Æ°Æ¡ng": 613,
      "Ġá»ķn": 614,
      "dr": 615,
      "ĠK": 616,
      "ĥn": 617,
      "įn": 618,
      "Ġsá»±": 619,
      "iao": 620,
      "Ġ(": 621,
      "Ġsáº£n": 622,
      "ĠmÃłu": 623,
      "Ġ10": 624,
      "uá»ĳn": 625,
      "¡n": 626,
      "áº£i": 627,
      "ĠhÃ£": 628,
      "Ã£": 629,
      "Ġ9": 630,
      "ĳng": 631,
      "Ġráº»": 632,
      "ĠthÃª": 633,
      "Ġbáº±ng": 634,
      "Æ°ng": 635,
      "Ġcá»©": 636,
      "oid": 637,
      "Ġcamera": 638,
      "iaomi": 639,
      "ndr": 640,
      "Ġhá»ĵ": 641,
      "Ġsá»Ń": 642,
      "Ġ!": 643,
      "Ġe": 644,
      "Ġsamsung": 645,
      "Ġvá»Ŀi": 646,
      "....": 647,
      "Ġthá»Ŀi": 648,
      "ro": 649,
      "įc": 650,
      "Ġnáº¿u": 651,
      "ĠÄĳá»ģ": 652,
      "ĠÄĳáº§": 653,
      "ĠZ": 654,
      "ĠthÃ¡": 655,
      "ĠSony": 656,
      "ĠbÃ¡n": 657,
      "ĠthÃªm": 658,
      "áº¹p": 659,
      "Ġmuá»ĳn": 660,
      "ĠhÃłnh": 661,
      "ĠÃ½": 662,
      "ia": 663,
      "ic": 664,
      "©n": 665,
      "ıng": 666,
      "ĠlÃºc": 667,
      "áº¯c": 668,
      "ĠnháºŃn": 669,
      "ĠhÃ£ng": 670,
      "iÃ¡": 671,
      "ĭnh": 672,
      "iÃªu": 673,
      "ndroid": 674,
      "))": 675,
      "Ġok": 676,
      "Ġcáº¥u": 677,
      "Ġtin": 678,
      "Ġsáº¡c": 679,
      "Ġ7": 680,
      "ĠÄĳiá»ģu": 681,
      "Ġmáº¡": 682,
      "Æ°á»Ł": 683,
      "Ġnhanh": 684,
      "ĠhÆ¡i": 685,
      "Ġpháº§n": 686,
      "st": 687,
      "ģn": 688,
      "Ġcáº§n": 689,
      "Æ°á»£t": 690,
      "Ġip": 691,
      "iá»ĥm": 692,
      "Ġgá»įi": 693,
      "Æ°á»Łng": 694,
      "10": 695,
      "Qu": 696,
      "ĠD": 697,
      "Ġthi": 698,
      "Ġcháº£": 699,
      "ºng": 700,
      "ĠlÃ²ng": 701,
      "ĠÄĳá»ĭnh": 702,
      "Ġtheo": 703,
      "áº·t": 704,
      "et": 705,
      "©c": 706,
      "Ġnay": 707,
      "Ġchi": 708,
      "Ġthay": 709,
      "Ãºt": 710,
      "áº·c": 711,
      "£p": 712,
      "Ġtáº§m": 713,
      "Ġhiá»ĩn": 714,
      "Ġvá»«a": 715,
      "áº©n": 716,
      "Ġláº§n": 717,
      "ĠvÃ´": 718,
      "Ġnghá»": 719,
      "áº£ng": 720,
      "ĠÄĳá»ķi": 721,
      "Ġhá»£p": 722,
      "ĠphÃ¡": 723,
      "Ġz": 724,
      "Ã¡nh": 725,
      "Ġká»": 726,
      "ĠthÃ´ng": 727,
      "Ġvá»įng": 728,
      "uyÃªn": 729,
      "Ġnhá»ī": 730,
      "art": 731,
      "áºŃt": 732,
      "ĠmÆ°á»£t": 733,
      "háºŃt": 734,
      "Ġbao": 735,
      "Ġtá»Ľi": 736,
      "Ġkho": 737,
      "ĠnhÃ©": 738,
      "ĠÄĳáº§u": 739,
      "Ġnghá»ĩ": 740,
      "el": 741,
      "Ä©": 742,
      "Ìĥ": 743,
      "ĠW": 744,
      "ıi": 745,
      "Ġtiá»ĩn": 746,
      "Ġhiá»ĩu": 747,
      "ĠApple": 748,
      "QuÃ¡": 749,
      "TÃ´i": 750,
      "ĳi": 751,
      "ĠtÆ°á»Łng": 752,
      "ĠÄĳt": 753,
      "ĠÄĳiá»ĥm": 754,
      "áº¥n": 755,
      "Ġchung": 756,
      "iá»ĩm": 757,
      "Ã¢m": 758,
      "ĠchÃŃ": 759,
      "hi": 760,
      "Ã½": 761,
      "Ġngo": 762,
      "ĠthÆ°á»Ŀng": 763,
      "ĠkÃ©m": 764,
      "ĠÄĳá»ĵng": 765,
      "ui": 766,
      "ĠhÃłi": 767,
      "Ġchu": 768,
      "ĠchÆ¡i": 769,
      "iá»ĩc": 770,
      "Ġbá»ı": 771,
      "ĠÄĳÃºng": 772,
      "Ġ8": 773,
      "Ġmáº¥t": 774,
      "Ġchá»įn": 775,
      "Ã©t": 776,
      "Ġviá»ĩc": 777,
      "Ġngay": 778,
      "ĠÄĳá»§": 779,
      "ĠSamsung": 780,
      "Th": 781,
      "mart": 782,
      "Ġ-": 783,
      "Ġco": 784,
      "Ġsony": 785,
      "Ġram": 786,
      "Äĥng": 787,
      "ĠchÃ¡n": 788,
      "sus": 789,
      "ĠF": 790,
      "Ġca": 791,
      "ĠnÆ°á»Ľc": 792,
      "Ġvi": 793,
      "ĠsÃ¡ng": 794,
      "Ġhiá»ĥu": 795,
      "Ġchiáº¿": 796,
      "Ġchuyá»": 797,
      "Ġanh": 798,
      "ĠÃŃt": 799,
      "Phone": 800,
      "áºŃp": 801,
      "ĠcÃłng": 802,
      "Ġmáº·t": 803,
      "Ġkiá»ĥu": 804,
      "Ġsang": 805,
      "ĠbÃ¡o": 806,
      "ad": 807,
      "«ng": 808,
      "ĠO": 809,
      "Ġnote": 810,
      "Ġdc": 811,
      "Ã¹i": 812,
      "ame": 813,
      "Ġthá»±c": 814,
      "ook": 815,
      "Ġ\"": 816,
      "iáº¿n": 817,
      "Ã¢n": 818,
      "Ã¢ng": 819,
      "ĠLG": 820,
      "Ġyáº¿u": 821,
      "Ġtiáº¿ng": 822,
      "TC": 823,
      "la": 824,
      "Ãłu": 825,
      "Ġkháº": 826,
      "ĠÄĳá»Ŀi": 827,
      "Ġgiá»ĳng": 828,
      "ĭu": 829,
      "Ġmáº¯t": 830,
      "ĠlÃ¢u": 831,
      "ĠkhÃ³": 832,
      "Ġmá»Ł": 833,
      "ppo": 834,
      "ĠthÃ¡ng": 835,
      "ĠchÃŃnh": 836,
      "Ġchuyá»ĥn": 837,
      "50": 838,
      "§ng": 839,
      "Ġu": 840,
      "Ńa": 841,
      "Ġcá»±c": 842,
      "á»ĳi": 843,
      "áº¯p": 844,
      "Æ°á»Ľng": 845,
      "ĠtoÃłn": 846,
      "ĠÄĳá»ģu": 847,
      "ĠngoÃłi": 848,
      "ji": 849,
      "to": 850,
      "Ġo": 851,
      "īnh": 852,
      "Æ¡n": 853,
      "Ġchá»ĭu": 854,
      "Ġcháº³ng": 855,
      "ĠHTC": 856,
      "bi": 857,
      "do": 858,
      "ºt": 859,
      "Ġtáº¡i": 860,
      "Ġmang": 861,
      "Ġsáº¯c": 862,
      "Ġgáº§n": 863,
      "Ġbá»Ļ": 864,
      "Ġnháº¡": 865,
      "ĠMÃ¬nh": 866,
      "Ġnhá»Ľ": 867,
      "ĠphÃŃm": 868,
      "KhÃ´ng": 869,
      "ss": 870,
      "uá»ĵ": 871,
      "ĠtÃŃ": 872,
      "ĠlÃ½": 873,
      "Ġsmart": 874,
      "Ã³i": 875,
      "Ġngá»": 876,
      "áº£m": 877,
      "Ġbá»ģn": 878,
      "Ġtá»ĩ": 879,
      "ĠchÃª": 880,
      "ĠNh": 881,
      "Ġnhá»ı": 882,
      "ĠnghÄ©": 883,
      "ÄĲáº¹p": 884,
      "Ġhoáº·c": 885,
      "Ġmáº¡nh": 886,
      "±a": 887,
      "Ġj": 888,
      "áº«n": 889,
      "ĠcÃ¹ng": 890,
      "ĠcÃłi": 891,
      "Ãło": 892,
      "ĠsÃłi": 893,
      "Ġgame": 894,
      "Ġre": 895,
      "Ġphá»": 896,
      "Ãªu": 897,
      "Ġxu": 898,
      "ĠÄĳáº·": 899,
      "ack": 900,
      "GiÃ¡": 901,
      "uji": 902,
      "ģm": 903,
      "Ġta": 904,
      "ĠghÃ": 905,
      "Ġrá»": 906,
      "áº¿t": 907,
      "Ġnhau": 908,
      "Ġtrung": 909,
      "Ġxong": 910,
      "Ġgian": 911,
      "indo": 912,
      "Ġthá»©": 913,
      "áº§u": 914,
      "Ġtá»±": 915,
      "Ġandroid": 916,
      "ĠNote": 917,
      "Ġdá»ħ": 918,
      "Ġkáº¿t": 919,
      "uá»Ļ": 920,
      "Ġloa": 921,
      "Ġchiáº¿c": 922,
      "Ġnháº¡c": 923,
      "??": 924,
      "eb": 925,
      "ei": 926,
      "Ġna": 927,
      "Ġmo": 928,
      "Ã³ng": 929,
      "Æ°á»Ľi": 930,
      "Ġmá»ģm": 931,
      "ĠvÃłi": 932,
      "ĠcÅ©": 933,
      "ĠIphone": 934,
      "Ġchuáº©n": 935,
      "it": 936,
      "Ľn": 937,
      "Ã¡m": 938,
      "ĠÄĳá»ĳi": 939,
      "Ġquan": 940,
      "Ġhá»į": 941,
      "ĠiPhone": 942,
      "Ġgiá»Ľi": 943,
      "Ġná»ķi": 944,
      "Ġchá»©c": 945,
      "ĠXiaomi": 946,
      "Ġzen": 947,
      "uá»ĵn": 948,
      "indow": 949,
      "ho": 950,
      "os": 951,
      "ĠE": 952,
      "áº«": 953,
      "ĠnÃ¢ng": 954,
      "ĠÄĥn": 955,
      "ĠbÃªn": 956,
      "Ġbiá»ĩt": 957,
      "ĠnhÃł": 958,
      "Ġtháº¥t": 959,
      "ÄĲang": 960,
      "000": 961,
      "Ġtrá»Ŀi": 962,
      "ĠIP": 963,
      "ie": 964,
      "ii": 965,
      "mÃ¬nh": 966,
      "Ã¨": 967,
      "Ġcu": 968,
      "ĠnÃºt": 969,
      "Ã¡n": 970,
      "Ġkinh": 971,
      "ĠbÃ¬nh": 972,
      "Ġdung": 973,
      "áº¥m": 974,
      "ĠcÃ¡ch": 975,
      "Ġmá»įi": 976,
      "Ġhá»ĩ": 977,
      "iá»ĥn": 978,
      "Ġ:)": 979,
      "Ġkhá»§ng": 980,
      "Ġup": 981,
      "ry": 982,
      "Ġ...": 983,
      "á»Ľi": 984,
      "Ġtáº¿": 985,
      "ĠÄĳÃ¡ng": 986,
      "Ġmi": 987,
      "Ġloáº¡i": 988,
      "Ġsu": 989,
      "ĠtrÃ¢u": 990,
      "Ġthua": 991,
      "Ġmá»ıng": 992,
      "Ġcháº¿": 993,
      "ĠcháºŃm": 994,
      "ĠCÃ³": 995,
      "ĠCÃ²n": 996,
      "Ġlá»Ľn": 997,
      "!!!": 998,
      "áºŃn": 999,
      "ĠtÆ°á»£ng": 1000,
      "ĠÄĳÃª": 1001,
      "ĠÄĳáº¥y": 1002,
      "Ġphone": 1003,
      "Ġtriá»ĩu": 1004,
      "Ġtho": 1005,
      "Ġthu": 1006,
      "ĠthÃłnh": 1007,
      "Ġquáº£": 1008,
      "á»ĳc": 1009,
      "Ġ16": 1010,
      "Ġgia": 1011,
      "Ġgiáº£i": 1012,
      "ĠChá»": 1013,
      "ĠMi": 1014,
      "ĠnhÃ¢n": 1015,
      "ĠÄĳá»Ļng": 1016,
      "Thiáº¿t": 1017,
      "Ng": 1018,
      "NhÃ¬n": 1019,
      "lu": 1020,
      "lus": 1021,
      "¡t": 1022,
      "¯n": 1023,
      "Ã£i": 1024,
      "Æ°u": 1025,
      "Ġbo": 1026,
      "ĠdÃ¹": 1027,
      "ĠthÃ¢": 1028,
      "Ġxa": 1029,
      "ĠSS": 1030,
      "ĠTÃ´i": 1031,
      "ĠNáº¿u": 1032,
      "Ġnghiá»ĩm": 1033,
      "uá»ĳng": 1034,
      "01": 1035,
      "iv": 1036,
      "wei": 1037,
      "Ãµ": 1038,
      "Ġin": 1039,
      "Ġcáº¡": 1040,
      "Ġcáº§m": 1041,
      "Ġba": 1042,
      "Ġhi": 1043,
      "Ġdu": 1044,
      "áº¡o": 1045,
      "Ġxá»": 1046,
      "Ġthiá»ĩn": 1047,
      "ĠthÆ°Æ¡ng": 1048,
      "Ġchá»Ŀ": 1049,
      "Ġmá»Ĺi": 1050,
      "Ġthá»Ń": 1051,
      "ĠTQ": 1052,
      "Ġ:))": 1053,
      "ĠyÃªu": 1054,
      "ĠNhÆ°ng": 1055,
      "indows": 1056,
      "áº«u": 1057,
      "CÃ³": 1058,
      "Ġáº¡": 1059,
      "Ġlen": 1060,
      "ĠkÃŃnh": 1061,
      "ĠbÃłn": 1062,
      "Ã³c": 1063,
      "ĠdÆ°á»Ľi": 1064,
      "ĠÄĳá»įc": 1065,
      "ĠÄĳá»īnh": 1066,
      "Ġxiaomi": 1067,
      "Ġxuá»ĳng": 1068,
      "Ġcá»©ng": 1069,
      "ĠÄĳáº¯": 1070,
      "ĠnÃ³ng": 1071,
      "ĠnháºŃt": 1072,
      "GB": 1073,
      "lack": 1074,
      "or": 1075,
      "th": 1076,
      "ĠU": 1077,
      "Ġcáº¯m": 1078,
      "ĠnÃ©t": 1079,
      "Ġláº¥y": 1080,
      "Ġviá»ģn": 1081,
      "Ġbi": 1082,
      "ĠdÃ¡ng": 1083,
      "ĠÄĳá»Ļt": 1084,
      "Ġthanh": 1085,
      "áº¯n": 1086,
      "Ġhá»ıng": 1087,
      "Ġapple": 1088,
      "erry": 1089,
      "Ġxuáº¥t": 1090,
      "uá»Ļc": 1091,
      "fone": 1092,
      "pto": 1093,
      "Ľt": 1094,
      "ĠtÆ°Æ¡ng": 1095,
      "ĠÄĳa": 1096,
      "Ġminh": 1097,
      "Ġlá»ĵi": 1098,
      "Ã¡ch": 1099,
      "Ġvs": 1100,
      "Ġht": 1101,
      "ĠhÆ°": 1102,
      "uawei": 1103,
      "áº§y": 1104,
      "Ġtháº¥p": 1105,
      "Ġtá»¥c": 1106,
      "ĠTh": 1107,
      "uá»ĳi": 1108,
      "Ġtrá»įng": 1109,
      "ĠVN": 1110,
      "Ġphim": 1111,
      "uá»Ļt": 1112,
      "ptop": 1113,
      "Con": 1114,
      "me": 1115,
      "¡i": 1116,
      "³n": 1117,
      "Ġáº£o": 1118,
      "Ġcáº§u": 1119,
      "Ġná»ĳi": 1120,
      "Ã¡o": 1121,
      "Ã¡t": 1122,
      "Ġbiáº¿n": 1123,
      "Ã¬m": 1124,
      "Ġnhu": 1125,
      "Ġváº»": 1126,
      "ĠgiÃ¡c": 1127,
      "ĠTr": 1128,
      "ĠphÃ¢n": 1129,
      "áº·ng": 1130,
      "ĠhoÃłn": 1131,
      "atch": 1132,
      "ĠZen": 1133,
      "Tr": 1134,
      "TháºŃt": 1135,
      "est": 1136,
      "Ã©": 1137,
      "Ġáº¥y": 1138,
      "ĠÃ¢m": 1139,
      "Ġtiáº¿t": 1140,
      "Ġmáº«u": 1141,
      "Ġváº¥n": 1142,
      "ĠbÃ¢y": 1143,
      "ĠsÆ°á»Ľng": 1144,
      "Ġtráº£i": 1145,
      "Ġquy": 1146,
      "Ġcá»¥c": 1147,
      "Ġhá»ıi": 1148,
      "Ġháº³n": 1149,
      "Ġtá»ĳi": 1150,
      "ĠBB": 1151,
      "ace": 1152,
      "ĠKhÃ´ng": 1153,
      "ĠÄĳáº·c": 1154,
      "ĠÄĳáº¯t": 1155,
      "CÃ¡i": 1156,
      "ge": 1157,
      "he": 1158,
      "li": 1159,
      "og": 1160,
      "´m": 1161,
      "ĠQ": 1162,
      "ĠÃł": 1163,
      "ĠÆ¡i": 1164,
      "Ļi": 1165,
      "ĠÄĳÆ°á»Ŀng": 1166,
      "ĠsiÃªu": 1167,
      "Ġrom": 1168,
      "ĠvÃłng": 1169,
      "iáº¿u": 1170,
      "Ġnháº¹": 1171,
      "ĠMá»": 1172,
      "Ġfi": 1173,
      "Ġlaptop": 1174,
      "Ġkháº£": 1175,
      "Ġoppo": 1176,
      "Ġsmartphone": 1177,
      "Ch": 1178,
      "Tuyá»ĩt": 1179,
      "gb": 1180,
      "oot": 1181,
      "so": 1182,
      "ul": 1183,
      "Ġ)": 1184,
      "Ġáº¥n": 1185,
      "ĠcÆ¡": 1186,
      "Ġcoi": 1187,
      "Ġtai": 1188,
      "ĠtiÃªu": 1189,
      "Ġmong": 1190,
      "Ġláº½": 1191,
      "ĠliÃªn": 1192,
      "Ġkiá»ĩn": 1193,
      "Ġss": 1194,
      "ĠsÃ¡nh": 1195,
      "ĠnhiÃªn": 1196,
      "Ġthá»ĭ": 1197,
      "Äĥn": 1198,
      "Ġapp": 1199,
      "ĠCháº": 1200,
      "ĠchÃ¡t": 1201,
      "ĠAndroid": 1202,
      "ÄĲÃ£": 1203,
      "okia": 1204,
      "!!!!": 1205,
      "ĠPin": 1206,
      "Ġmáº¡ng": 1207,
      "ĠphÃ¡t": 1208,
      "Ġhtc": 1209,
      "Cháº": 1210,
      "if": 1211,
      "ĠcÃ¹i": 1212,
      "ĠtÃ¬nh": 1213,
      "Ġtinh": 1214,
      "ĠtÃ¢m": 1215,
      "Ġtest": 1216,
      "ĠÄĳo": 1217,
      "ĠÄĳÃ¡nh": 1218,
      "ĠmáºŃt": 1219,
      "Ġva": 1220,
      "Ġbáº¥t": 1221,
      "Ġsp": 1222,
      "ĠsÃ³ng": 1223,
      "Ġchá»ĳng": 1224,
      "Ġ12": 1225,
      "ĠÄĳáº³ng": 1226,
      "ĠMÃ¡y": 1227,
      "Ġios": 1228,
      "ĠchÃºt": 1229,
      "ÃŃch": 1230,
      "Ġlá»£i": 1231,
      "Ġlá»±a": 1232,
      "ĠAsus": 1233,
      "Ġtrá»£": 1234,
      "Ġtrá»Ł": 1235,
      "ĠWindows": 1236,
      ").": 1237,
      "HÃłng": 1238,
      "Má»": 1239,
      "NG": 1240,
      "Samsung": 1241,
      "con": 1242,
      "face": 1243,
      "kk": 1244,
      "khÃ´ng": 1245,
      "re": 1246,
      "Ġ=": 1247,
      "ĠÃ´ng": 1248,
      "ĭch": 1249,
      "Ġcuá»Ļc": 1250,
      "ĠÄĳÆ¡": 1251,
      "ĠmÃª": 1252,
      "Ġkia": 1253,
      "Ġsa": 1254,
      "Ġhao": 1255,
      "Ġdáº«n": 1256,
      "Ġpro": 1257,
      "áº¡ng": 1258,
      "ĠÄĳá»«ng": 1259,
      "Ġtrang": 1260,
      "Ġchá»Ĺ": 1261,
      "Ġthá»§": 1262,
      "Ġhá»Ĺ": 1263,
      "Ġasus": 1264,
      "ĠCh": 1265,
      "ĠNg": 1266,
      "ĠBlack": 1267,
      "ĠViá»ĩt": 1268,
      "Ġ:(": 1269,
      "Ġweb": 1270,
      "Ġtiáº¿p": 1271,
      "Äĳáº¹p": 1272,
      "Ġchip": 1273,
      "ĠghÃª": 1274,
      "Ġmobi": 1275,
      "ĠÄĳÃªm": 1276,
      "Ġcáº¡nh": 1277,
      "AM": 1278,
      "Em": 1279,
      "MÃłu": 1280,
      "Náº¿u": 1281,
      "ck": 1282,
      "chá»": 1283,
      "cÃ¡i": 1284,
      "ep": 1285,
      "ft": 1286,
      "ld": 1287,
      "ov": 1288,
      "Łi": 1289,
      "Ńu": 1290,
      "á»«": 1291,
      "áº¹": 1292,
      "Ġtu": 1293,
      "Ġtuy": 1294,
      "Ġnáº·ng": 1295,
      "Ġban": 1296,
      "Ġsim": 1297,
      "Ġha": 1298,
      "áº¡t": 1299,
      "ĠlÃłnh": 1300,
      "ĠcÃ¡o": 1301,
      "á»ĳng": 1302,
      "ĠgiáºŃt": 1303,
      "Äĥm": 1304,
      "Ġ201": 1305,
      "Æ°á»Ľt": 1306,
      "Ãºng": 1307,
      "ÄĲá»": 1308,
      "ĠÄĲá»": 1309,
      "icro": 1310,
      "Ġkhoáº£ng": 1311,
      "ĠFuji": 1312,
      "ifi": 1313,
      "Berry": 1314,
      "lo": 1315,
      "rface": 1316,
      "xy": 1317,
      "¯u": 1318,
      "ºc": 1319,
      "ĠJ": 1320,
      "Ļng": 1321,
      "Ġtáº¯t": 1322,
      "ĠtÃ¡c": 1323,
      "ĠtÄĥng": 1324,
      "ĠtÃ¬m": 1325,
      "ĠÄĳeo": 1326,
      "Ġmay": 1327,
      "Ġmáº¯c": 1328,
      "Ġdi": 1329,
      "ĠrÃµ": 1330,
      "Ġplus": 1331,
      "Ġnguá»ĵn": 1332,
      "Ġchuá»Ļt": 1333,
      "ĠxÃ¡ch": 1334,
      "Ġcá»ķ": 1335,
      "Ġhome": 1336,
      "Ġgá»įn": 1337,
      "Ġkhá»ıi": 1338,
      "ĠBlackBerry": 1339,
      "Chá»": 1340,
      "ThÃ": 1341,
      "Tháº": 1342,
      "ala": 1343,
      "ke": 1344,
      "Å©ng": 1345,
      "Ġ+": 1346,
      "áº±ng": 1347,
      "ĠtÆ°": 1348,
      "Ġmau": 1349,
      "Ġbáº¥m": 1350,
      "Ġsam": 1351,
      "Ġdiá»ĩn": 1352,
      "ĠnguyÃªn": 1353,
      "ĠÄĳá»£i": 1354,
      "quÃ¡": 1355,
      "Ġthiáº¿u": 1356,
      "Ġquay": 1357,
      "Ġvá»¥": 1358,
      "Ġtháº»": 1359,
      "Ġgiáº£n": 1360,
      "Ġcháº¿t": 1361,
      "amera": 1362,
      "Ġhá»¯u": 1363,
      "ĠchÃ¢n": 1364,
      "iÃªng": 1365,
      "Ġtá»«ng": 1366,
      "ate": 1367,
      "ĠkÃ¨": 1368,
      "Ġká»ĥ": 1369,
      "Ngon": 1370,
      "ivi": 1371,
      "20": 1372,
      "30": 1373,
      "80": 1374,
      "EE": 1375,
      "OS": 1376,
      "book": 1377,
      "dge": 1378,
      "giÃ¡": 1379,
      "ut": 1380,
      "¥y": 1381,
      "©p": 1382,
      "Ġ^": 1383,
      "ĠcáºŃp": 1384,
      "Ġcuá»ĳi": 1385,
      "ĠÄĳÃ¡": 1386,
      "ĠmÆ¡": 1387,
      "ĠmÃ£i": 1388,
      "Ġli": 1389,
      "Ġlai": 1390,
      "háº£i": 1391,
      "ĠvÃ¢n": 1392,
      "Ġkiáº¿n": 1393,
      "iá»Ŀ": 1394,
      "Ġgo": 1395,
      "Ġdt": 1396,
      "ĠdÃ¢y": 1397,
      "Ġxe": 1398,
      "ĠxÆ°a": 1399,
      "Ġxanh": 1400,
      "Ġvá»ı": 1401,
      "Ġchá»§": 1402,
      "Ġ13": 1403,
      "Ã²i": 1404,
      "Ġhá»įc": 1405,
      "ĠCÃ¡i": 1406,
      "ĠMÃł": 1407,
      "Ġcáº£i": 1408,
      "Ġtá»ĳn": 1409,
      "áº·p": 1410,
      "Ġfuji": 1411,
      "Ġlag": 1412,
      "Ġsá»ĳng": 1413,
      "ĠRáº¥t": 1414,
      "Ġká»³": 1415,
      "soft": 1416,
      "ull": 1417,
      "icrosoft": 1418,
      "Nh": 1419,
      "cÃ³": 1420,
      "ing": 1421,
      "mÃ¡y": 1422,
      "nhÃ¬n": 1423,
      "©a": 1424,
      "Ãģ": 1425,
      "ÃĶ": 1426,
      "Ġ?": 1427,
      "Ġtáº¡o": 1428,
      "ĠÄĳem": 1429,
      "Ġliá»ĩu": 1430,
      "nhÆ°ng": 1431,
      "ĠbÃłi": 1432,
      "ĠbÆ°á»Ľc": 1433,
      "Ġbáº¯t": 1434,
      "Ġblu": 1435,
      "Ġhai": 1436,
      "ĠdÃłi": 1437,
      "Ġngang": 1438,
      "Ġtráº£": 1439,
      "Ġtráº¡ng": 1440,
      "Ġquáº£ng": 1441,
      "Ġquá»ĳc": 1442,
      "Ġvá»¡": 1443,
      ".....": 1444,
      "Ġcá»Ńa": 1445,
      "Ġmá»©c": 1446,
      "Ġcháº¯n": 1447,
      "ĠÄĳáºŃp": 1448,
      "Ġthá»«a": 1449,
      "Ġthá»©c": 1450,
      "ĠCH": 1451,
      "ĠChÃ": 1452,
      "Ġdá»Ł": 1453,
      "Ãºi": 1454,
      "Ġchá»īnh": 1455,
      "ĠhÃ´m": 1456,
      "ĠÄĳá»Ļc": 1457,
      "Ġfan": 1458,
      "Ġphong": 1459,
      "mia": 1460,
      "Ġwin": 1461,
      "Ġtiáº¿c": 1462,
      "ĠbáºŃt": 1463,
      "Ġ950": 1464,
      "ĠDÃ¹ng": 1465,
      "Ġngá»§": 1466,
      "alaxy": 1467,
      "),": 1468,
      "NÃ³i": 1469,
      "ap": 1470,
      "as": 1471,
      "cháº": 1472,
      "ma": 1473,
      "mp": 1474,
      "tháº": 1475,
      "ÃŃt": 1476,
      "Ġq": 1477,
      "ĠÃŃch": 1478,
      "áºŃy": 1479,
      "Ġcua": 1480,
      "ĠtÃ´": 1481,
      "ĠtáºŃp": 1482,
      "Ġtivi": 1483,
      "ĠviÃªn": 1484,
      "ĠkÃ¬": 1485,
      "Ġbuá»ĵn": 1486,
      "ĠÄĳá»¡": 1487,
      "ĠtrÃ¬nh": 1488,
      "ĠtrÃŃ": 1489,
      "ĠxÃ¡c": 1490,
      "Ġgiáº£m": 1491,
      "ina": 1492,
      "Ġnháº¯n": 1493,
      "Ġhá»Ļ": 1494,
      "ĠSam": 1495,
      "Ġan": 1496,
      "ĠMicrosoft": 1497,
      "ĠNam": 1498,
      "ĠNokia": 1499,
      "Ġháº£": 1500,
      "ĠkhÃ¡ch": 1501,
      "Ġsá»£": 1502,
      "Ġsá»Ł": 1503,
      "ĠBphone": 1504,
      "ĠhoÃłi": 1505,
      "Ġwifi": 1506,
      "Ġtiáº¿n": 1507,
      "Ġmax": 1508,
      "Ġsá»Ńa": 1509,
      "etoot": 1510,
      "ell": 1511,
      "uild": 1512,
      "ĠtÃŃch": 1513,
      "ĠÄĳáº·t": 1514,
      "ĠghÃ©t": 1515,
      "ebook": 1516,
      "iiii": 1517,
      "etooth": 1518,
      "04": 1519,
      "Apple": 1520,
      "Báº¡n": 1521,
      "CÅ©ng": 1522,
      "Gb": 1523,
      "MÃ¡y": 1524,
      "Pin": 1525,
      "Sony": 1526,
      "Xáº¥u": 1527,
      "de": 1528,
      "um": 1529,
      "ve": 1530,
      "£m": 1531,
      "§m": 1532,
      "¨n": 1533,
      "©o": 1534,
      "²ng": 1535,
      "Ġá»ĳng": 1536,
      "Ľm": 1537,
      "áº¢": 1538,
      "Ġtáº¡": 1539,
      "ĠtÃłu": 1540,
      "ĠtÃºi": 1541,
      "ĠÄĳÆ°a": 1542,
      "ĠÄĳÆ¡n": 1543,
      "ĠmÃ£": 1544,
      "Ġliá»ģn": 1545,
      "Ġvo": 1546,
      "Ġbb": 1547,
      "ĠbÃ©": 1548,
      "Ġse": 1549,
      "iá»ħ": 1550,
      "Ġghi": 1551,
      "Ġgáº·p": 1552,
      "ĠdÆ°": 1553,
      "ĠdÃłnh": 1554,
      "ĠdÃły": 1555,
      "ĠrÆ¡i": 1556,
      "ĠrÃ¹i": 1557,
      "Ġchá»¥c": 1558,
      "áº¯ng": 1559,
      "ĠváºŃt": 1560,
      "ĠCÃ¡c": 1561,
      "ĠTH": 1562,
      "ĠTháº": 1563,
      "ĠTháºŃt": 1564,
      "ĠNháºŃt": 1565,
      "Ãºa": 1566,
      "ĠphÃŃ": 1567,
      "ĠphÃ²ng": 1568,
      "Ġ35": 1569,
      "ĠHD": 1570,
      "ĠnhÃ¢": 1571,
      "ĠVÃł": 1572,
      "ĠGiÃ¡": 1573,
      "ĠGiá»Ŀ": 1574,
      "Ġwatch": 1575,
      "ime": 1576,
      "uá»ķi": 1577,
      "ĠRAM": 1578,
      "Ġhá»ĵng": 1579,
      "ĠÄĳáº§y": 1580,
      "Ġkhoáº£n": 1581,
      "Ġrá»Ľt": 1582,
      "Ġmod": 1583,
      "ite": 1584,
      "Ġfile": 1585,
      "Má»Ļt": 1586,
      "ag": 1587,
      "ly": 1588,
      "per": 1589,
      "ÃĢ": 1590,
      "ĠĠ": 1591,
      "ĠQuÃ¡": 1592,
      "ĠÆ°u": 1593,
      "á»©": 1594,
      "á»±": 1595,
      "á»ģ": 1596,
      "ĠcÃ¢": 1597,
      "Ġcong": 1598,
      "ĠcÃ¢n": 1599,
      "Ġtung": 1600,
      "ĠtiÃªn": 1601,
      "Ġtáº¥m": 1602,
      "Ãłm": 1603,
      "Ġnam": 1604,
      "ĠÄĳe": 1605,
      "ĠÄĳen": 1606,
      "Ġmoi": 1607,
      "Ġláº¡": 1608,
      "ĠlÆ°u": 1609,
      "ĠlÆ°á»Ľt": 1610,
      "háº§n": 1611,
      "Ġviá»ĩt": 1612,
      "Ġbuild": 1613,
      "Ġsung": 1614,
      "Ġhy": 1615,
      "Ġduy": 1616,
      "ĠdÃ¡n": 1617,
      "ĠrÃºt": 1618,
      "ĠriÃªng": 1619,
      "ĠthÃ¢n": 1620,
      "Ġngoáº¡i": 1621,
      "Ġchang": 1622,
      "Ġtráº»": 1623,
      "Ġthiá»ĩt": 1624,
      "Ġvá»£": 1625,
      "iáº¿m": 1626,
      "Ġ14": 1627,
      "Ġgiao": 1628,
      "Ġbá»ķ": 1629,
      "ĠnháºŃp": 1630,
      "ĠMua": 1631,
      "ĠÄĳÃ¨n": 1632,
      "Ġgiá»¯a": 1633,
      "ĠNÃ³i": 1634,
      "Ġháº¡": 1635,
      "ĠháºŃn": 1636,
      "Ġháº¡i": 1637,
      "ĠHP": 1638,
      "uá»ĳt": 1639,
      "Ġtrá»«": 1640,
      "ĠBáº¡n": 1641,
      "are": 1642,
      "ĠPro": 1643,
      "Äĳang": 1644,
      "Ġipad": 1645,
      "elf": 1646,
      "Ġvid": 1647,
      "ĠOppo": 1648,
      "Ġzenfone": 1649,
      "Ġinch": 1650,
      "Ġbluetooth": 1651,
      "itech": 1652,
      "Qua": 1653,
      "Ráº¥t": 1654,
      "SU": 1655,
      "cÃ²n": 1656,
      "com": 1657,
      "ed": 1658,
      "eat": 1659,
      "náº¿u": 1660,
      "od": 1661,
      "oom": 1662,
      "pad": 1663,
      "te": 1664,
      "thÃ": 1665,
      "ub": 1666,
      "ĠÃ¡m": 1667,
      "ĭp": 1668,
      "á»ģn": 1669,
      "ĠcÃ¢y": 1670,
      "Ġti": 1671,
      "ĠtiÃª": 1672,
      "Ġtui": 1673,
      "ĠtÃ¡o": 1674,
      "ĠÄĳÃ´": 1675,
      "Ġlinh": 1676,
      "ĠvÃª": 1677,
      "Ġkg": 1678,
      "Ġkim": 1679,
      "Ġkiá»ĩm": 1680,
      "há»±c": 1681,
      "Ġbáº¡i": 1682,
      "ĠhÆ°á»Ľng": 1683,
      "Ġgáº¯n": 1684,
      "Ġda": 1685,
      "Ġrung": 1686,
      "áº¡ch": 1687,
      "Ġnha": 1688,
      "ĠnhiÃªu": 1689,
      "Ġtreo": 1690,
      "Ġtháº±ng": 1691,
      "Ġ15": 1692,
      "Ġ100": 1693,
      "ĠgiÆ¡": 1694,
      "Ġhá»ĳi": 1695,
      "ĠCon": 1696,
      "Ġ25": 1697,
      "ĠkhuyÃªn": 1698,
      "ÃŃu": 1699,
      "Ġná»Ńa": 1700,
      "Ġlá»ĭch": 1701,
      "ĠháºŃu": 1702,
      "Ġdá»±": 1703,
      "Ġ300": 1704,
      "ĠHuawei": 1705,
      "ard": 1706,
      "ĠÄĲang": 1707,
      "acbook": 1708,
      "Ġlog": 1709,
      "Ġdoanh": 1710,
      "Ġhá»ĵi": 1711,
      "ĠthÃ¡nh": 1712,
      "Ġ80": 1713,
      "ĠkhÃ³a": 1714,
      "ĠnghÄ©a": 1715,
      "Ġphá»¥c": 1716,
      "Ġlens": 1717,
      "ĠZenfone": 1718,
      "Ġquyáº¿t": 1719,
      "ovo": 1720,
      "Ġtuáº§n": 1721,
      "Ġcá»ķng": 1722,
      "elfie": 1723,
      "Huawei": 1724,
      "Sao": 1725,
      "al": 1726,
      "av": 1727,
      "date": 1728,
      "es": 1729,
      "ir": 1730,
      "ist": 1731,
      "má»": 1732,
      "nÃ³i": 1733,
      "oc": 1734,
      "rime": 1735,
      "urface": 1736,
      "·t": 1737,
      "Ġ0": 1738,
      "Ġone": 1739,
      "Ġáº§m": 1740,
      "Ġ....": 1741,
      "Ġ!!!": 1742,
      "ĳt": 1743,
      "á»Ľ": 1744,
      "áº¾": 1745,
      "Ġcáº¡n": 1746,
      "Ġno": 1747,
      "ĠnÃ¡": 1748,
      "ĠnÃ¨": 1749,
      "ĠÄĳáº¡i": 1750,
      "Ġmu": 1751,
      "ĠmÃ¡i": 1752,
      "Ġmáº·c": 1753,
      "Ġloi": 1754,
      "ĠvÃ²ng": 1755,
      "Ġbáº¯p": 1756,
      "Ġsáº¯p": 1757,
      "Ã³p": 1758,
      "ĠgÃ³c": 1759,
      "Ġdanh": 1760,
      "ĠdÃ¢n": 1761,
      "ĠrÃ¡ng": 1762,
      "Ġráº±ng": 1763,
      "ĠthÃ´": 1764,
      "Ġnga": 1765,
      "Ġnhi": 1766,
      "ĠÄĳá»©ng": 1767,
      "Ġchai": 1768,
      "ĠtrÃ´ng": 1769,
      "ĠtrÃ³c": 1770,
      "Ġtráº§y": 1771,
      "ĠxÃ³": 1772,
      "ĠxÃŃu": 1773,
      "ĠthÆ°": 1774,
      "Ġquáº¥t": 1775,
      "Ġtháº£m": 1776,
      "ual": 1777,
      "Ġbá»Łi": 1778,
      "Ġhá»ģ": 1779,
      "Ġváº·t": 1780,
      "Ġtá»Ń": 1781,
      "Ġtá»¥t": 1782,
      "Ġrat": 1783,
      "Ġcáº£nh": 1784,
      "Ġlá»Ŀi": 1785,
      "and": 1786,
      "ent": 1787,
      "ĠphÃ¹": 1788,
      "ĠÄĳiÃªn": 1789,
      "ĠAW": 1790,
      "Ġtrá»ĭ": 1791,
      "ĠLu": 1792,
      "Ġfla": 1793,
      "ĠphÃł": 1794,
      "ĠphiÃªn": 1795,
      "ome": 1796,
      "Äĳá»": 1797,
      "ĠhÃ£y": 1798,
      "ĠDell": 1799,
      "Ġrá»Ļng": 1800,
      "???": 1801,
      "Ġxá»Ń": 1802,
      "Ġxá»©ng": 1803,
      "thiáº¿t": 1804,
      "Ġ=))": 1805,
      "iá»ħn": 1806,
      "15": 1807,
      "400": 1808,
      "Ah": 1809,
      "DÃ¹ng": 1810,
      "MÃłn": 1811,
      "Viá»ģn": 1812,
      "Xiaomi": 1813,
      "berry": 1814,
      "ct": 1815,
      "fan": 1816,
      "ko": 1817,
      "mua": 1818,
      "oÃłi": 1819,
      "obi": 1820,
      "sh": 1821,
      "ty": 1822,
      "tÃ´i": 1823,
      "tel": 1824,
      "¥m": 1825,
      "©u": 1826,
      "±m": 1827,
      "ÃĮ": 1828,
      "Æ¯": 1829,
      "ĠÆ°": 1830,
      "Ġáº¿": 1831,
      "á»Ŀi": 1832,
      "áº¤": 1833,
      "ĠcáºŃn": 1834,
      "ĠtÃ¹": 1835,
      "Ġtáº¥t": 1836,
      "ĠÄĳÃ´i": 1837,
      "ĠÄĳáº£m": 1838,
      "ĠÄĳÃ¡m": 1839,
      "Ġman": 1840,
      "ĠmÃ¡t": 1841,
      "ĠláºŃp": 1842,
      "Ġve": 1843,
      "ĠvÆ¡": 1844,
      "ĠvÃŃ": 1845,
      "Ġvui": 1846,
      "Ġkiáº¿m": 1847,
      "Ġbt": 1848,
      "ĠsÆ¡": 1849,
      "Ġsuy": 1850,
      "Ġsai": 1851,
      "Ġselfie": 1852,
      "Ġhinh": 1853,
      "Ġhiá»ĥn": 1854,
      "Ġgáº¥p": 1855,
      "ĠdÃ¡m": 1856,
      "áº¿p": 1857,
      "Ġngá»ĵi": 1858,
      "Ġchua": 1859,
      "ĠxÃºc": 1860,
      "ĠxuyÃªn": 1861,
      "ĠxÃ©t": 1862,
      "ĠthÃł": 1863,
      "Ġthao": 1864,
      "Ġquen": 1865,
      "Ġquáº§n": 1866,
      "Ġvá»įc": 1867,
      "Ġcá»ĳ": 1868,
      "Ġmá»¥c": 1869,
      "á»ĳn": 1870,
      "ink": 1871,
      "Ġcháº¡": 1872,
      "Ġcháº¥p": 1873,
      "Ġcá»§ng": 1874,
      "Ġnháº§m": 1875,
      "Ġah": 1876,
      "ĠMong": 1877,
      "ĠMáº¥y": 1878,
      "Ġ20": 1879,
      "ĠÄĳÃŃch": 1880,
      "Ġlá»Ĺ": 1881,
      "Ġháº¥p": 1882,
      "Ġháº¡n": 1883,
      "Ġdá»¯": 1884,
      "ĠphÃŃa": 1885,
      "ĠASU": 1886,
      "uyá»ģn": 1887,
      "ÄĲÃºng": 1888,
      "ĠnhÃ¡i": 1889,
      "ĠVá»Ľi": 1890,
      "ĠÄĳá»Ļi": 1891,
      "Ġfull": 1892,
      "Ġpha": 1893,
      "usd": 1894,
      "ĠGR": 1895,
      "Ġkhá»ķ": 1896,
      "Ã£y": 1897,
      "Ġedge": 1898,
      "Ġkháº©u": 1899,
      "Ġupdate": 1900,
      "Ġsuáº¥t": 1901,
      "Ġthoáº£i": 1902,
      "ĠChá»ī": 1903,
      "Ġcáº¡ch": 1904,
      "TrÆ°á»Ľc": 1905,
      "ogle": 1906,
      "Ġ^^": 1907,
      "ĠÄĳÃ¡p": 1908,
      "12": 1909,
      "17": 1910,
      "55": 1911,
      "CÃ²n": 1912,
      "Iá»": 1913,
      "Láº¡i": 1914,
      "PS": 1915,
      "Tá»«": 1916,
      "ass": 1917,
      "bá»": 1918,
      "ber": 1919,
      "ble": 1920,
      "gi": 1921,
      "id": 1922,
      "ip": 1923,
      "mÃłu": 1924,
      "ps": 1925,
      "se": 1926,
      "tn": 1927,
      "ware": 1928,
      "ĠÃ´": 1929,
      "ĠÆ°a": 1930,
      "įt": 1931,
      "Ńi": 1932,
      "á»«a": 1933,
      "áº±m": 1934,
      "Ġtim": 1935,
      "ĠnÃ": 1936,
      "Ġnot": 1937,
      "Ġniá»ĩm": 1938,
      "Ġnáº±m": 1939,
      "ĠÄĳu": 1940,
      "hÃ¡": 1941,
      "ĠmÃ¡": 1942,
      "Ġmai": 1943,
      "ĠlÃŃ": 1944,
      "ĠlÆ°ng": 1945,
      "ĠlÃºa": 1946,
      "Ġvu": 1947,
      "há»Ŀi": 1948,
      "Ġbay": 1949,
      "Ġbphone": 1950,
      "Ġsh": 1951,
      "Ġhe": 1952,
      "Ġhu": 1953,
      "Ġhot": 1954,
      "Ġhic": 1955,
      "ĠgÃ¡i": 1956,
      "Ġgá»ĳc": 1957,
      "ĠgÃ³p": 1958,
      "ĠrÃ¢": 1959,
      "Ġrá»ĳi": 1960,
      "ĠthÃº": 1961,
      "Ġngáº¡i": 1962,
      "Ġnhe": 1963,
      "ĠchuyÃªn": 1964,
      "ĠchÄĥng": 1965,
      "ĠtrÆ°á»Ŀng": 1966,
      "Ġtriá»ĥn": 1967,
      "Ġxin": 1968,
      "Ġthe": 1969,
      "Ġtham": 1970,
      "Ã¹a": 1971,
      "ĠnÃłn": 1972,
      "Ġmá»Ŀ": 1973,
      "Ġmá»ĩt": 1974,
      "Ġmá»«ng": 1975,
      "Ġ18": 1976,
      "Ġcháº¥m": 1977,
      "Ġtá»Ļi": 1978,
      "Ġaw": 1979,
      "ĠMa": 1980,
      "ĠMacbook": 1981,
      "ĠchÃºng": 1982,
      "ĠNhÃ¬n": 1983,
      "Ġná»į": 1984,
      "Ġnhá»±a": 1985,
      "anon": 1986,
      "Ãºp": 1987,
      "Ġnghi": 1988,
      "Ġsá»Ľm": 1989,
      "ĠphÃ¡n": 1990,
      "Ġ32": 1991,
      "Ġ64": 1992,
      "ĠhÃ´": 1993,
      "Ġ50": 1994,
      "ĠPháº£i": 1995,
      "ĠÄĲÃºng": 1996,
      "ĠphÆ¡i": 1997,
      "ĠtoÃ¡n": 1998,
      "acebook": 1999,
      "ĠIOS": 2000,
      "Ġmain": 2001,
      "Ġ102": 2002,
      "Ġká»¹": 2003,
      "Ġchiáº¿u": 2004,
      "Ġkháº¯c": 2005,
      "ĠEm": 2006,
      "Ġsurface": 2007,
      "Ġthoáº£ng": 2008,
      "ĠTrong": 2009,
      "Ġquyá»ģn": 2010,
      "lien": 2011,
      "Ġmobile": 2012,
      "áº¹t": 2013,
      "lock": 2014,
      "NhÆ°ng": 2015,
      "áº¢nh": 2016,
      "peria": 2017,
      "ĠASUS": 2018,
      ",...": 2019,
      "100": 2020,
      "25": 2021,
      "200": 2022,
      "40": 2023,
      "60": 2024,
      "70": 2025,
      "Android": 2026,
      "Bá»": 2027,
      "ChÃ": 2028,
      "CÃ¡c": 2029,
      "Cá»©": 2030,
      "IN": 2031,
      "Iphone": 2032,
      "Kh": 2033,
      "MP": 2034,
      "Mua": 2035,
      "Máº¥y": 2036,
      "Note": 2037,
      "ON": 2038,
      "PU": 2039,
      "Ráº»": 2040,
      "UA": 2041,
      "bo": 2042,
      "bs": 2043,
      "cs": 2044,
      "dÃ¹ng": 2045,
      "ex": 2046,
      "ga": 2047,
      "iphone": 2048,
      "mm": 2049,
      "minh": 2050,
      "mAh": 2051,
      "ráº¥t": 2052,
      "uáº©n": 2053,
      "vÃł": 2054,
      "xáº¥u": 2055,
      "¥i": 2056,
      "¨m": 2057,
      "¹n": 2058,
      "âĢ": 2059,
      "ĠÃ¡": 2060,
      "ĠÆ°ng": 2061,
      "ĠÃ¡nh": 2062,
      "ĠÃło": 2063,
      "ĭn": 2064,
      "Łm": 2065,
      "Ńnh": 2066,
      "nghe": 2067,
      "Ġcung": 2068,
      "ĠcÆ°á»Ľi": 2069,
      "Ġtq": 2070,
      "Ġty": 2071,
      "ĠtáºŃn": 2072,
      "Ġnáº£n": 2073,
      "Ġnen": 2074,
      "Ġnáº¯p": 2075,
      "ĠÄĳua": 2076,
      "ĠÄĳÆ°Æ¡": 2077,
      "ĠÄĳiá»ĥn": 2078,
      "ĠÄĳÃ²i": 2079,
      "hÃª": 2080,
      "ĠmÃ´": 2081,
      "Ġlg": 2082,
      "ĠlÃ´": 2083,
      "Ġlao": 2084,
      "Ġlung": 2085,
      "Ġlong": 2086,
      "Ġláº§m": 2087,
      "ĠlÆ°Æ¡": 2088,
      "ĠvÃ¢": 2089,
      "Ġviáº¿t": 2090,
      "Ġke": 2091,
      "Ġbh": 2092,
      "Ġbong": 2093,
      "ĠbÃºt": 2094,
      "Ġbáº£ng": 2095,
      "Ġbuá»ķi": 2096,
      "Ġsw": 2097,
      "Ġhd": 2098,
      "Ġgom": 2099,
      "ĠgÃ¢y": 2100,
      "Ġgalaxy": 2101,
      "Ġduyá»ĩt": 2102,
      "Ġdep": 2103,
      "ĠrÃ´": 2104,
      "Ġroi": 2105,
      "Ġráº§m": 2106,
      "Ġroot": 2107,
      "Ġprime": 2108,
      "áº£y": 2109,
      "Ġnhung": 2110,
      "ĠnhÆ°á»£c": 2111,
      "ĠÄĳá»©a": 2112,
      "Ġche": 2113,
      "Ġchay": 2114,
      "Ġchiá»ģu": 2115,
      "Ġtrc": 2116,
      "ĠtrÃ²n": 2117,
      "Ġthoi": 2118,
      "Ġthui": 2119,
      "Ġvá»©t": 2120,
      "ĠtháºŃm": 2121,
      "Ġchá»¯": 2122,
      "iá»ĩp": 2123,
      "Ġmá»¹": 2124,
      "Ġmá»ıi": 2125,
      "á»ĳt": 2126,
      "iáº¿ng": 2127,
      "ine": 2128,
      "chÆ°a": 2129,
      "Ġpháº¿t": 2130,
      "Ġbá»ĥ": 2131,
      "Ġbá»±c": 2132,
      "Ġhá»©ng": 2133,
      "ĠSurface": 2134,
      "ĠCáº£m": 2135,
      "ĠCho": 2136,
      "ĠCamera": 2137,
      "Ġ21": 2138,
      "Ġ23": 2139,
      "uyáº¿t": 2140,
      "Ġkha": 2141,
      "Ġraw": 2142,
      "ĠTV": 2143,
      "ĠTuy": 2144,
      "ĠchÃ¢": 2145,
      "ĠchÃ©m": 2146,
      "ĠchÃ¡y": 2147,
      "Ġgiá»¯": 2148,
      "Ġlá»Łm": 2149,
      "Ġtá»ĳc": 2150,
      "Ġdá»ĭ": 2151,
      "enovo": 2152,
      "Ġnghiá»ĩp": 2153,
      "Ġsá»©c": 2154,
      "ĠphÃ¢": 2155,
      "Ġ30": 2156,
      "ÄĲiá»ĩn": 2157,
      "Ġlumia": 2158,
      "ĠHome": 2159,
      "Ġtrá»¯": 2160,
      "Ġ600": 2161,
      "ĠhÃ³ng": 2162,
      "ĠhÃºt": 2163,
      "Ġhoáº¡t": 2164,
      "Ġ40": 2165,
      "ĠyÃªn": 2166,
      "ĠÄĲT": 2167,
      "ĠÄĲáº": 2168,
      "Ġphai": 2169,
      "ĠGo": 2170,
      "Ġwm": 2171,
      "Ġwindows": 2172,
      "Ġgá»Ńi": 2173,
      "ĠXÃłi": 2174,
      "ĠkÃ©o": 2175,
      "ĠRam": 2176,
      "ndroi": 2177,
      "Ġhá»ĵn": 2178,
      "........": 2179,
      "ĠthÃ¡i": 2180,
      "Ġcháº£nh": 2181,
      "ĠWin": 2182,
      "hip": 2183,
      "ĠOK": 2184,
      "ĠObi": 2185,
      "lass": 2186,
      "Ġun": 2187,
      "Ġres": 2188,
      "Ġphá»ķ": 2189,
      "ieu": 2190,
      "Ã¨o": 2191,
      "ĠthoÃ¡t": 2192,
      "ĠChá»©": 2193,
      "Ġ:)))": 2194,
      "ort": 2195,
      "ĠUS": 2196,
      "lip": 2197,
      "!!!!!!!!": 2198,
      "kkkk": 2199,
      "chá»ī": 2200,
      "ĠJo": 2201,
      "ThÃ´i": 2202,
      "ThÃŃch": 2203,
      "ĠkÃ¨m": 2204,
      "EEEE": 2205,
      "mah": 2206,
      "tháº¥y": 2207,
      "Ġtáº¡m": 2208,
      "Ġvideo": 2209,
      "eater": 2210,
      "thÃŃch": 2211,
      "ube": 2212,
      "Ġlogitech": 2213,
      "ĠLumia": 2214,
      "ĠmÃ¡u": 2215,
      "14": 2216,
      "90": 2217,
      "AN": 2218,
      "Asus": 2219,
      "CÃłng": 2220,
      "CÃ´ng": 2221,
      "Camera": 2222,
      "Há»": 2223,
      "IP": 2224,
      "LE": 2225,
      "Mi": 2226,
      "Máº·t": 2227,
      "TE": 2228,
      "VÃł": 2229,
      "cáº¥u": 2230,
      "gh": 2231,
      "hÃłng": 2232,
      "nÃ³": 2233,
      "note": 2234,
      "nap": 2235,
      "out": 2236,
      "pe": 2237,
      "ph": 2238,
      "pin": 2239,
      "pro": 2240,
      "su": 2241,
      "ser": 2242,
      "un": 2243,
      "uch": 2244,
      "uto": 2245,
      "vÃ¬": 2246,
      "vie": 2247,
      "watch": 2248,
      "xÃłi": 2249,
      "£n": 2250,
      "¥ng": 2251,
      "§u": 2252,
      "³i": 2253,
      "´n": 2254,
      "Ġ!!": 2255,
      "ĩn": 2256,
      "ıe": 2257,
      "Ľp": 2258,
      "áºŃu": 2259,
      "Ġcm": 2260,
      "ĠcÆ°á»Ŀi": 2261,
      "Ġcom": 2262,
      "Ġcáº©n": 2263,
      "ĠcÄĥng": 2264,
      "ĠtÃªn": 2265,
      "ĠtÃ¢": 2266,
      "Ġtan": 2267,
      "Ġtuá»ķi": 2268,
      "Ġtcs": 2269,
      "Ġnokia": 2270,
      "Ġmot": 2271,
      "Ġmáº£ng": 2272,
      "ĠmÃ³c": 2273,
      "Ġlam": 2274,
      "ĠlÄĥ": 2275,
      "Ġliá»ĩt": 2276,
      "Ġláº¡c": 2277,
      "Ġláº¯p": 2278,
      "Ġláº«n": 2279,
      "ĠlÄĥn": 2280,
      "ĠlÃ²i": 2281,
      "ĠkÃª": 2282,
      "Ġkit": 2283,
      "ĠkÃŃch": 2284,
      "há»¯ng": 2285,
      "Ġbu": 2286,
      "ĠbÆ¡i": 2287,
      "Ġblack": 2288,
      "Ġsáº¯m": 2289,
      "Ġsho": 2290,
      "Ġgáº¡o": 2291,
      "Ġdáº¡i": 2292,
      "Ġdong": 2293,
      "Ġdáº§n": 2294,
      "ĠdÃŃnh": 2295,
      "Ġdáº§y": 2296,
      "ĠrÃ¨": 2297,
      "Ġpass": 2298,
      "ĠngÃ¡n": 2299,
      "Ġngá»ĳn": 2300,
      "Ġnhat": 2301,
      "Ġchuá»Ļ": 2302,
      "Ġtranh": 2303,
      "ĠxÆ°á»Ľc": 2304,
      "ĠkhÃºc": 2305,
      "ĠquÃªn": 2306,
      "ĠquÃ©t": 2307,
      "Ġvá»ĭ": 2308,
      "Ġcá»¡": 2309,
      "Ġcá»Ļng": 2310,
      "ĠtháºŃn": 2311,
      "Ġchá»¯a": 2312,
      "Ġchá»«ng": 2313,
      "iáº¿c": 2314,
      "ĠgiÃł": 2315,
      "ĠgiÃºp": 2316,
      "Ġthá»Ľt": 2317,
      "Ġnháº¯c": 2318,
      "ĠSh": 2319,
      "ĠSmart": 2320,
      "ĠSte": 2321,
      "ĠCÃ´ng": 2322,
      "ĠCook": 2323,
      "ĠCPU": 2324,
      "Ġá»§ng": 2325,
      "ĠMÃ¬": 2326,
      "ĠMÃłn": 2327,
      "ĠMat": 2328,
      "ĠMobi": 2329,
      "Ġ200": 2330,
      "Ġkhong": 2331,
      "ĠThÃ": 2332,
      "ĠTá»«": 2333,
      "ĠiOS": 2334,
      "ĠchÃº": 2335,
      "ÃŃa": 2336,
      "Ġdá»ĭch": 2337,
      "ank": 2338,
      "ĠphÃª": 2339,
      "ĠphÃºt": 2340,
      "ĠÄĳiÃª": 2341,
      "ĠAn": 2342,
      "Ġ3000": 2343,
      "ÄĲH": 2344,
      "ĠHÄĲH": 2345,
      "uá»ĳc": 2346,
      "Ġtrá»Ļi": 2347,
      "ĠBÃ¡c": 2348,
      "ĠnhÃ´m": 2349,
      "ĠVÃ¬": 2350,
      "Ġ500": 2351,
      "iÃªm": 2352,
      "arp": 2353,
      "ĠLo": 2354,
      "ĠPhone": 2355,
      "ĠPlus": 2356,
      "Ġfacebook": 2357,
      "ĠXperia": 2358,
      "ÄĳÃ£": 2359,
      "Ġload": 2360,
      "Ġkhá»±a": 2361,
      "Ġkhá»ıe": 2362,
      "ĠRO": 2363,
      "ĠKo": 2364,
      "ĠthÃ¡o": 2365,
      "Ġkhoe": 2366,
      "ĠWatch": 2367,
      "ĠFull": 2368,
      "Ġngá»Ŀ": 2369,
      "Ġrest": 2370,
      "Ġphá»¥": 2371,
      "Ġhá»įa": 2372,
      "ĠthuáºŃt": 2373,
      "ĠChá»¥p": 2374,
      "ive": 2375,
      "ĠTrung": 2376,
      "Ã©p": 2377,
      "ĠQuá»ĳc": 2378,
      "ĠMá»Ļt": 2379,
      "ĠMá»Ĺi": 2380,
      "Ġfix": 2381,
      "Cháº¯c": 2382,
      "ĠChÆ°a": 2383,
      "Ġmobist": 2384,
      "ĠtuyÃª": 2385,
      "Ġgoogle": 2386,
      "iiiiiiii": 2387,
      "Ġtáº¡p": 2388,
      "Ġvolu": 2389,
      "Ġmodel": 2390,
      "lymp": 2391,
      "istar": 2392,
      "Ġflash": 2393,
      "Ġcháº¡m": 2394,
      "lienware": 2395,
      "Ġunlock": 2396,
      "ĠJobs": 2397,
      "Ġchuá»Ļng": 2398,
      "ĠMatebook": 2399,
      "!?": 2400,
      "02": 2401,
      "11": 2402,
      "18": 2403,
      "24": 2404,
      "300": 2405,
      "700": 2406,
      "Ai": 2407,
      "CÃ¡": 2408,
      "IM": 2409,
      "Ko": 2410,
      "Mb": 2411,
      "Má»Ľi": 2412,
      "NH": 2413,
      "NÃ³": 2414,
      "Oppo": 2415,
      "PP": 2416,
      "Pháº£i": 2417,
      "Sam": 2418,
      "TB": 2419,
      "To": 2420,
      "Thá»±c": 2421,
      "Thá»Ŀi": 2422,
      "VÃ¢ng": 2423,
      "Vá»Ľi": 2424,
      "Vá»«a": 2425,
      "XÃłi": 2426,
      "báº¡n": 2427,
      "dmi": 2428,
      "ew": 2429,
      "ff": 2430,
      "gs": 2431,
      "huyÃªn": 2432,
      "il": 2433,
      "ix": 2434,
      "ion": 2435,
      "lic": 2436,
      "ne": 2437,
      "plus": 2438,
      "samsung": 2439,
      "tar": 2440,
      "tháºŃt": 2441,
      "up": 2442,
      "£t": 2443,
      "¨o": 2444,
      "Ãĵ": 2445,
      "Ġ;": 2446,
      "ĠY": 2447,
      "Ġ..": 2448,
      "ĠÆ°á»Ľc": 2449,
      "ĠQu": 2450,
      "ıa": 2451,
      "ĵng": 2452,
      "á»ŀ": 2453,
      "ĠcÃ´": 2454,
      "Ġcai": 2455,
      "Ġclip": 2456,
      "Ġten": 2457,
      "ĠtÃ½": 2458,
      "ĠtÃło": 2459,
      "Ġtuá»Ļt": 2460,
      "Ġtáº·ng": 2461,
      "ĠnÆ°": 2462,
      "Ġnao": 2463,
      "Ġnoi": 2464,
      "ĠÄĳáº¿": 2465,
      "ĠÄĳáº¡o": 2466,
      "ĠÄĳÃ¡o": 2467,
      "ĠÄĳáº¡t": 2468,
      "hÃ¨o": 2469,
      "ĠmÆ°á»£": 2470,
      "Ġmáº»": 2471,
      "Ġmac": 2472,
      "Ġly": 2473,
      "Ġvn": 2474,
      "Ġvuá»ĳt": 2475,
      "ĠkÃªu": 2476,
      "nhÆ°": 2477,
      "ĠbÃ³": 2478,
      "Ġbá»ĳ": 2479,
      "ĠbiÃª": 2480,
      "Ġbiá»ĥu": 2481,
      "ĠbÃ³ng": 2482,
      "Ġsc": 2483,
      "Ġsx": 2484,
      "Ġsong": 2485,
      "Ġsinh": 2486,
      "ĠsÄ©": 2487,
      "ĠsÆ¡n": 2488,
      "ĠsÃ¡t": 2489,
      "Ġsmp": 2490,
      "Ġsuá»ĳt": 2491,
      "ĠhiÃª": 2492,
      "ĠhÃło": 2493,
      "Ġhuawei": 2494,
      "Ã³m": 2495,
      "Ġga": 2496,
      "Ġgr": 2497,
      "Ġgáº¡ch": 2498,
      "Ġdang": 2499,
      "ĠdÃ¬m": 2500,
      "Ġdual": 2501,
      "ĠdÃ©p": 2502,
      "ĠrÃł": 2503,
      "ĠrÆ°á»Ľc": 2504,
      "ĠrÃ¡c": 2505,
      "ĠthÃ¨m": 2506,
      "Ġpo": 2507,
      "onn": 2508,
      "Ġngáº¯n": 2509,
      "ĠnghÃ¨o": 2510,
      "ĠÄĳá»©t": 2511,
      "Ġcha": 2512,
      "ĠchÆ°": 2513,
      "Ġchon": 2514,
      "ĠchÄĥ": 2515,
      "Ġchat": 2516,
      "Ġchuá»ĳi": 2517,
      "Ġtrai": 2518,
      "ĠtrÃ¡i": 2519,
      "ĠtrÄĥm": 2520,
      "Ġtráº¯ng": 2521,
      "Ġtruyá»ģn": 2522,
      "ĠxÃ¢": 2523,
      "Ġxáº¡c": 2524,
      "Ġxáº¿p": 2525,
      "Ġxáº£y": 2526,
      "Ġtha": 2527,
      "Ġthiá»ĩu": 2528,
      "Ġcá»¥": 2529,
      "Ġtháº³ng": 2530,
      "Ġtháº§n": 2531,
      "ĠgiÃ³": 2532,
      "ini": 2533,
      "Ġthá»īnh": 2534,
      "Ġpháº£n": 2535,
      "Ġbá»¯a": 2536,
      "Ġbá»¥i": 2537,
      "Ġnháº½": 2538,
      "Ġnháº¡y": 2539,
      "Ġhá»Ļi": 2540,
      "Ġhá»ĳt": 2541,
      "ĠSE": 2542,
      "ĠSá»": 2543,
      "ĠSao": 2544,
      "Ġtá»ķ": 2545,
      "Ġtá»©c": 2546,
      "Ġandroi": 2547,
      "Ġauto": 2548,
      "ĠCanon": 2549,
      "Ġá»ŀ": 2550,
      "Ġá»©c": 2551,
      "ĠMS": 2552,
      "ĠMang": 2553,
      "ĠMUA": 2554,
      "Ġ24": 2555,
      "ĠTÃŃnh": 2556,
      "ĠTim": 2557,
      "ĠTui": 2558,
      "ĠThá»±c": 2559,
      "ĠNH": 2560,
      "ĠNÃ³": 2561,
      "Ġlá»¡": 2562,
      "Ġlá»ĩ": 2563,
      "Ġlá»±c": 2564,
      "Ġháº¹n": 2565,
      "Ġháº§u": 2566,
      "Ġdá»«ng": 2567,
      "ĠnghiÃªm": 2568,
      "Ġsá»¥t": 2569,
      "ĠAPP": 2570,
      "ÄĲÆ°á»£c": 2571,
      "ÄĲáº¯t": 2572,
      "ÄĲÃ¢y": 2573,
      "Ġlum": 2574,
      "Ġlun": 2575,
      "ĠHo": 2576,
      "Ġtrá»±c": 2577,
      "ĠVi": 2578,
      "ĠVáºŃy": 2579,
      "ĠhÃª": 2580,
      "ĠhÃ³": 2581,
      "Ġhoa": 2582,
      "ĠLog": 2583,
      "ĠPR": 2584,
      "ĠPr": 2585,
      "ĠPhÃ": 2586,
      "ĠPay": 2587,
      "ĠPháº§n": 2588,
      "Ìī.": 2589,
      "ĠÄĲÃ³": 2590,
      "ĠphÃłn": 2591,
      "ĠIPhone": 2592,
      "Ġwp": 2593,
      "Ġair": 2594,
      "ĠkÃ©p": 2595,
      "Ġloáº¡n": 2596,
      "Ġkhá»Łi": 2597,
      "Ġmade": 2598,
      "Ġ99": 2599,
      "ice": 2600,
      "ĠDÃ¹": 2601,
      "Ġthich": 2602,
      "ettel": 2603,
      "Ġká»ĭp": 2604,
      "Ġchuyá»ĩn": 2605,
      "ada": 2606,
      "Ġsmartwatch": 2607,
      "ĠNhiá»ģu": 2608,
      "Ġrep": 2609,
      "Ġredmi": 2610,
      "Ġphá»©c": 2611,
      "Ġtab": 2612,
      "Ġmib": 2613,
      "ĠthuáºŃn": 2614,
      "Ġboard": 2615,
      "Ġduoc": 2616,
      "ore": 2617,
      "thua": 2618,
      "Ġbik": 2619,
      "ĠQua": 2620,
      "ĠMá»¹": 2621,
      "ĠCháº¯c": 2622,
      "ĠCháº³ng": 2623,
      "ĠChina": 2624,
      "ĠNgoÃłi": 2625,
      "Ġ2015": 2626,
      "ÄĲá»įc": 2627,
      "Chá»ī": 2628,
      "Tháº¥t": 2629,
      "Tháº¥y": 2630,
      "Ġlike": 2631,
      "Ġligh": 2632,
      "ÃģN": 2633,
      "ÃĶi": 2634,
      "ĠChÃ¡n": 2635,
      "cháº¯c": 2636,
      "ĠkÃ¬a": 2637,
      "umber": 2638,
      "agon": 2639,
      "Ġvidonn": 2640,
      "ĠxÃ³a": 2641,
      "ĠtÃ¹m": 2642,
      "ĠnÃ©m": 2643,
      "Ġhehe": 2644,
      "lassic": 2645,
      "outube": 2646,
      "view": 2647,
      "Ġcomm": 2648,
      "Ġblackberry": 2649,
      "ĠSteve": 2650,
      "Ġvolume": 2651,
      "lympus": 2652,
      "!?!": 2653,
      "ixel": 2654,
      "ĠmÆ°á»£n": 2655,
      "*#": 2656,
      ",,": 2657,
      "//": 2658,
      "05": 2659,
      "23": 2660,
      "201": 2661,
      "75": 2662,
      "950": 2663,
      ":))": 2664,
      "://": 2665,
      ">>": 2666,
      "BB": 2667,
      "Báº£n": 2668,
      "BÃ¡c": 2669,
      "Cáº£": 2670,
      "Cáº¥u": 2671,
      "Cáº§m": 2672,
      "Cáº£m": 2673,
      "DÃ¹": 2674,
      "DÃ²ng": 2675,
      "HD": 2676,
      "HP": 2677,
      "Háº¿t": 2678,
      "Ipad": 2679,
      "Káº¿t": 2680,
      "Minh": 2681,
      "NÃªn": 2682,
      "Pad": 2683,
      "Sau": 2684,
      "TÃŃnh": 2685,
      "Tá»Ľ": 2686,
      "UÃģ": 2687,
      "Váº«n": 2688,
      "Zen": 2689,
      "_^": 2690,
      "alo": 2691,
      "ce": 2692,
      "co": 2693,
      "chÃ": 2694,
      "cÃ¡": 2695,
      "cÃ´ng": 2696,
      "cÃ¡c": 2697,
      "camera": 2698,
      "cá»©": 2699,
      "dy": 2700,
      "der": 2701,
      "dÃ²ng": 2702,
      "eu": 2703,
      "ear": 2704,
      "edge": 2705,
      "ha": 2706,
      "her": 2707,
      "ik": 2708,
      "io": 2709,
      "iPhone": 2710,
      "ike": 2711,
      "ll": 2712,
      "ltr": 2713,
      "mÃłn": 2714,
      "mar": 2715,
      "má»Ľi": 2716,
      "phÃ": 2717,
      "pháº§n": 2718,
      "port": 2719,
      "rom": 2720,
      "sau": 2721,
      "ti": 2722,
      "ter": 2723,
      "tuyá»ĩt": 2724,
      "ting": 2725,
      "ud": 2726,
      "ur": 2727,
      "uÃ´n": 2728,
      "ver": 2729,
      "vá»Ľi": 2730,
      "vá»ģ": 2731,
      "wa": 2732,
      "yw": 2733,
      "¡ng": 2734,
      "¢u": 2735,
      "£y": 2736,
      "¹i": 2737,
      "»o": 2738,
      "Ġon": 2739,
      "ĠÃª": 2740,
      "ĠÆ¡n": 2741,
      "Ġ??": 2742,
      "Ġ.....": 2743,
      "Ġáº¤": 2744,
      "ĤU": 2745,
      "ĥng": 2746,
      "ĬN": 2747,
      "ĭa": 2748,
      "ĳn": 2749,
      "Ļc": 2750,
      "á»ĥ": 2751,
      "áº³ng": 2752,
      "ngon": 2753,
      "ĠchÃ¬": 2754,
      "ĠcÆ°á»Ľ": 2755,
      "ĠcÃº": 2756,
      "ĠcÃ¢u": 2757,
      "Ġcro": 2758,
      "Ġcáº¯p": 2759,
      "Ġcty": 2760,
      "Ġtáº£": 2761,
      "ĠtÆ¡": 2762,
      "Ġtoi": 2763,
      "Ġtot": 2764,
      "ĠtÆ°Æ¡": 2765,
      "Ġtáº£i": 2766,
      "ĠnÃª": 2767,
      "ĠnhÃ¬": 2768,
      "Ġntn": 2769,
      "Ġnex": 2770,
      "Ġnumber": 2771,
      "ĠÄĥng": 2772,
      "ĠÄĳam": 2773,
      "ĠÄĳáº¥t": 2774,
      "ĠÄĳÄĥ": 2775,
      "ĠÄĳau": 2776,
      "ĠÄĳÆ°Æ¡ng": 2777,
      "ĠmÆ°": 2778,
      "ĠmÃ³": 2779,
      "ĠmÃ¢": 2780,
      "ĠmÄĥ": 2781,
      "Ġmáº½": 2782,
      "Ġmanh": 2783,
      "Ġmáº§u": 2784,
      "Ġmiá»ħn": 2785,
      "Ġmini": 2786,
      "Ġlau": 2787,
      "ĠlÆ°Æ¡ng": 2788,
      "ĠlÃ£": 2789,
      "Ġláº¯c": 2790,
      "ĠvÃ¡": 2791,
      "Ġvong": 2792,
      "Ġvan": 2793,
      "ĠvÆ°á»£t": 2794,
      "ĠvÃºt": 2795,
      "ĠvÆ°á»Ľng": 2796,
      "ĠvÃ£i": 2797,
      "Ġváº§y": 2798,
      "Ġki": 2799,
      "ĠkÃŃ": 2800,
      "ĠkÄ©": 2801,
      "ĠbÃ¹": 2802,
      "ĠbÃ²": 2803,
      "Ġbung": 2804,
      "ĠbÄĥng": 2805,
      "Ġbook": 2806,
      "Ġsáº»": 2807,
      "Ġset": 2808,
      "Ġsame": 2809,
      "ĠsÆ°u": 2810,
      "Ġsty": 2811,
      "Ġsnap": 2812,
      "iá»ĳng": 2813,
      "Ġhang": 2814,
      "Ġgb": 2815,
      "Ġgam": 2816,
      "Ġdáº¥u": 2817,
      "Ġdiá»ĩu": 2818,
      "Ġdá»ĳc": 2819,
      "ĠdÃµ": 2820,
      "Ġru": 2821,
      "Ġroom": 2822,
      "ĠrÃ¹a": 2823,
      "ĠthÃ£i": 2824,
      "Æ°á»¡ng": 2825,
      "áº¥c": 2826,
      "Ġngu": 2827,
      "ĠngÆ°á»£c": 2828,
      "Ġngáº¯m": 2829,
      "ĠngÃłn": 2830,
      "áº¡m": 2831,
      "ĠÄĳá»ı": 2832,
      "ĠÄĳá»ķ": 2833,
      "ĠchÆ°á»Ľc": 2834,
      "ĠchiÃª": 2835,
      "Ġchina": 2836,
      "Ġtru": 2837,
      "ĠtrÃ²": 2838,
      "ĠtrÃłn": 2839,
      "ĠtriÃª": 2840,
      "ĠtrÃło": 2841,
      "Ġxo": 2842,
      "Ġxai": 2843,
      "Ġxinh": 2844,
      "ĠthÆ¡": 2845,
      "Ġthuyáº¿t": 2846,
      "ĠquÃª": 2847,
      "Ġquáº£n": 2848,
      "Ġquáº¡t": 2849,
      "Ġvá»ĳn": 2850,
      "Ġtháº©m": 2851,
      "Ġchá»£": 2852,
      "iáº¿p": 2853,
      "Ġ17": 2854,
      "Ġ19": 2855,
      "ĠgiÃ´": 2856,
      "Ġgiáº¥c": 2857,
      "ĠcháºŃp": 2858,
      "cho": 2859,
      "Ġthá»ģ": 2860,
      "Ġthá»ıa": 2861,
      "Ġbá»±": 2862,
      "Ġbá»įn": 2863,
      "Ġbá»Ľt": 2864,
      "Ìģ,": 2865,
      "Ìģ.": 2866,
      "emi": 2867,
      "Ġhá»Ł": 2868,
      "Ġhá»©a": 2869,
      "Ġváº©n": 2870,
      "ĠSD": 2871,
      "ĠSH": 2872,
      "ĠSau": 2873,
      "ĠSIM": 2874,
      "Ġad": 2875,
      "ĠMáº¥t": 2876,
      "Ġkhe": 2877,
      "Ġkhung": 2878,
      "Ġkhiá»ĥn": 2879,
      "Ġran": 2880,
      "ĠÄĳÃ´ng": 2881,
      "Ġit": 2882,
      "Ġifan": 2883,
      "ĠchÃŃp": 2884,
      "ĠchÃºc": 2885,
      "ĠNG": 2886,
      "ĠNháº": 2887,
      "ĠNÃªn": 2888,
      "Ġná»Ĺi": 2889,
      "Ġnhá»ĭp": 2890,
      "Ġháº¹p": 2891,
      "Ġháº¡t": 2892,
      "Ġháº»o": 2893,
      "ĠÄĳá»ĥu": 2894,
      "ans": 2895,
      "ens": 2896,
      "Ãºn": 2897,
      "ĠbÃ¡t": 2898,
      "ĠphÃ©p": 2899,
      "ĠAlienware": 2900,
      "oto": 2901,
      "otos": 2902,
      "ĠluáºŃn": 2903,
      "ĠHi": 2904,
      "ĠHy": 2905,
      "ĠHá»": 2906,
      "ĠHÃ¬nh": 2907,
      "ĠHay": 2908,
      "ĠHiá»ĩn": 2909,
      "ĠHÃłng": 2910,
      "ĠHÃ£y": 2911,
      "Ġtrá»ħ": 2912,
      "Ġ60": 2913,
      "ĠBÃ¢y": 2914,
      "ĠnhÃ²": 2915,
      "ĠVá»ģ": 2916,
      "Ġ520": 2917,
      "ĠÃĶ": 2918,
      "Ġhoang": 2919,
      "ara": 2920,
      "ĠLÃºc": 2921,
      "ĠLenovo": 2922,
      "ĠPh": 2923,
      "ĠPan": 2924,
      "ĠÄĳÃ³ng": 2925,
      "Ġyoutube": 2926,
      "ĠÄĲo": 2927,
      "ĠÄĲiá»ĩn": 2928,
      "ĠÄĲÃ£": 2929,
      "ĠÄĲÆ¡n": 2930,
      "Ġphan": 2931,
      "Ġphiá»ģn": 2932,
      "use": 2933,
      "Ġtop": 2934,
      "ĠGi": 2935,
      "ĠGalaxy": 2936,
      "ĠIn": 2937,
      "Ġwa": 2938,
      "Ġgá»Ľm": 2939,
      "ĠXÃło": 2940,
      "ĠXPS": 2941,
      "trong": 2942,
      "Ġkhá»ĳi": 2943,
      "ĠRiÃªng": 2944,
      "dragon": 2945,
      "ĠKhi": 2946,
      "ĠKhuyÃªn": 2947,
      "Ġcá»©u": 2948,
      "Ġ700": 2949,
      "Ġzoom": 2950,
      "Ġká»ģ": 2951,
      "Ä©nh": 2952,
      "ĠWP": 2953,
      "ĠWifi": 2954,
      "Ġchup": 2955,
      "Thua": 2956,
      "Theo": 2957,
      "Ġcore": 2958,
      "Ġviettel": 2959,
      "ĠOS": 2960,
      "ĠOne": 2961,
      "Ġor": 2962,
      "Ġreview": 2963,
      "áº«y": 2964,
      "ĠnhÃłm": 2965,
      "ĠIPS": 2966,
      "ies": 2967,
      "Ġthoa": 2968,
      "Ġbody": 2969,
      "ĠSSD": 2970,
      "Ġxá»ĭn": 2971,
      "Ġlenovo": 2972,
      "ĠUltr": 2973,
      "Ġhtt": 2974,
      "ĠThay": 2975,
      "ĠThink": 2976,
      "Trá»Ŀi": 2977,
      "Ġkháº£o": 2978,
      "ĠCháº¥t": 2979,
      "Cháº£": 2980,
      "Cháº³ng": 2981,
      "ĠÄĳoáº¡n": 2982,
      "Ġ1200": 2983,
      "Ġ1280": 2984,
      "Ġ=>": 2985,
      "ĠNghe": 2986,
      "chá»¥p": 2987,
      "ove": 2988,
      "áº¹o": 2989,
      "Ġ2011": 2990,
      "Ġ2016": 2991,
      "ÄĲá»£i": 2992,
      "ĠÄĲá»ĥ": 2993,
      "Chá»¥p": 2994,
      "ÃĶNG": 2995,
      "Ġwinphone": 2996,
      "cháº³ng": 2997,
      "ĠmÃ£n": 2998,
      "ĠTháº¿": 2999,
      "irus": 3000,
      "má»Ĺi": 3001,
      "ĠmuÃ´n": 3002,
      "ĠxÃ³t": 3003,
      "ctive": 3004,
      "ÃĮNH": 3005,
      "tning": 3006,
      "Ġmail": 3007,
      "ĠvuÃ´ng": 3008,
      "Khong": 3009,
      "Ġhdh": 3010,
      "Ġcheck": 3011,
      "ĠROM": 3012,
      "Ġmobistar": 3013,
      "Ġnháº½o": 3014,
      "ĠLogitech": 3015,
      "ĠPremi": 3016,
      "Ġrepeater": 3017,
      "Ġmiband": 3018,
      "Ġcomment": 3019,
      "chÃ¡n": 3020,
      "ikon": 3021,
      "ĠcÆ°á»Ľp": 3022,
      "Ġcrop": 3023,
      "ĠnhÃ¬u": 3024,
      "Ġnext": 3025,
      "ĠmÃ³n": 3026,
      "ĠlÃ£m": 3027,
      "Ġsetting": 3028,
      "Ġstyle": 3029,
      "ĠThinkpad": 3030,
      "\".": 3031,
      "%,": 3032,
      "%.": 3033,
      "16": 3034,
      "35": 3035,
      "99": 3036,
      "AC": 3037,
      "Ba": 3038,
      "CS": 3039,
      "Cá»": 3040,
      "Chi": 3041,
      "EO": 3042,
      "ER": 3043,
      "Galaxy": 3044,
      "Giá»ĳng": 3045,
      "Hp": 3046,
      "Hy": 3047,
      "Hz": 3048,
      "HÃ¬nh": 3049,
      "Hay": 3050,
      "HTC": 3051,
      "HON": 3052,
      "Iáº¾": 3053,
      "LT": 3054,
      "La": 3055,
      "Le": 3056,
      "LÃºc": 3057,
      "LÃłm": 3058,
      "Lenovo": 3059,
      "MÃª": 3060,
      "Mong": 3061,
      "Muá»ĳn": 3062,
      "Nhá»¯ng": 3063,
      "OD": 3064,
      "Pháº§n": 3065,
      "QUÃģ": 3066,
      "Ra": 3067,
      "Ram": 3068,
      "SS": 3069,
      "Sáº½": 3070,
      "Sai": 3071,
      "Sáº¡c": 3072,
      "SiÃªu": 3073,
      "Smart": 3074,
      "Surface": 3075,
      "Táº¡i": 3076,
      "Thi": 3077,
      "TÃ¡o": 3078,
      "Tivi": 3079,
      "UY": 3080,
      "ak": 3081,
      "ax": 3082,
      "br": 3083,
      "ban": 3084,
      "cá»": 3085,
      "cer": 3086,
      "cÅ©ng": 3087,
      "ec": 3088,
      "ess": 3089,
      "fit": 3090,
      "gap": 3091,
      "hj": 3092,
      "hu": 3093,
      "hy": 3094,
      "hiá»ĩn": 3095,
      "hÆ¡i": 3096,
      "ile": 3097,
      "iss": 3098,
      "ky": 3099,
      "kiá»ĥu": 3100,
      "káº¿t": 3101,
      "lÃªn": 3102,
      "lay": 3103,
      "lÃłm": 3104,
      "mn": 3105,
      "min": 3106,
      "man": 3107,
      "nÃªn": 3108,
      "net": 3109,
      "niv": 3110,
      "op": 3111,
      "oss": 3112,
      "pg": 3113,
      "pu": 3114,
      "py": 3115,
      "pháº£i": 3116,
      "rus": 3117,
      "rome": 3118,
      "sa": 3119,
      "sp": 3120,
      "sao": 3121,
      "sÃłi": 3122,
      "sfit": 3123,
      "tb": 3124,
      "tc": 3125,
      "tin": 3126,
      "tá»±": 3127,
      "tsu": 3128,
      "ure": 3129,
      "uck": 3130,
      "va": 3131,
      "váº«n": 3132,
      "xe": 3133,
      "xl": 3134,
      "xp": 3135,
      "xin": 3136,
      "ye": 3137,
      "yn": 3138,
      "yan": 3139,
      "zen": 3140,
      "¨ng": 3141,
      "©y": 3142,
      "³m": 3143,
      "µn": 3144,
      "ÃĻ": 3145,
      "ÃĬN": 3146,
      "Å©": 3147,
      "Ġ$": 3148,
      "Ġ&": 3149,
      "Ġ'": 3150,
      "Ġ>": 3151,
      "Ġá»ĳ": 3152,
      "Ġam": 3153,
      "Ġá»ĵ": 3154,
      "ĠÃ´i": 3155,
      "Ġáº¹p": 3156,
      "Ġ))": 3157,
      "Ġáº©n": 3158,
      "Ġji": 3159,
      "Ġusd": 3160,
      "ĠâĢ": 3161,
      "ĩnh": 3162,
      "įp": 3163,
      "ım": 3164,
      "Ļm": 3165,
      "á»ľ": 3166,
      "áºł": 3167,
      "ngÆ°á»Ŀi": 3168,
      "Ġcanh": 3169,
      "ĠcÃłnh": 3170,
      "ĠcÆ°á»Ŀng": 3171,
      "Ġcuá»ĵ": 3172,
      "Ġtv": 3173,
      "ĠtÃ¹ng": 3174,
      "Ġtá»ĵi": 3175,
      "Ġtáº§n": 3176,
      "ĠtÃłn": 3177,
      "Ġtuá»": 3178,
      "ĠtÄĥn": 3179,
      "Ġtime": 3180,
      "Ġtáº¹t": 3181,
      "ĠtáºŃu": 3182,
      "Ġtáº¹o": 3183,
      "ĠnÃ´": 3184,
      "Ġnang": 3185,
      "ĠnÆ°Æ¡": 3186,
      "ĠnÃ£": 3187,
      "Ġnet": 3188,
      "Ġnáº§y": 3189,
      "ĠnÃ¡t": 3190,
      "Ġnáº¯ng": 3191,
      "ĠÄĳÃ¬nh": 3192,
      "ĠÄĳÃłi": 3193,
      "ĠÄĳÃłn": 3194,
      "ĠÄĳiá»ĩu": 3195,
      "hÃ©t": 3196,
      "Ġmp": 3197,
      "ĠmÃ¹": 3198,
      "Ġmen": 3199,
      "ĠmÆ°a": 3200,
      "Ġmáº¯n": 3201,
      "Ġmáº¹": 3202,
      "ĠmÃ¹a": 3203,
      "ĠmÃŃa": 3204,
      "ĠmÃºn": 3205,
      "Ġle": 3206,
      "Ġláº£": 3207,
      "ĠlÃ¹i": 3208,
      "Ġled": 3209,
      "ĠvÆ°": 3210,
      "Ġvay": 3211,
      "Ġvoi": 3212,
      "ĠviÃª": 3213,
      "ĠvÃ¡c": 3214,
      "ĠvÄĥn": 3215,
      "Ġviá»ħn": 3216,
      "Ġkeo": 3217,
      "Ġkiá»ĩt": 3218,
      "Ġkiá»ĥm": 3219,
      "há»©": 3220,
      "Ġbx": 3221,
      "ĠbÄĥ": 3222,
      "Ġben": 3223,
      "Ġbat": 3224,
      "Ġback": 3225,
      "Ġbáº§u": 3226,
      "Ġbuá»Ļc": 3227,
      "ĠbÃ¨o": 3228,
      "Ġbye": 3229,
      "Ġsm": 3230,
      "Ġsv": 3231,
      "Ġsáº": 3232,
      "ĠsÆ°": 3233,
      "ĠsÃ´": 3234,
      "ĠsÄĥ": 3235,
      "Ġser": 3236,
      "ĠsÆ°Æ¡ng": 3237,
      "Ġshi": 3238,
      "Ġsky": 3239,
      "Ġham": 3240,
      "Ġhanh": 3241,
      "ĠhÄĳ": 3242,
      "Ġhuyá»ģn": 3243,
      "Ġhuyáº¿t": 3244,
      "Ã³a": 3245,
      "Ġgháº": 3246,
      "Ġgear": 3247,
      "Ġde": 3248,
      "Ġdl": 3249,
      "ĠdÃª": 3250,
      "ĠdÆ¡": 3251,
      "Ġdem": 3252,
      "ĠdÃŃ": 3253,
      "ĠdÃłng": 3254,
      "Ġden": 3255,
      "Ġdau": 3256,
      "Ġdat": 3257,
      "ĠdÆ°Æ¡ng": 3258,
      "ĠdÃ£i": 3259,
      "ĠdÄĥm": 3260,
      "ĠrÆ°á»": 3261,
      "ĠrÃª": 3262,
      "Ġriáº¿t": 3263,
      "ĠrÃłng": 3264,
      "ĠthÃ³i": 3265,
      "ont": 3266,
      "onic": 3267,
      "Ġngáº¥t": 3268,
      "Ġnguy": 3269,
      "ĠngÃ´i": 3270,
      "ĠngÃ¢m": 3271,
      "Ġnhiá»ĩt": 3272,
      "ĠnhÄĥn": 3273,
      "Ġnhiá»ħ": 3274,
      "ĠÄĳá»¥ng": 3275,
      "ĠÄĳá»£t": 3276,
      "ĠÄĳá»ĭa": 3277,
      "Ġchia": 3278,
      "ĠchiÃªu": 3279,
      "Ġchrome": 3280,
      "Ġtra": 3281,
      "ĠtrÆ¡": 3282,
      "Ġtren": 3283,
      "Ġtrack": 3284,
      "Ġtrá»ĳng": 3285,
      "qua": 3286,
      "Ġxi": 3287,
      "Ġxau": 3288,
      "Ġthang": 3289,
      "Ġthem": 3290,
      "Ġthat": 3291,
      "ĠthiÃªn": 3292,
      "ĠthÆ°á»Łng": 3293,
      "Ġthuá»Ļc": 3294,
      "ĠkhÃ´": 3295,
      "ĠkhÃ¢u": 3296,
      "Ġvá»ĩ": 3297,
      "Ġvá»±c": 3298,
      "Ġcá»ĵng": 3299,
      "Ġtháº£i": 3300,
      "Ã¹m": 3301,
      "Ġmá»¥": 3302,
      "Ġmá»ĭn": 3303,
      "Ġ11": 3304,
      "Ġgio": 3305,
      "Ġgiáº£": 3306,
      "ĠgiÃ¢y": 3307,
      "ĠÄĳáº¯c": 3308,
      "ĠÄĳáº¯ng": 3309,
      "ama": 3310,
      "Ã²m": 3311,
      "á»ĵng": 3312,
      "chuáº©n": 3313,
      "chmar": 3314,
      "Ġbá»ī": 3315,
      "Ġbá»©c": 3316,
      "Ġnháº£m": 3317,
      "Ġnháº£y": 3318,
      "Ġhá»ī": 3319,
      "Ġhá»ĳ": 3320,
      "ĠváºŃn": 3321,
      "ĠSÃ¡m": 3322,
      "ĠSAM": 3323,
      "ĠStar": 3324,
      "Ġtá»·": 3325,
      "Ġap": 3326,
      "ĠCa": 3327,
      "ĠCáº¥u": 3328,
      "ĠCÃĵ": 3329,
      "ĠClassic": 3330,
      "ĠCEO": 3331,
      "ĠCOD": 3332,
      "ĠCyan": 3333,
      "Ġá»įp": 3334,
      "ĠMá»Ľi": 3335,
      "ĠMÃĮNH": 3336,
      "Ġ250": 3337,
      "Ġ2700": 3338,
      "uyáº¿n": 3339,
      "Ġkhai": 3340,
      "ĠkhÄĥn": 3341,
      "Ġkhiáº¿p": 3342,
      "Ġkhuyáº¿n": 3343,
      "ĠTR": 3344,
      "ĠTo": 3345,
      "ĠTq": 3346,
      "ĠTáº¯t": 3347,
      "ĠTá»±": 3348,
      "ĠThá»Ŀi": 3349,
      "ĠThá»©": 3350,
      "ĠÄĳÃºt": 3351,
      "ĠchÃ³ng": 3352,
      "ĠchÃ³i": 3353,
      "Ġgiá»įng": 3354,
      "ĠNhá»¯ng": 3355,
      "Ġná»¯": 3356,
      "Ġná»ģn": 3357,
      "Ġlá»ģ": 3358,
      "Ġlá»Ļ": 3359,
      "Ġlá»«a": 3360,
      "Ġlá»įc": 3361,
      "Ġlá»įt": 3362,
      "Ġnhá»Ŀ": 3363,
      "Ġháº§m": 3364,
      "anada": 3365,
      "...!": 3366,
      "...?": 3367,
      "ence": 3368,
      "enchmar": 3369,
      "ĠkhÃ¡i": 3370,
      "ers": 3371,
      "ĠAi": 3372,
      "ĠAnh": 3373,
      "ĠActive": 3374,
      "ĠAcer": 3375,
      "Ġ34": 3376,
      "ÄĲá»ĵng": 3377,
      "less": 3378,
      "ĠBá»": 3379,
      "ĠBáº£n": 3380,
      "ĠBook": 3381,
      "ĠBack": 3382,
      "ĠBÃ¡o": 3383,
      "ĠnhÃ¡": 3384,
      "ĠnhÃ¨": 3385,
      "ĠnhÃ¡y": 3386,
      "ĠnhÃ©t": 3387,
      "ĠVn": 3388,
      "ĠVáº«n": 3389,
      "ĠVirus": 3390,
      "ĠhÃ²": 3391,
      "ĠhÃ¡t": 3392,
      "ĠÃĢ": 3393,
      "ĠÃĤ": 3394,
      "ĠÃ©o": 3395,
      "Ġhoáº¡": 3396,
      "ĠhoÄĥ": 3397,
      "ĠhoÃłng": 3398,
      "Ġ43": 3399,
      "Ġ45": 3400,
      "ĠLáº¡i": 3401,
      "ĠLas": 3402,
      "ĠLum": 3403,
      "ĠLTE": 3404,
      "ĠLike": 3405,
      "Ġya": 3406,
      "Ġyá»ĥ": 3407,
      "ĠÄĲÆ°á»£c": 3408,
      "ĠÄĲáº¿n": 3409,
      "ĠÄĲáº¹p": 3410,
      "ĠÄĲiá»ĥm": 3411,
      "Ġfai": 3412,
      "Ġfit": 3413,
      "Ġphu": 3414,
      "user": 3415,
      "ĠGS": 3416,
      "ĠIp": 3417,
      "ĠIfan": 3418,
      "Ġwi": 3419,
      "ation": 3420,
      "Æ°á»Ŀm": 3421,
      "Ġgá»¡": 3422,
      "ĠXA": 3423,
      "ĠXE": 3424,
      "ĠXem": 3425,
      "trÆ¡n": 3426,
      "trá»«": 3427,
      "Ġlaser": 3428,
      "Äĳa": 3429,
      "Äĳi": 3430,
      "Äĳiá»ĩn": 3431,
      "ÄĳÃ¢y": 3432,
      "Ġloáº±ng": 3433,
      "Ġlove": 3434,
      "ĠRA": 3435,
      "ĠRá»ĵi": 3436,
      "ĠRom": 3437,
      "ĠRep": 3438,
      "Ġmah": 3439,
      "ĠKiá»ĥu": 3440,
      "ĠKáº¿t": 3441,
      "ĠKho": 3442,
      "ĠKhÃ¡": 3443,
      "Ġ10400": 3444,
      "oidid": 3445,
      "Ġelu": 3446,
      "......": 3447,
      "ĠDual": 3448,
      "eta": 3449,
      "ĠphÃ¡p": 3450,
      "Ġzalo": 3451,
      "Ġká»ĩ": 3452,
      "Ġkhoa": 3453,
      "ĠWIN": 3454,
      "hix": 3455,
      "ĠngoÃ¡i": 3456,
      "ĠchuÃ´ng": 3457,
      "Ġcopy": 3458,
      "Ġcap": 3459,
      "Ġvirus": 3460,
      "ade": 3461,
      "toot": 3462,
      "Ġoai": 3463,
      "Ġnháº¡t": 3464,
      "ĠtÃŃm": 3465,
      "Ġngá»¯": 3466,
      "Ġngá»Ńa": 3467,
      "ĠchÃªnh": 3468,
      "Ġjav": 3469,
      "Ġphá»ĳi": 3470,
      "Ġtable": 3471,
      "uá»Ļi": 3472,
      "????": 3473,
      "Ġzenphone": 3474,
      "hop": 3475,
      "ĠEdge": 3476,
      "ĠthuÃª": 3477,
      "ĠChá»Ŀ": 3478,
      "NgÃły": 3479,
      "Nghe": 3480,
      "Ġbox": 3481,
      "Ġbass": 3482,
      "Ġ:))))": 3483,
      "theo": 3484,
      "ĠUX": 3485,
      "ĠThÃł": 3486,
      "ĠTheo": 3487,
      "ĠThank": 3488,
      "TrÃ´ng": 3489,
      "ogen": 3490,
      "ChÆ°a": 3491,
      "Chuáº©n": 3492,
      "ulse": 3493,
      "ĠCháº£": 3494,
      "Ġspace": 3495,
      "Ġsport": 3496,
      "Ġ128": 3497,
      "Ġthá»§a": 3498,
      "Ġmobiistar": 3499,
      "chá»©": 3500,
      "Ġ2012": 3501,
      "ÄĲá»«ng": 3502,
      "ĠÄĲá»¡": 3503,
      "load": 3504,
      "Chá»Ŀ": 3505,
      "atek": 3506,
      "303": 3507,
      "Ġ^_^": 3508,
      "Ġgood": 3509,
      "ĠCHÃģN": 3510,
      "ĠChÃºc": 3511,
      "ĠChÃŃnh": 3512,
      "asonic": 3513,
      "tháº¿": 3514,
      "Ġhá»Ļp": 3515,
      "Ġanyw": 3516,
      "Ġháº£o": 3517,
      "ĠTHÃĮ": 3518,
      "ĠTháº¥t": 3519,
      "ĠTháº¥y": 3520,
      "ĠHDR": 3521,
      "lym": 3522,
      "ĠĠĠ": 3523,
      "como": 3524,
      "edmi": 3525,
      "Ġtien": 3526,
      "Ġlogo": 3527,
      "avi": 3528,
      "má»įi": 3529,
      "Ġ09": 3530,
      "á»Ľp": 3531,
      "Ġflags": 3532,
      "Æ¯á»": 3533,
      "Æ¯NG": 3534,
      "175": 3535,
      "5500": 3536,
      "Iá»ĤU": 3537,
      "bá»Ļ": 3538,
      "gioidid": 3539,
      "ĠnÃ©n": 3540,
      "Ġsharp": 3541,
      "ĠMax": 3542,
      "Bá»ı": 3543,
      "ChÃºc": 3544,
      "board": 3545,
      "âĢĿ": 3546,
      "ĠÃ¡p": 3547,
      "ĠGoogle": 3548,
      "Ġreset": 3549,
      "ĠUSD": 3550,
      "EEEEEEEE": 3551,
      "Há»ĩ": 3552,
      "LED": 3553,
      "Ġshop": 3554,
      "Ġpassport": 3555,
      "ĠShine": 3556,
      "ĠSmartphone": 3557,
      "ĠMobile": 3558,
      "ĠThÃ´i": 3559,
      "ĠThÃŃch": 3560,
      "Ġrestart": 3561,
      "Ġrestore": 3562,
      "185": 3563,
      "Mbps": 3564,
      "lick": 3565,
      "Ġgray": 3566,
      "Ġtá»ķng": 3567,
      "ĠAPPLE": 3568,
      "ĠhÃ³a": 3569,
      "Ġlightning": 3570,
      "here": 3571,
      "ĠÃªm": 3572,
      "Ġáº¤n": 3573,
      "ĠchÃ¬m": 3574,
      "Ġsnapdragon": 3575,
      "ĠdÃµi": 3576,
      "otoshop": 3577,
      "ĠPanasonic": 3578,
      "Ġtopic": 3579,
      "Ġká»ģnh": 3580,
      "ĠUltra": 3581,
      "ĠPremium": 3582,
      "HONE": 3583,
      "Smartphone": 3584,
      "gapixel": 3585,
      "nivers": 3586,
      "ĠâĢľ": 3587,
      "Ġcuá»ĵng": 3588,
      "Ġdata": 3589,
      "ĠrÆ°á»¡i": 3590,
      "Ġnhiá»ħu": 3591,
      "ĠSÃ¡mung": 3592,
      "ĠCyanogen": 3593,
      "enchmark": 3594,
      "ĠLaser": 3595,
      "ĠLumina": 3596,
      "Ġyá»ĥu": 3597,
      "ĠRepeater": 3598,
      "Ġeluga": 3599,
      "Ġjava": 3600,
      "Ġtablet": 3601,
      "ĠThanks": 3602,
      "Ġflagship": 3603,
      "gioididong": 3604,
      "!:))": 3605,
      "\",": 3606,
      "((": 3607,
      "):": 3608,
      ")..": 3609,
      ",.": 3610,
      ",....": 3611,
      "--": 3612,
      "075": 3613,
      "1000": 3614,
      "21": 3615,
      "27": 3616,
      "32": 3617,
      "36": 3618,
      "47": 3619,
      "49": 3620,
      "450": 3621,
      "6000": 3622,
      "6300": 3623,
      "88": 3624,
      "800": 3625,
      "97": 3626,
      "910": 3627,
      "?),": 3628,
      "AP": 3629,
      "AY": 3630,
      "Anh": 3631,
      "BÃªn": 3632,
      "BÃ¬nh": 3633,
      "Bphone": 3634,
      "Báº£o": 3635,
      "Book": 3636,
      "CD": 3637,
      "CÃ¹ng": 3638,
      "Cho": 3639,
      "Canon": 3640,
      "DG": 3641,
      "DO": 3642,
      "Dep": 3643,
      "Dá»±": 3644,
      "FC": 3645,
      "Fan": 3646,
      "GA": 3647,
      "GI": 3648,
      "GS": 3649,
      "Go": 3650,
      "GÃ¬": 3651,
      "Gáº¯n": 3652,
      "Giá»Ŀ": 3653,
      "Hi": 3654,
      "Ho": 3655,
      "Hai": 3656,
      "HÆ¡i": 3657,
      "Hic": 3658,
      "HÃ£y": 3659,
      "HÃĶNG": 3660,
      "Htc": 3661,
      "IV": 3662,
      "Ip": 3663,
      "IPhone": 3664,
      "LG": 3665,
      "LÃł": 3666,
      "LÃ½": 3667,
      "Lei": 3668,
      "LAC": 3669,
      "Lá»Ľp": 3670,
      "MB": 3671,
      "MD": 3672,
      "MS": 3673,
      "May": 3674,
      "Mov": 3675,
      "Mobi": 3676,
      "NÃ¢ng": 3677,
      "NÄĥm": 3678,
      "ONG": 3679,
      "OTE": 3680,
      "Phi": 3681,
      "Pal": 3682,
      "RAM": 3683,
      "SE": 3684,
      "Ss": 3685,
      "Sung": 3686,
      "Sáº£n": 3687,
      "TV": 3688,
      "ThÃ¬": 3689,
      "Tuy": 3690,
      "Táº§m": 3691,
      "TÆ°á»Łng": 3692,
      "Tá»ĳc": 3693,
      "Tiáº¿c": 3694,
      "Ui": 3695,
      "UÃĶ": 3696,
      "VN": 3697,
      "VÆ¡": 3698,
      "Vote": 3699,
      "VÃ£i": 3700,
      "VáºŃy": 3701,
      "Vá»ģ": 3702,
      "WP": 3703,
      "WS": 3704,
      "Wo": 3705,
      "Window": 3706,
      "XV": 3707,
      "YÃªu": 3708,
      "^^": 3709,
      "aptop": 3710,
      "age": 3711,
      "ake": 3712,
      "ba": 3713,
      "be": 3714,
      "bá»ģn": 3715,
      "buck": 3716,
      "benchmark": 3717,
      "cÃ¢": 3718,
      "cÃ¹i": 3719,
      "dd": 3720,
      "dá»": 3721,
      "doid": 3722,
      "dep": 3723,
      "eh": 3724,
      "eng": 3725,
      "eag": 3726,
      "egapixel": 3727,
      "egioididong": 3728,
      "fe": 3729,
      "fr": 3730,
      "fre": 3731,
      "go": 3732,
      "gon": 3733,
      "hon": 3734,
      "hay": 3735,
      "hoi": 3736,
      "hiÃªn": 3737,
      "hand": 3738,
      "iatek": 3739,
      "jc": 3740,
      "js": 3741,
      "kB": 3742,
      "khá»": 3743,
      "ker": 3744,
      "kho": 3745,
      "kiáº¿m": 3746,
      "kav": 3747,
      "khÃ¡": 3748,
      "lm": 3749,
      "láº§n": 3750,
      "lÆ°á»Ľt": 3751,
      "link": 3752,
      "lph": 3753,
      "may": 3754,
      "máº¥t": 3755,
      "muá»ĳn": 3756,
      "mware": 3757,
      "nay": 3758,
      "nch": 3759,
      "náº£n": 3760,
      "nÄĥm": 3761,
      "ou": 3762,
      "ost": 3763,
      "pt": 3764,
      "pen": 3765,
      "pac": 3766,
      "put": 3767,
      "rc": 3768,
      "rt": 3769,
      "ram": 3770,
      "rac": 3771,
      "rat": 3772,
      "roid": 3773,
      "rmware": 3774,
      "sd": 3775,
      "si": 3776,
      "sáº£n": 3777,
      "sony": 3778,
      "sÃ¡ng": 3779,
      "sim": 3780,
      "sáº¡c": 3781,
      "siÃªu": 3782,
      "sÃ³ng": 3783,
      "ta": 3784,
      "thá»": 3785,
      "thÃ¬": 3786,
      "táº¥t": 3787,
      "tat": 3788,
      "ttr": 3789,
      "táºŃn": 3790,
      "tá»«": 3791,
      "tÃ³m": 3792,
      "uxe": 3793,
      "vn": 3794,
      "vÃ´": 3795,
      "van": 3796,
      "váºŃy": 3797,
      "vice": 3798,
      "ww": 3799,
      "way": 3800,
      "wer": 3801,
      "wink": 3802,
      "xiaomi": 3803,
      "zu": 3804,
      "zz": 3805,
      "¡m": 3806,
      "¡u": 3807,
      "¦ng": 3808,
      "§a": 3809,
      "ªm": 3810,
      "®T": 3811,
      "¯m": 3812,
      "¯t": 3813,
      "±oc": 3814,
      "µng": 3815,
      "¶T": 3816,
      "¸P": 3817,
      "¹ng": 3818,
      "Ãī": 3819,
      "Ãį": 3820,
      "ÃĿ": 3821,
      "Ã©m": 3822,
      "âĤ": 3823,
      "âĺ": 3824,
      "Ġáº": 3825,
      "ĠÆ¡": 3826,
      "Ġao": 3827,
      "Ġung": 3828,
      "Ġen": 3829,
      "Ġeo": 3830,
      "ĠÆ°Æ¡ng": 3831,
      "Ġáº¥m": 3832,
      "ĠÃ¡o": 3833,
      "Ġ!!!!": 3834,
      "Ġáº¹": 3835,
      "Ġáº¾": 3836,
      "Ġ???": 3837,
      "ĠÃºp": 3838,
      "Ġáº¢nh": 3839,
      "Ġ*#": 3840,
      "ĢN": 3841,
      "Ĥn": 3842,
      "ĨT": 3843,
      "ĨU": 3844,
      "ĶI": 3845,
      "Ļp": 3846,
      "ļC": 3847,
      "ļI": 3848,
      "Łn": 3849,
      "Ńc": 3850,
      "á»¡": 3851,
      "á»¨": 3852,
      "á»Ĵ": 3853,
      "á»ķ": 3854,
      "á»Ń": 3855,
      "á»Ľt": 3856,
      "á»ĨT": 3857,
      "áºº": 3858,
      "áº¼": 3859,
      "áºŃm": 3860,
      "ngÃły": 3861,
      "ngry": 3862,
      "ĠcÆ°": 3863,
      "Ġcáº¥t": 3864,
      "Ġcang": 3865,
      "ĠcÃły": 3866,
      "Ġcac": 3867,
      "Ġcuá»ĳn": 3868,
      "Ġcáº¥n": 3869,
      "ĠcÆ¡n": 3870,
      "ĠcáºŃy": 3871,
      "Ġcpu": 3872,
      "Ġclick": 3873,
      "Ġtg": 3874,
      "ĠtÃª": 3875,
      "Ġtao": 3876,
      "ĠtÃłi": 3877,
      "ĠtÃ²": 3878,
      "Ġtáº§": 3879,
      "Ġtáº¯m": 3880,
      "Ġtáº»": 3881,
      "ĠtÃ¡i": 3882,
      "ĠtÆ°á»Ŀng": 3883,
      "ĠtuyÃªn": 3884,
      "Ġtáº¥n": 3885,
      "Ġtiá»ĩm": 3886,
      "Ġtie": 3887,
      "ĠtÃŃt": 3888,
      "Ġnc": 3889,
      "Ġne": 3890,
      "Ġnua": 3891,
      "Ġnáº¡n": 3892,
      "Ġnáº¥y": 3893,
      "ĠnÆ¡i": 3894,
      "ĠniÃªn": 3895,
      "Ġnikon": 3896,
      "ĠÄĳáº£": 3897,
      "ĠÄĳÃªn": 3898,
      "ĠÄĳung": 3899,
      "ĠÄĳáº£o": 3900,
      "ĠÄĳÃłnh": 3901,
      "ĠÄĳÃło": 3902,
      "ĠÄĳuá»ĳi": 3903,
      "ĠÄĳep": 3904,
      "ĠÄĳÃłm": 3905,
      "hÃ³": 3906,
      "hÃºt": 3907,
      "hÃ´m": 3908,
      "Ġmx": 3909,
      "ĠmÃ¬": 3910,
      "ĠmÃ²": 3911,
      "ĠmÃ¡c": 3912,
      "ĠmÃ¢m": 3913,
      "ĠmÃ¨": 3914,
      "Ġmicro": 3915,
      "Ġmacbook": 3916,
      "ĠmAh": 3917,
      "Ġmiáº¿ng": 3918,
      "ĠmÃ¨o": 3919,
      "Ġmegapixel": 3920,
      "ĠlÆ¡": 3921,
      "Ġlá»ĵ": 3922,
      "ĠlÃ´i": 3923,
      "Ġlan": 3924,
      "Ġláº·": 3925,
      "Ġlanh": 3926,
      "Ġláº»": 3927,
      "Ġláº¥p": 3928,
      "ĠlÃ¡c": 3929,
      "ĠlÆ°á»£t": 3930,
      "Ġláº·t": 3931,
      "ĠlÃ¨": 3932,
      "ĠlÃµ": 3933,
      "Ġláº±ng": 3934,
      "Ġláº·p": 3935,
      "Ġláº¯ng": 3936,
      "Ġlieu": 3937,
      "ĠlÆ°á»¡ng": 3938,
      "ĠvÃ¹": 3939,
      "Ġvua": 3940,
      "ĠvÃ¹ng": 3941,
      "Ġviá»ĩn": 3942,
      "Ġváº¡n": 3943,
      "Ġver": 3944,
      "Ġvai": 3945,
      "ĠvÃ£": 3946,
      "ĠvÃµ": 3947,
      "ĠvÃŃt": 3948,
      "Ġváº¡ch": 3949,
      "Ġky": 3950,
      "Ġkem": 3951,
      "ĠkiÃª": 3952,
      "nhiá»ģu": 3953,
      "nhei": 3954,
      "ĠbÃł": 3955,
      "Ġbon": 3956,
      "Ġbáº£": 3957,
      "ĠbÃª": 3958,
      "ĠbÃ´": 3959,
      "Ġbom": 3960,
      "ĠbÃ£": 3961,
      "Ġbro": 3962,
      "ĠbÃ©t": 3963,
      "Ġbá»ĳi": 3964,
      "ĠbÃło": 3965,
      "ĠbÃŃt": 3966,
      "ĠbÃºa": 3967,
      "Ġbáº¡ch": 3968,
      "Ġbeta": 3969,
      "Ġsd": 3970,
      "Ġsua": 3971,
      "Ġsay": 3972,
      "Ġsan": 3973,
      "Ġsen": 3974,
      "Ġsáº¥u": 3975,
      "Ġsanh": 3976,
      "Ġsáº£o": 3977,
      "ĠsÆ°Æ¡": 3978,
      "Ġsac": 3979,
      "Ġsáº¯t": 3980,
      "ĠsÃ¡ch": 3981,
      "ĠsÆ°á»Ľt": 3982,
      "Ġsáº¡ch": 3983,
      "Ġsáº¿p": 3984,
      "Ġship": 3985,
      "Ġstar": 3986,
      "Ġsyn": 3987,
      "Ġhon": 3988,
      "Ġhan": 3989,
      "Ġhok": 3990,
      "Ġhet": 3991,
      "Ġhiáº¿u": 3992,
      "Ġhjc": 3993,
      "ĠgÃł": 3994,
      "ĠgÃ²": 3995,
      "ĠgÄĥ": 3996,
      "Ġgan": 3997,
      "ĠgÃłng": 3998,
      "ĠgÃ£": 3999
    },
    "merges": [
      "á »",
      "á º",
      "n g",
      "Ġ c",
      "Ġ t",
      "Ã ł",
      "Ġ n",
      "Ġ Ä",
      "ĠÄ ĳ",
      "h Ã",
      "Ġ m",
      "Ġ l",
      "Ã ¡",
      "h áº",
      "Ġ v",
      "Ġ k",
      "Æ °",
      "n h",
      "h á»",
      "Ġ b",
      "Ġ s",
      "i á»",
      "Ġ h",
      "Ã ³",
      "Ġ g",
      "Ġ d",
      "Ġ r",
      "Ġt hÃ",
      "áº ¿",
      "Æ° á»",
      "Ġ p",
      "o n",
      "áº ¥",
      "Ã ¬",
      "Ġ ng",
      "áº ¡",
      "Ġl Ãł",
      "áº £",
      "Ġn h",
      "Ã ª",
      "ĠÄĳ á»",
      "Ġc h",
      "Ġt r",
      "Æ ¡",
      "´ ng",
      "q u",
      "Ġ x",
      "Ġt h",
      "Ġk hÃ",
      "Ġ qu",
      "Ġv á»",
      ". .",
      "ĠthÃ ¬",
      "Ġc á»",
      "Ġt háº",
      "Ãª n",
      "Ľ i",
      "Ġm Ãł",
      "Ã ¹",
      "Ġc há»",
      "Ġc Ã³",
      "Ġn Ãł",
      "Ã¬ nh",
      "iá» ĩ",
      "Ġc Ã¡",
      "Ġm á»",
      "Ġv Ãł",
      "á» ĳ",
      "i áº¿",
      "Ġ 1",
      "u a",
      "Ã ¢",
      "Ã¹ ng",
      "a y",
      "Ã ´",
      "© ng",
      "Æ°á» £",
      "Ġg i",
      "ĠkhÃ ´ng",
      "Ġnh Æ°",
      "i n",
      "Ġc háº",
      "ĠÄĳ áº",
      "a m",
      "hÃ ¬",
      "Ġh Æ¡",
      "Ġqu Ã¡",
      "a o",
      "Ãł i",
      "Ġd Ã¹ng",
      "Ġcá» §",
      "ĠnÃł y",
      "Ã ²",
      "áº¥ t",
      "Ġn Ã³",
      "iá» ģ",
      "áº¡ i",
      "á» ĵ",
      "Ġcá»§ a",
      "c h",
      "Ġt há»",
      "Ġp háº",
      "Ŀ i",
      "ĠhÆ¡ n",
      "Ġm ua",
      "Ġb á»",
      "Ġc Å",
      "ĠcÃ¡ i",
      "Ì ģ",
      "áº ¯",
      "a ng",
      "áº §",
      "e m",
      "Ġn háº",
      "á»ĵ i",
      "Ġ há»",
      "¹ p",
      "Ä ĥ",
      "Ġm Ã¬nh",
      "Ġv áº",
      "u ng",
      "ĠcÅ ©ng",
      "Ń t",
      "£ i",
      "Ġtháº ¥",
      "on e",
      "Ġ S",
      "Æ°á»£ c",
      "iáº¿ t",
      "Ì Ģ",
      "Ġt á»",
      "Ġr á»ĵi",
      "Ġ a",
      "Ġ C",
      "Ġc on",
      "Ġ á»",
      "Ġk o",
      "ĠÄĳ Æ°á»£c",
      "Ġ M",
      "Ġ 2",
      "u y",
      "Ġk h",
      "hÃ¬ nh",
      "Ã¡ y",
      "Ġ hÃ¬nh",
      "h one",
      "o ng",
      "ĠÄĳáº ¹p",
      "Ġvá» Ľi",
      "Ġch o",
      "iá»ĩ n",
      "Ġgi Ã¡",
      "¥ t",
      "Ġr a",
      "Ġ T",
      "Ġtháº¥ y",
      "Ġc áº£",
      "ĠÄĳ Ã",
      "iá»ģ u",
      "Ġ i",
      "Ġr áº¥t",
      "Ġc hÃ",
      "Ã² n",
      "Ġm Ã¡y",
      "Ã Ń",
      "Ġg iá»",
      "Ġ N",
      "Ġn á»",
      "Ġpháº £i",
      "Ġ em",
      "Æ°á» Ľ",
      "Ġl á»",
      "Ġn há»",
      "Ġ háº",
      "Ġn Äĥ",
      "áº¡ n",
      "Ġt á»ĳ",
      "Ġg Ã¬",
      "Ġd á»",
      "Ã´ i",
      "áº¥ y",
      "ĠÄĳá» ĥ",
      "Ġp in",
      "a n",
      "áº£ n",
      ".. .",
      "p hone",
      "« n",
      "Ãł ng",
      "ĠnhÆ° ng",
      "Ġmá» Ľi",
      "e n",
      "Ã º",
      "ĠkhÃ ¡",
      "Ġl áº¡i",
      "Ġb Ã¡",
      "Ġng h",
      "e r",
      "Ġs á»",
      "Ġp hÃ",
      "iá» ĥ",
      "áº§ n",
      "áº¥ u",
      "Ġchá» ī",
      "Ġx Ãłi",
      "Ġc Ã²n",
      "Ļ t",
      "Æ° a",
      "¯ a",
      "ĠÄĳ i",
      "Ġ A",
      "Ġbá» ĭ",
      "Ġkh i",
      "áº ½",
      "uy á»",
      "a u",
      "ĠlÃł m",
      "ĠÄĳÃ £",
      "Ġtá»ĳ t",
      "Ì £",
      "Ġ ,",
      "Ġ 3",
      "ĠÄĳ Ã¢",
      "Ġnh iá»ģu",
      "Ġváº «n",
      "Ġb áº¡n",
      "Æ°á»Ľ c",
      "´ i",
      "Ġk áº¿",
      "Ġvá» ģ",
      "Ä Ĳ",
      "iá»ģ n",
      "o i",
      "áº¿ u",
      "0 0",
      "o t",
      "Ġl u",
      "Ġh ay",
      "Ġng on",
      "Ġná» ¯a",
      "Ġn Ãªn",
      "ĠthÃ ´i",
      "p p",
      "ĠnÃł o",
      "áº ·",
      "Ã ´ng",
      "Æ°á» Ŀi",
      "Ġtháº ¿",
      "Ã² ng",
      "Ġ H",
      "l e",
      "© m",
      "ĠÄĳ ang",
      "Ġnháº ¥t",
      "hÃ¬ n",
      "a nh",
      "ĠmÃł n",
      "u á»ĳ",
      "Ġs áº½",
      "Ã´ n",
      "Ġng Æ°á»Ŀi",
      "Ġtr á»",
      "Ġ 6",
      "áº¯ m",
      "Ń ch",
      "s ung",
      "Ãł n",
      "am sung",
      "Ġgiá» Ŀ",
      "Ġl Ãªn",
      "a i",
      "Ġ B",
      "ĩ t",
      "Ń y",
      "o k",
      "Ġn hÃ",
      "Ġlu Ã´n",
      "Ġ V",
      "Ġ hÃ",
      "ĠcÃ¡ c",
      "Ġ 5",
      "Ġ Ã",
      "Ġch Æ°a",
      "Ġ :",
      "on y",
      "¥ p",
      "Ġb iáº¿t",
      "i Ãª",
      "¿ t",
      "Ĺ i",
      "Ġh o",
      "ÃŃ nh",
      "Ġdá» ¥",
      "a r",
      "i nh",
      "o áº¡i",
      "Ġ .",
      "Ġ 4",
      "Ġtr ong",
      "Ġ L",
      "ĠÄĳá» Ļ",
      "! !",
      "Ã¡ ng",
      "± c",
      "Ġ P",
      "ĠÄĳ Ã³",
      "Ġv Ã¬",
      "Ġchá» ©",
      "uyá» ĩt",
      "áº£ o",
      "Ġthá» ĥ",
      "Ì ī",
      "Ãł nh",
      "ĠnÄĥ m",
      "Ġm áº¥y",
      "Ġs ao",
      "Ġtr Ãªn",
      "Ġth iáº¿t",
      "Ġváº Ńy",
      "ĠkhÃ¡ c",
      "Ġdá»¥ ng",
      "Ń n",
      "Ġmá» Ļt",
      "Ġngh e",
      "Ġ y",
      "áº§ m",
      "Ġc ao",
      "ĠÄ Ĳ",
      "ĠthÃ Ńch",
      "Ġtháº Ńt",
      "Ġ f",
      "Ġt Ã´i",
      "Ãł y",
      "Ġh Ãłng",
      "Æ¡ i",
      "e o",
      "¯ c",
      "Ġt iá»ģn",
      "Æ°á»£ ng",
      "ĠnÃ³ i",
      "áº¿ n",
      "Ġp h",
      "Ġtá» «",
      "áº »",
      "¡ y",
      "± ng",
      "iá»ĩ u",
      "u s",
      "ķ i",
      "Æ° Æ¡",
      "Ġá» Ł",
      "ĠnÄĥ ng",
      "m i",
      "iá»ĥ u",
      "Ġt o",
      "ĠÄĳ áº¿n",
      "Ġ G",
      "Ġl áº¯m",
      "Ġháº ¿t",
      "a c",
      "Ġqu a",
      "Ġ I",
      "Ġcáº£ m",
      "Ġ w",
      "Ġn hÃ¬n",
      "M Ã¬nh",
      "³ ng",
      "į i",
      "ĠvÃł o",
      "ot e",
      "a t",
      "Ġs au",
      "Ġc Ã´ng",
      "Æ°á» Ŀ",
      "Ġchá» ¥p",
      "Ġg á»",
      "áº¥ p",
      "Ġ X",
      "Ġc am",
      "Ã¡ i",
      "iá»ĩ t",
      "Ġcháº ¥t",
      "áº¯ t",
      "Ġi phone",
      "pp le",
      "Ġng Ãły",
      "Æ°á»Ŀ ng",
      "t r",
      "Ġt iáº¿",
      "Ġb áº",
      "Ġx áº¥u",
      "i Ãªn",
      "Ġt uyá»ĩt",
      "© t",
      "Ġb áº£o",
      "Ġcháº ¡y",
      "er a",
      "ĠÄĳÃ¢ y",
      "i m",
      "Ġl a",
      "Ãº c",
      "¯ ng",
      "Ń m",
      "áº£ nh",
      "¥ c",
      "Ġá» ķ",
      "Ġá» ©ng",
      "Ġa i",
      "o m",
      "Ä ĳ",
      "į ng",
      "ĠÄĳ c",
      "Ã¢ u",
      "Ġpháº ©m",
      "¢ n",
      "« a",
      "Ġ áº£nh",
      "Ġt ÃŃnh",
      "ĠÄĳ iá»ĩn",
      "Ġk Ã",
      "ĠÄĳá» ĵ",
      "Ġx em",
      "u á»",
      "hÃ ´ng",
      "Ġth oáº¡i",
      "§ n",
      "Ġc áº¥p",
      "Ġt ay",
      "Ġl o",
      "Ġb áº£n",
      "Ġlá» Ĺi",
      "ĠbÃ¡ c",
      "Ġk há»",
      "Ġs á»ĳ",
      "Ġd o",
      "Ġcháº ¯c",
      "Ń p",
      "Ġl Æ°á»£ng",
      "Ã¡ c",
      "áº¡ c",
      "ĠÄĳÃ¢ u",
      "Ġs o",
      "Ã¢ y",
      "Ġ R",
      "Ġm a",
      "Ġd Ã²ng",
      "Ġtr Æ°á»Ľc",
      "Ġnhá» ¯ng",
      "Æ°Æ¡ ng",
      "Ġá»ķ n",
      "d r",
      "Ġ K",
      "ĥ n",
      "į n",
      "Ġsá» ±",
      "i ao",
      "Ġ (",
      "Ġs áº£n",
      "ĠmÃł u",
      "Ġ1 0",
      "uá»ĳ n",
      "¡ n",
      "áº£ i",
      "ĠhÃ £",
      "Ã £",
      "Ġ 9",
      "ĳ ng",
      "Ġr áº»",
      "ĠthÃ ª",
      "Ġbáº ±ng",
      "Æ° ng",
      "Ġcá» ©",
      "oi d",
      "Ġcam era",
      "iao mi",
      "n dr",
      "Ġhá» ĵ",
      "Ġsá» Ń",
      "Ġ !",
      "Ġ e",
      "Ġs amsung",
      "Ġvá» Ŀi",
      ".. ..",
      "Ġthá» Ŀi",
      "r o",
      "į c",
      "Ġn áº¿u",
      "ĠÄĳá» ģ",
      "ĠÄĳáº §",
      "Ġ Z",
      "ĠthÃ ¡",
      "ĠS ony",
      "ĠbÃ¡ n",
      "ĠthÃª m",
      "áº ¹p",
      "Ġm uá»ĳn",
      "Ġh Ãłnh",
      "ĠÃ ½",
      "i a",
      "i c",
      "© n",
      "ı ng",
      "Ġl Ãºc",
      "áº¯ c",
      "Ġnháº Ńn",
      "ĠhÃ£ ng",
      "i Ã¡",
      "ĭ nh",
      "iÃª u",
      "ndr oid",
      ") )",
      "Ġ ok",
      "Ġc áº¥u",
      "Ġt in",
      "Ġs áº¡c",
      "Ġ 7",
      "ĠÄĳ iá»ģu",
      "Ġm áº¡",
      "Æ°á» Ł",
      "Ġnh anh",
      "ĠhÆ¡ i",
      "Ġpháº §n",
      "s t",
      "ģ n",
      "Ġc áº§n",
      "Æ°á»£ t",
      "Ġi p",
      "iá»ĥ m",
      "Ġgá» įi",
      "Æ°á»Ł ng",
      "1 0",
      "Q u",
      "Ġ D",
      "Ġth i",
      "Ġcháº £",
      "º ng",
      "Ġl Ã²ng",
      "ĠÄĳá» ĭnh",
      "Ġth eo",
      "áº· t",
      "e t",
      "© c",
      "Ġn ay",
      "Ġch i",
      "Ġth ay",
      "Ãº t",
      "áº· c",
      "£ p",
      "Ġt áº§m",
      "Ġh iá»ĩn",
      "Ġvá» «a",
      "áº ©n",
      "Ġl áº§n",
      "Ġv Ã´",
      "Ġng há»",
      "áº£ ng",
      "ĠÄĳá» ķi",
      "Ġhá» £p",
      "ĠphÃ ¡",
      "Ġ z",
      "Ã¡ nh",
      "Ġk á»",
      "ĠthÃ ´ng",
      "Ġvá» įng",
      "uy Ãªn",
      "Ġnhá» ī",
      "ar t",
      "áº Ńt",
      "Ġm Æ°á»£t",
      "háº Ńt",
      "Ġb ao",
      "Ġtá» Ľi",
      "Ġkh o",
      "ĠnhÃ ©",
      "ĠÄĳáº§ u",
      "Ġnghá» ĩ",
      "e l",
      "Ä ©",
      "Ì ĥ",
      "Ġ W",
      "ı i",
      "Ġt iá»ĩn",
      "Ġh iá»ĩu",
      "ĠA pple",
      "Qu Ã¡",
      "T Ã´i",
      "ĳ i",
      "Ġt Æ°á»Łng",
      "ĠÄĳ t",
      "ĠÄĳ iá»ĥm",
      "áº¥ n",
      "Ġch ung",
      "iá»ĩ m",
      "Ã¢ m",
      "ĠchÃ Ń",
      "h i",
      "Ã ½",
      "Ġng o",
      "Ġth Æ°á»Ŀng",
      "ĠkÃ ©m",
      "ĠÄĳá»ĵ ng",
      "u i",
      "Ġh Ãłi",
      "Ġch u",
      "Ġch Æ¡i",
      "iá»ĩ c",
      "Ġbá» ı",
      "ĠÄĳÃ ºng",
      "Ġ 8",
      "Ġm áº¥t",
      "Ġchá» įn",
      "Ã ©t",
      "Ġv iá»ĩc",
      "Ġng ay",
      "ĠÄĳá» §",
      "ĠS amsung",
      "T h",
      "m art",
      "Ġ -",
      "Ġc o",
      "Ġs ony",
      "Ġr am",
      "Äĥ ng",
      "ĠchÃ ¡n",
      "s us",
      "Ġ F",
      "Ġc a",
      "Ġn Æ°á»Ľc",
      "Ġv i",
      "Ġs Ã¡ng",
      "Ġh iá»ĥu",
      "Ġch iáº¿",
      "Ġch uyá»",
      "Ġa nh",
      "ĠÃ Ńt",
      "P hone",
      "áº Ńp",
      "Ġc Ãłng",
      "Ġm áº·t",
      "Ġk iá»ĥu",
      "Ġs ang",
      "ĠbÃ¡ o",
      "a d",
      "« ng",
      "Ġ O",
      "Ġn ote",
      "Ġd c",
      "Ã¹ i",
      "am e",
      "Ġthá» ±c",
      "o ok",
      "Ġ \"",
      "iáº¿ n",
      "Ã¢ n",
      "Ã¢ ng",
      "ĠL G",
      "Ġy áº¿u",
      "Ġtiáº¿ ng",
      "T C",
      "l a",
      "Ãł u",
      "Ġk háº",
      "ĠÄĳá» Ŀi",
      "Ġgiá» ĳng",
      "ĭ u",
      "Ġm áº¯t",
      "Ġl Ã¢u",
      "ĠkhÃ ³",
      "Ġmá» Ł",
      "pp o",
      "ĠthÃ¡ ng",
      "ĠchÃŃ nh",
      "Ġchuyá» ĥn",
      "5 0",
      "§ ng",
      "Ġ u",
      "Ń a",
      "Ġcá» ±c",
      "á»ĳ i",
      "áº¯ p",
      "Æ°á»Ľ ng",
      "Ġto Ãłn",
      "ĠÄĳá»ģ u",
      "Ġngo Ãłi",
      "j i",
      "t o",
      "Ġ o",
      "ī nh",
      "Æ¡ n",
      "Ġchá» ĭu",
      "Ġcháº ³ng",
      "ĠH TC",
      "b i",
      "d o",
      "º t",
      "Ġt áº¡i",
      "Ġm ang",
      "Ġs áº¯c",
      "Ġg áº§n",
      "Ġbá» Ļ",
      "Ġnháº ¡",
      "ĠM Ã¬nh",
      "Ġnhá» Ľ",
      "ĠphÃ Ńm",
      "K hÃ´ng",
      "s s",
      "u á»ĵ",
      "Ġt ÃŃ",
      "Ġl Ã½",
      "Ġs mart",
      "Ã³ i",
      "Ġng á»",
      "áº£ m",
      "Ġbá» ģn",
      "Ġtá» ĩ",
      "ĠchÃ ª",
      "ĠN h",
      "Ġnhá» ı",
      "Ġngh Ä©",
      "ÄĲ áº¹p",
      "Ġho áº·c",
      "Ġmáº¡ nh",
      "± a",
      "Ġ j",
      "áº «n",
      "Ġc Ã¹ng",
      "Ġc Ãłi",
      "Ãł o",
      "Ġs Ãłi",
      "Ġg ame",
      "Ġr e",
      "Ġp há»",
      "Ãª u",
      "Ġx u",
      "ĠÄĳáº ·",
      "ac k",
      "G iÃ¡",
      "u ji",
      "ģ m",
      "Ġt a",
      "Ġg hÃ",
      "Ġr á»",
      "áº¿ t",
      "Ġnh au",
      "Ġtr ung",
      "Ġx ong",
      "Ġgi an",
      "in do",
      "Ġthá» ©",
      "áº§ u",
      "Ġtá» ±",
      "Ġa ndroid",
      "ĠN ote",
      "Ġdá» ħ",
      "Ġkáº¿ t",
      "uá» Ļ",
      "Ġlo a",
      "Ġchiáº¿ c",
      "Ġnháº¡ c",
      "? ?",
      "e b",
      "e i",
      "Ġn a",
      "Ġm o",
      "Ã³ ng",
      "Æ°á» Ľi",
      "Ġmá» ģm",
      "ĠvÃł i",
      "ĠcÅ ©",
      "ĠI phone",
      "Ġchu áº©n",
      "i t",
      "Ľ n",
      "Ã¡ m",
      "ĠÄĳá» ĳi",
      "Ġqu an",
      "Ġhá» į",
      "Ġi Phone",
      "Ġgiá» Ľi",
      "Ġná» ķi",
      "Ġchá»© c",
      "ĠX iaomi",
      "Ġz en",
      "uá»ĵ n",
      "indo w",
      "h o",
      "o s",
      "Ġ E",
      "áº «",
      "Ġn Ã¢ng",
      "ĠÄ ĥn",
      "Ġb Ãªn",
      "Ġb iá»ĩt",
      "Ġnh Ãł",
      "Ġtháº¥ t",
      "ÄĲ ang",
      "00 0",
      "Ġtrá» Ŀi",
      "ĠI P",
      "i e",
      "i i",
      "m Ã¬nh",
      "Ã ¨",
      "Ġc u",
      "Ġn Ãºt",
      "Ã¡ n",
      "Ġk inh",
      "Ġb Ã¬nh",
      "Ġd ung",
      "áº¥ m",
      "ĠcÃ¡ ch",
      "Ġmá» įi",
      "Ġhá» ĩ",
      "iá»ĥ n",
      "Ġ: )",
      "Ġkhá» §ng",
      "Ġu p",
      "r y",
      "Ġ ...",
      "á» Ľi",
      "Ġt áº¿",
      "ĠÄĳ Ã¡ng",
      "Ġm i",
      "Ġl oáº¡i",
      "Ġs u",
      "Ġtr Ã¢u",
      "Ġth ua",
      "Ġmá» ıng",
      "Ġcháº ¿",
      "Ġcháº Ńm",
      "ĠC Ã³",
      "ĠC Ã²n",
      "Ġlá» Ľn",
      "!! !",
      "áº Ńn",
      "Ġt Æ°á»£ng",
      "ĠÄĳ Ãª",
      "ĠÄĳ áº¥y",
      "Ġp hone",
      "Ġtr iá»ĩu",
      "Ġth o",
      "Ġth u",
      "Ġth Ãłnh",
      "Ġqu áº£",
      "á»ĳ c",
      "Ġ1 6",
      "Ġgi a",
      "Ġgi áº£i",
      "ĠC há»",
      "ĠM i",
      "ĠnhÃ ¢n",
      "ĠÄĳá»Ļ ng",
      "Th iáº¿t",
      "N g",
      "N hÃ¬n",
      "l u",
      "l us",
      "¡ t",
      "¯ n",
      "Ã £i",
      "Æ° u",
      "Ġb o",
      "Ġd Ã¹",
      "ĠthÃ ¢",
      "Ġx a",
      "ĠS S",
      "ĠT Ã´i",
      "ĠN áº¿u",
      "Ġngh iá»ĩm",
      "uá»ĳ ng",
      "0 1",
      "i v",
      "w ei",
      "Ã µ",
      "Ġ in",
      "Ġc áº¡",
      "Ġc áº§m",
      "Ġb a",
      "Ġh i",
      "Ġd u",
      "áº¡ o",
      "Ġx á»",
      "Ġth iá»ĩn",
      "Ġth Æ°Æ¡ng",
      "Ġchá» Ŀ",
      "Ġmá» Ĺi",
      "Ġthá» Ń",
      "ĠT Q",
      "Ġ: ))",
      "Ġy Ãªu",
      "ĠNh Æ°ng",
      "indow s",
      "áº« u",
      "C Ã³",
      "Ġ áº¡",
      "Ġl en",
      "Ġk ÃŃnh",
      "Ġb Ãłn",
      "Ã³ c",
      "Ġd Æ°á»Ľi",
      "ĠÄĳá» įc",
      "ĠÄĳá» īnh",
      "Ġx iaomi",
      "Ġx uá»ĳng",
      "Ġcá» ©ng",
      "ĠÄĳáº ¯",
      "ĠnÃ³ ng",
      "Ġnháº Ńt",
      "G B",
      "l ack",
      "o r",
      "t h",
      "Ġ U",
      "Ġc áº¯m",
      "Ġn Ã©t",
      "Ġl áº¥y",
      "Ġv iá»ģn",
      "Ġb i",
      "Ġd Ã¡ng",
      "ĠÄĳá» Ļt",
      "Ġth anh",
      "áº¯ n",
      "Ġhá» ıng",
      "Ġa pple",
      "er ry",
      "Ġxu áº¥t",
      "uá»Ļ c",
      "f one",
      "p to",
      "Ľ t",
      "Ġt Æ°Æ¡ng",
      "ĠÄĳ a",
      "Ġm inh",
      "Ġl á»ĵi",
      "Ã¡ ch",
      "Ġv s",
      "Ġh t",
      "Ġh Æ°",
      "ua wei",
      "áº§ y",
      "Ġtháº¥ p",
      "Ġtá» ¥c",
      "ĠT h",
      "uá»ĳ i",
      "Ġtrá» įng",
      "ĠV N",
      "Ġph im",
      "uá» Ļt",
      "pto p",
      "C on",
      "m e",
      "¡ i",
      "³ n",
      "Ġ áº£o",
      "Ġc áº§u",
      "Ġn á»ĳi",
      "Ã¡ o",
      "Ã¡ t",
      "Ġb iáº¿n",
      "Ã¬ m",
      "Ġnh u",
      "Ġváº »",
      "ĠgiÃ¡ c",
      "ĠT r",
      "ĠphÃ ¢n",
      "áº· ng",
      "Ġho Ãłn",
      "at ch",
      "ĠZ en",
      "T r",
      "T háºŃt",
      "e st",
      "Ã ©",
      "Ġ áº¥y",
      "Ġ Ã¢m",
      "Ġt iáº¿t",
      "Ġm áº«u",
      "Ġv áº¥n",
      "Ġb Ã¢y",
      "Ġs Æ°á»Ľng",
      "Ġtr áº£i",
      "Ġqu y",
      "Ġcá» ¥c",
      "Ġhá» ıi",
      "Ġháº ³n",
      "Ġtá»ĳ i",
      "ĠB B",
      "ac e",
      "ĠK hÃ´ng",
      "ĠÄĳáº· c",
      "ĠÄĳáº¯ t",
      "C Ã¡i",
      "g e",
      "h e",
      "l i",
      "o g",
      "´ m",
      "Ġ Q",
      "Ġ Ãł",
      "Ġ Æ¡i",
      "Ļ i",
      "ĠÄĳ Æ°á»Ŀng",
      "Ġs iÃªu",
      "Ġr om",
      "ĠvÃł ng",
      "iáº¿ u",
      "Ġnháº ¹",
      "ĠM á»",
      "Ġf i",
      "Ġla ptop",
      "Ġkháº £",
      "Ġo ppo",
      "Ġsmart phone",
      "C h",
      "T uyá»ĩt",
      "g b",
      "o ot",
      "s o",
      "u l",
      "Ġ )",
      "Ġ áº¥n",
      "Ġc Æ¡",
      "Ġc oi",
      "Ġt ai",
      "Ġt iÃªu",
      "Ġm ong",
      "Ġl áº½",
      "Ġl iÃªn",
      "Ġk iá»ĩn",
      "Ġs s",
      "Ġs Ã¡nh",
      "Ġnh iÃªn",
      "Ġthá» ĭ",
      "Äĥ n",
      "Ġa pp",
      "ĠC háº",
      "ĠchÃ ¡t",
      "ĠA ndroid",
      "ÄĲ Ã£",
      "ok ia",
      "!! !!",
      "ĠP in",
      "Ġmáº¡ ng",
      "ĠphÃ¡ t",
      "Ġht c",
      "C háº",
      "i f",
      "Ġc Ã¹i",
      "Ġt Ã¬nh",
      "Ġt inh",
      "Ġt Ã¢m",
      "Ġt est",
      "ĠÄĳ o",
      "ĠÄĳ Ã¡nh",
      "Ġm áºŃt",
      "Ġv a",
      "Ġb áº¥t",
      "Ġs p",
      "Ġs Ã³ng",
      "Ġchá» ĳng",
      "Ġ1 2",
      "ĠÄĳáº ³ng",
      "ĠM Ã¡y",
      "Ġi os",
      "ĠchÃ ºt",
      "ÃŃ ch",
      "Ġlá» £i",
      "Ġlá» ±a",
      "ĠA sus",
      "Ġtrá» £",
      "Ġtrá» Ł",
      "ĠW indows",
      ") .",
      "H Ãłng",
      "M á»",
      "N G",
      "S amsung",
      "c on",
      "f ace",
      "k k",
      "k hÃ´ng",
      "r e",
      "Ġ =",
      "Ġ Ã´ng",
      "ĭ ch",
      "Ġc uá»Ļc",
      "ĠÄĳ Æ¡",
      "Ġm Ãª",
      "Ġk ia",
      "Ġs a",
      "Ġh ao",
      "Ġd áº«n",
      "Ġp ro",
      "áº¡ ng",
      "ĠÄĳá» «ng",
      "Ġtr ang",
      "Ġchá» Ĺ",
      "Ġthá» §",
      "Ġhá» Ĺ",
      "Ġa sus",
      "ĠC h",
      "ĠN g",
      "ĠB lack",
      "ĠV iá»ĩt",
      "Ġ: (",
      "Ġw eb",
      "Ġtiáº¿ p",
      "Äĳ áº¹p",
      "Ġchi p",
      "ĠghÃ ª",
      "Ġmo bi",
      "ĠÄĳÃª m",
      "Ġcáº¡ nh",
      "A M",
      "E m",
      "M Ãłu",
      "N áº¿u",
      "c k",
      "c há»",
      "c Ã¡i",
      "e p",
      "f t",
      "l d",
      "o v",
      "Ł i",
      "Ń u",
      "á» «",
      "áº ¹",
      "Ġt u",
      "Ġt uy",
      "Ġn áº·ng",
      "Ġb an",
      "Ġs im",
      "Ġh a",
      "áº¡ t",
      "ĠlÃł nh",
      "ĠcÃ¡ o",
      "á»ĳ ng",
      "Ġgi áºŃt",
      "Äĥ m",
      "Ġ2 01",
      "Æ°á»Ľ t",
      "Ãº ng",
      "ÄĲ á»",
      "ĠÄĲ á»",
      "ic ro",
      "Ġkho áº£ng",
      "ĠF uji",
      "if i",
      "B erry",
      "l o",
      "r face",
      "x y",
      "¯ u",
      "º c",
      "Ġ J",
      "Ļ ng",
      "Ġt áº¯t",
      "Ġt Ã¡c",
      "Ġt Äĥng",
      "Ġt Ã¬m",
      "ĠÄĳ eo",
      "Ġm ay",
      "Ġm áº¯c",
      "Ġd i",
      "Ġr Ãµ",
      "Ġp lus",
      "Ġng uá»ĵn",
      "Ġch uá»Ļt",
      "Ġx Ã¡ch",
      "Ġcá» ķ",
      "Ġho me",
      "Ġgá» įn",
      "Ġkhá» ıi",
      "ĠBlack Berry",
      "C há»",
      "T hÃ",
      "T háº",
      "a la",
      "k e",
      "Å ©ng",
      "Ġ +",
      "áº ±ng",
      "Ġt Æ°",
      "Ġm au",
      "Ġb áº¥m",
      "Ġs am",
      "Ġd iá»ĩn",
      "Ġng uyÃªn",
      "ĠÄĳá» £i",
      "qu Ã¡",
      "Ġth iáº¿u",
      "Ġqu ay",
      "Ġvá» ¥",
      "Ġtháº »",
      "Ġgi áº£n",
      "Ġcháº ¿t",
      "am era",
      "Ġhá» ¯u",
      "ĠchÃ ¢n",
      "iÃª ng",
      "Ġtá»« ng",
      "at e",
      "ĠkÃ ¨",
      "Ġká» ĥ",
      "Ng on",
      "iv i",
      "2 0",
      "3 0",
      "8 0",
      "E E",
      "O S",
      "b ook",
      "d ge",
      "g iÃ¡",
      "u t",
      "¥ y",
      "© p",
      "Ġ ^",
      "Ġc áºŃp",
      "Ġc uá»ĳi",
      "ĠÄĳ Ã¡",
      "Ġm Æ¡",
      "Ġm Ã£i",
      "Ġl i",
      "Ġl ai",
      "háº £i",
      "Ġv Ã¢n",
      "Ġk iáº¿n",
      "iá» Ŀ",
      "Ġg o",
      "Ġd t",
      "Ġd Ã¢y",
      "Ġx e",
      "Ġx Æ°a",
      "Ġx anh",
      "Ġvá» ı",
      "Ġchá» §",
      "Ġ1 3",
      "Ã² i",
      "Ġhá» įc",
      "ĠC Ã¡i",
      "ĠM Ãł",
      "Ġcáº£ i",
      "Ġtá»ĳ n",
      "áº· p",
      "Ġf uji",
      "Ġla g",
      "Ġsá»ĳ ng",
      "ĠR áº¥t",
      "Ġká» ³",
      "so ft",
      "ul l",
      "icro soft",
      "N h",
      "c Ã³",
      "i ng",
      "m Ã¡y",
      "n hÃ¬n",
      "© a",
      "Ã ģ",
      "Ã Ķ",
      "Ġ ?",
      "Ġt áº¡o",
      "ĠÄĳ em",
      "Ġl iá»ĩu",
      "nh Æ°ng",
      "Ġb Ãłi",
      "Ġb Æ°á»Ľc",
      "Ġb áº¯t",
      "Ġb lu",
      "Ġh ai",
      "Ġd Ãłi",
      "Ġng ang",
      "Ġtr áº£",
      "Ġtr áº¡ng",
      "Ġqu áº£ng",
      "Ġqu á»ĳc",
      "Ġvá» ¡",
      ".. ...",
      "Ġcá» Ńa",
      "Ġmá» ©c",
      "Ġcháº ¯n",
      "ĠÄĳáº Ńp",
      "Ġthá» «a",
      "Ġthá» ©c",
      "ĠC H",
      "ĠC hÃ",
      "Ġdá» Ł",
      "Ãº i",
      "Ġchá»ī nh",
      "ĠhÃ ´m",
      "ĠÄĳá»Ļ c",
      "Ġf an",
      "Ġph ong",
      "mi a",
      "Ġw in",
      "Ġtiáº¿ c",
      "Ġbáº Ńt",
      "Ġ9 50",
      "ĠD Ã¹ng",
      "Ġngá» §",
      "ala xy",
      ") ,",
      "N Ã³i",
      "a p",
      "a s",
      "c háº",
      "m a",
      "m p",
      "t háº",
      "Ã Ńt",
      "Ġ q",
      "Ġ ÃŃch",
      "áº Ńy",
      "Ġc ua",
      "Ġt Ã´",
      "Ġt áºŃp",
      "Ġt ivi",
      "Ġv iÃªn",
      "Ġk Ã¬",
      "Ġb uá»ĵn",
      "ĠÄĳá» ¡",
      "Ġtr Ã¬nh",
      "Ġtr ÃŃ",
      "Ġx Ã¡c",
      "Ġgi áº£m",
      "in a",
      "Ġnháº ¯n",
      "Ġhá» Ļ",
      "ĠS am",
      "Ġa n",
      "ĠM icrosoft",
      "ĠN am",
      "ĠN okia",
      "Ġháº £",
      "ĠkhÃ¡ ch",
      "Ġsá» £",
      "Ġsá» Ł",
      "ĠB phone",
      "Ġho Ãłi",
      "Ġw ifi",
      "Ġtiáº¿ n",
      "Ġma x",
      "Ġsá»Ń a",
      "et oot",
      "el l",
      "ui ld",
      "ĠtÃŃ ch",
      "ĠÄĳáº· t",
      "ĠghÃ ©t",
      "eb ook",
      "ii ii",
      "etoot h",
      "0 4",
      "A pple",
      "B áº¡n",
      "C Å©ng",
      "G b",
      "M Ã¡y",
      "P in",
      "S ony",
      "X áº¥u",
      "d e",
      "u m",
      "v e",
      "£ m",
      "§ m",
      "¨ n",
      "© o",
      "² ng",
      "Ġ á»ĳng",
      "Ľ m",
      "áº ¢",
      "Ġt áº¡",
      "Ġt Ãłu",
      "Ġt Ãºi",
      "ĠÄĳ Æ°a",
      "ĠÄĳ Æ¡n",
      "Ġm Ã£",
      "Ġl iá»ģn",
      "Ġv o",
      "Ġb b",
      "Ġb Ã©",
      "Ġs e",
      "iá» ħ",
      "Ġg hi",
      "Ġg áº·p",
      "Ġd Æ°",
      "Ġd Ãłnh",
      "Ġd Ãły",
      "Ġr Æ¡i",
      "Ġr Ã¹i",
      "Ġchá» ¥c",
      "áº¯ ng",
      "Ġváº Ńt",
      "ĠC Ã¡c",
      "ĠT H",
      "ĠT háº",
      "ĠT háºŃt",
      "ĠN háºŃt",
      "Ãº a",
      "ĠphÃ Ń",
      "ĠphÃ ²ng",
      "Ġ3 5",
      "ĠH D",
      "ĠnhÃ ¢",
      "ĠV Ãł",
      "ĠG iÃ¡",
      "ĠG iá»Ŀ",
      "Ġw atch",
      "im e",
      "uá» ķi",
      "ĠR AM",
      "Ġhá»ĵ ng",
      "ĠÄĳáº§ y",
      "Ġkho áº£n",
      "Ġrá» Ľt",
      "Ġmo d",
      "it e",
      "Ġfi le",
      "Má» Ļt",
      "a g",
      "l y",
      "p er",
      "Ã Ģ",
      "Ġ Ġ",
      "Ġ QuÃ¡",
      "Ġ Æ°u",
      "á» ©",
      "á» ±",
      "á» ģ",
      "Ġc Ã¢",
      "Ġc ong",
      "Ġc Ã¢n",
      "Ġt ung",
      "Ġt iÃªn",
      "Ġt áº¥m",
      "Ãł m",
      "Ġn am",
      "ĠÄĳ e",
      "ĠÄĳ en",
      "Ġm oi",
      "Ġl áº¡",
      "Ġl Æ°u",
      "Ġl Æ°á»Ľt",
      "háº §n",
      "Ġv iá»ĩt",
      "Ġb uild",
      "Ġs ung",
      "Ġh y",
      "Ġd uy",
      "Ġd Ã¡n",
      "Ġr Ãºt",
      "Ġr iÃªng",
      "ĠthÃ ¢n",
      "Ġng oáº¡i",
      "Ġch ang",
      "Ġtr áº»",
      "Ġth iá»ĩt",
      "Ġvá» £",
      "iáº¿ m",
      "Ġ1 4",
      "Ġgi ao",
      "Ġbá» ķ",
      "Ġnháº Ńp",
      "ĠM ua",
      "ĠÄĳÃ ¨n",
      "Ġgiá» ¯a",
      "ĠN Ã³i",
      "Ġháº ¡",
      "Ġháº Ńn",
      "Ġháº ¡i",
      "ĠH P",
      "uá»ĳ t",
      "Ġtrá» «",
      "ĠB áº¡n",
      "ar e",
      "ĠP ro",
      "Äĳ ang",
      "Ġip ad",
      "el f",
      "Ġvi d",
      "ĠO ppo",
      "Ġzen fone",
      "Ġin ch",
      "Ġblu etooth",
      "ite ch",
      "Q ua",
      "R áº¥t",
      "S U",
      "c Ã²n",
      "c om",
      "e d",
      "e at",
      "n áº¿u",
      "o d",
      "o om",
      "p ad",
      "t e",
      "t hÃ",
      "u b",
      "Ġ Ã¡m",
      "ĭ p",
      "á» ģn",
      "Ġc Ã¢y",
      "Ġt i",
      "Ġt iÃª",
      "Ġt ui",
      "Ġt Ã¡o",
      "ĠÄĳ Ã´",
      "Ġl inh",
      "Ġv Ãª",
      "Ġk g",
      "Ġk im",
      "Ġk iá»ĩm",
      "há» ±c",
      "Ġb áº¡i",
      "Ġh Æ°á»Ľng",
      "Ġg áº¯n",
      "Ġd a",
      "Ġr ung",
      "áº¡ ch",
      "Ġnh a",
      "Ġnh iÃªu",
      "Ġtr eo",
      "Ġtháº ±ng",
      "Ġ1 5",
      "Ġ1 00",
      "Ġgi Æ¡",
      "Ġhá» ĳi",
      "ĠC on",
      "Ġ2 5",
      "Ġkh uyÃªn",
      "ÃŃ u",
      "Ġná» Ńa",
      "Ġlá» ĭch",
      "Ġháº Ńu",
      "Ġdá» ±",
      "Ġ3 00",
      "ĠH uawei",
      "ar d",
      "ĠÄĲ ang",
      "ac book",
      "Ġlo g",
      "Ġdo anh",
      "Ġhá»ĵ i",
      "ĠthÃ¡ nh",
      "Ġ8 0",
      "ĠkhÃ³ a",
      "ĠnghÄ© a",
      "Ġphá» ¥c",
      "Ġlen s",
      "ĠZen fone",
      "Ġquy áº¿t",
      "ov o",
      "Ġtu áº§n",
      "Ġcá»ķ ng",
      "elf ie",
      "H uawei",
      "S ao",
      "a l",
      "a v",
      "d ate",
      "e s",
      "i r",
      "i st",
      "m á»",
      "n Ã³i",
      "o c",
      "r ime",
      "u rface",
      "· t",
      "Ġ 0",
      "Ġ one",
      "Ġ áº§m",
      "Ġ ....",
      "Ġ !!!",
      "ĳ t",
      "á» Ľ",
      "áº ¾",
      "Ġc áº¡n",
      "Ġn o",
      "Ġn Ã¡",
      "Ġn Ã¨",
      "ĠÄĳ áº¡i",
      "Ġm u",
      "Ġm Ã¡i",
      "Ġm áº·c",
      "Ġl oi",
      "Ġv Ã²ng",
      "Ġb áº¯p",
      "Ġs áº¯p",
      "Ã³ p",
      "Ġg Ã³c",
      "Ġd anh",
      "Ġd Ã¢n",
      "Ġr Ã¡ng",
      "Ġr áº±ng",
      "ĠthÃ ´",
      "Ġng a",
      "Ġnh i",
      "ĠÄĳá» ©ng",
      "Ġch ai",
      "Ġtr Ã´ng",
      "Ġtr Ã³c",
      "Ġtr áº§y",
      "Ġx Ã³",
      "Ġx ÃŃu",
      "Ġth Æ°",
      "Ġqu áº¥t",
      "Ġtháº £m",
      "ua l",
      "Ġbá» Łi",
      "Ġhá» ģ",
      "Ġváº ·t",
      "Ġtá» Ń",
      "Ġtá» ¥t",
      "Ġra t",
      "Ġcáº£ nh",
      "Ġlá» Ŀi",
      "an d",
      "en t",
      "ĠphÃ ¹",
      "ĠÄĳi Ãªn",
      "ĠA W",
      "Ġtrá» ĭ",
      "ĠL u",
      "Ġf la",
      "Ġph Ãł",
      "Ġph iÃªn",
      "om e",
      "Äĳ á»",
      "ĠhÃ£ y",
      "ĠD ell",
      "Ġrá» Ļng",
      "?? ?",
      "Ġxá» Ń",
      "Ġxá» ©ng",
      "th iáº¿t",
      "Ġ= ))",
      "iá»ħ n",
      "1 5",
      "4 00",
      "A h",
      "D Ã¹ng",
      "M Ãłn",
      "V iá»ģn",
      "X iaomi",
      "b erry",
      "c t",
      "f an",
      "k o",
      "m ua",
      "o Ãłi",
      "o bi",
      "s h",
      "t y",
      "t Ã´i",
      "t el",
      "¥ m",
      "© u",
      "± m",
      "Ã Į",
      "Æ ¯",
      "Ġ Æ°",
      "Ġ áº¿",
      "á» Ŀi",
      "áº ¤",
      "Ġc áºŃn",
      "Ġt Ã¹",
      "Ġt áº¥t",
      "ĠÄĳ Ã´i",
      "ĠÄĳ áº£m",
      "ĠÄĳ Ã¡m",
      "Ġm an",
      "Ġm Ã¡t",
      "Ġl áºŃp",
      "Ġv e",
      "Ġv Æ¡",
      "Ġv ÃŃ",
      "Ġv ui",
      "Ġk iáº¿m",
      "Ġb t",
      "Ġs Æ¡",
      "Ġs uy",
      "Ġs ai",
      "Ġs elfie",
      "Ġh inh",
      "Ġh iá»ĥn",
      "Ġg áº¥p",
      "Ġd Ã¡m",
      "áº¿ p",
      "Ġng á»ĵi",
      "Ġch ua",
      "Ġx Ãºc",
      "Ġx uyÃªn",
      "Ġx Ã©t",
      "Ġth Ãł",
      "Ġth ao",
      "Ġqu en",
      "Ġqu áº§n",
      "Ġvá» įc",
      "Ġcá» ĳ",
      "Ġmá» ¥c",
      "á»ĳ n",
      "in k",
      "Ġcháº ¡",
      "Ġcháº ¥p",
      "Ġcá»§ ng",
      "Ġnháº §m",
      "Ġa h",
      "ĠM ong",
      "ĠM áº¥y",
      "Ġ2 0",
      "ĠÄĳÃ Ńch",
      "Ġlá» Ĺ",
      "Ġháº ¥p",
      "Ġháº ¡n",
      "Ġdá» ¯",
      "ĠphÃ Ńa",
      "ĠA SU",
      "uyá» ģn",
      "ÄĲ Ãºng",
      "ĠnhÃ ¡i",
      "ĠV á»Ľi",
      "ĠÄĳá»Ļ i",
      "Ġf ull",
      "Ġph a",
      "us d",
      "ĠG R",
      "Ġkhá» ķ",
      "Ã£ y",
      "Ġe dge",
      "Ġkháº ©u",
      "Ġup date",
      "Ġsu áº¥t",
      "Ġtho áº£i",
      "ĠChá» ī",
      "Ġcáº¡ ch",
      "Tr Æ°á»Ľc",
      "og le",
      "Ġ^ ^",
      "ĠÄĳÃ¡ p",
      "1 2",
      "1 7",
      "5 5",
      "C Ã²n",
      "I á»",
      "L áº¡i",
      "P S",
      "T á»«",
      "a ss",
      "b á»",
      "b er",
      "b le",
      "g i",
      "i d",
      "i p",
      "m Ãłu",
      "p s",
      "s e",
      "t n",
      "w are",
      "Ġ Ã´",
      "Ġ Æ°a",
      "į t",
      "Ń i",
      "á» «a",
      "áº ±m",
      "Ġt im",
      "Ġn Ã",
      "Ġn ot",
      "Ġn iá»ĩm",
      "Ġn áº±m",
      "ĠÄĳ u",
      "hÃ ¡",
      "Ġm Ã¡",
      "Ġm ai",
      "Ġl ÃŃ",
      "Ġl Æ°ng",
      "Ġl Ãºa",
      "Ġv u",
      "há» Ŀi",
      "Ġb ay",
      "Ġb phone",
      "Ġs h",
      "Ġh e",
      "Ġh u",
      "Ġh ot",
      "Ġh ic",
      "Ġg Ã¡i",
      "Ġg á»ĳc",
      "Ġg Ã³p",
      "Ġr Ã¢",
      "Ġr á»ĳi",
      "ĠthÃ º",
      "Ġng áº¡i",
      "Ġnh e",
      "Ġch uyÃªn",
      "Ġch Äĥng",
      "Ġtr Æ°á»Ŀng",
      "Ġtr iá»ĥn",
      "Ġx in",
      "Ġth e",
      "Ġth am",
      "Ã¹ a",
      "ĠnÃł n",
      "Ġmá» Ŀ",
      "Ġmá» ĩt",
      "Ġmá» «ng",
      "Ġ1 8",
      "Ġcháº ¥m",
      "Ġtá» Ļi",
      "Ġa w",
      "ĠM a",
      "ĠM acbook",
      "ĠchÃ ºng",
      "ĠN hÃ¬n",
      "Ġná» į",
      "Ġnhá» ±a",
      "an on",
      "Ãº p",
      "Ġngh i",
      "Ġsá» Ľm",
      "ĠphÃ ¡n",
      "Ġ3 2",
      "Ġ6 4",
      "ĠhÃ ´",
      "Ġ5 0",
      "ĠP háº£i",
      "ĠÄĲ Ãºng",
      "Ġph Æ¡i",
      "Ġto Ã¡n",
      "ac ebook",
      "ĠI OS",
      "Ġma in",
      "Ġ10 2",
      "Ġká» ¹",
      "Ġchiáº¿ u",
      "Ġkháº ¯c",
      "ĠE m",
      "Ġsu rface",
      "Ġtho áº£ng",
      "ĠTr ong",
      "Ġquy á»ģn",
      "li en",
      "Ġmobi le",
      "áº¹ t",
      "lo ck",
      "Nh Æ°ng",
      "áº¢ nh",
      "per ia",
      "ĠASU S",
      ", ...",
      "1 00",
      "2 5",
      "2 00",
      "4 0",
      "6 0",
      "7 0",
      "A ndroid",
      "B á»",
      "C hÃ",
      "C Ã¡c",
      "C á»©",
      "I N",
      "I phone",
      "K h",
      "M P",
      "M ua",
      "M áº¥y",
      "N ote",
      "O N",
      "P U",
      "R áº»",
      "U A",
      "b o",
      "b s",
      "c s",
      "d Ã¹ng",
      "e x",
      "g a",
      "i phone",
      "m m",
      "m inh",
      "m Ah",
      "r áº¥t",
      "u áº©n",
      "v Ãł",
      "x áº¥u",
      "¥ i",
      "¨ m",
      "¹ n",
      "â Ģ",
      "Ġ Ã¡",
      "Ġ Æ°ng",
      "Ġ Ã¡nh",
      "Ġ Ãło",
      "ĭ n",
      "Ł m",
      "Ń nh",
      "ng he",
      "Ġc ung",
      "Ġc Æ°á»Ľi",
      "Ġt q",
      "Ġt y",
      "Ġt áºŃn",
      "Ġn áº£n",
      "Ġn en",
      "Ġn áº¯p",
      "ĠÄĳ ua",
      "ĠÄĳ Æ°Æ¡",
      "ĠÄĳ iá»ĥn",
      "ĠÄĳ Ã²i",
      "hÃ ª",
      "Ġm Ã´",
      "Ġl g",
      "Ġl Ã´",
      "Ġl ao",
      "Ġl ung",
      "Ġl ong",
      "Ġl áº§m",
      "Ġl Æ°Æ¡",
      "Ġv Ã¢",
      "Ġv iáº¿t",
      "Ġk e",
      "Ġb h",
      "Ġb ong",
      "Ġb Ãºt",
      "Ġb áº£ng",
      "Ġb uá»ķi",
      "Ġs w",
      "Ġh d",
      "Ġg om",
      "Ġg Ã¢y",
      "Ġg alaxy",
      "Ġd uyá»ĩt",
      "Ġd ep",
      "Ġr Ã´",
      "Ġr oi",
      "Ġr áº§m",
      "Ġr oot",
      "Ġp rime",
      "áº£ y",
      "Ġnh ung",
      "Ġnh Æ°á»£c",
      "ĠÄĳá» ©a",
      "Ġch e",
      "Ġch ay",
      "Ġch iá»ģu",
      "Ġtr c",
      "Ġtr Ã²n",
      "Ġth oi",
      "Ġth ui",
      "Ġvá» ©t",
      "Ġtháº Ńm",
      "Ġchá» ¯",
      "iá»ĩ p",
      "Ġmá» ¹",
      "Ġmá» ıi",
      "á»ĳ t",
      "iáº¿ ng",
      "in e",
      "ch Æ°a",
      "Ġpháº ¿t",
      "Ġbá» ĥ",
      "Ġbá» ±c",
      "Ġhá» ©ng",
      "ĠS urface",
      "ĠC áº£m",
      "ĠC ho",
      "ĠC amera",
      "Ġ2 1",
      "Ġ2 3",
      "uy áº¿t",
      "Ġkh a",
      "Ġra w",
      "ĠT V",
      "ĠT uy",
      "ĠchÃ ¢",
      "ĠchÃ ©m",
      "ĠchÃ ¡y",
      "Ġgiá» ¯",
      "Ġlá» Łm",
      "Ġtá»ĳ c",
      "Ġdá» ĭ",
      "en ovo",
      "Ġngh iá»ĩp",
      "Ġsá» ©c",
      "ĠphÃ ¢",
      "Ġ3 0",
      "ÄĲ iá»ĩn",
      "Ġlu mia",
      "ĠH ome",
      "Ġtrá» ¯",
      "Ġ6 00",
      "ĠhÃ ³ng",
      "ĠhÃ ºt",
      "Ġho áº¡t",
      "Ġ4 0",
      "Ġy Ãªn",
      "ĠÄĲ T",
      "ĠÄĲ áº",
      "Ġph ai",
      "ĠG o",
      "Ġw m",
      "Ġw indows",
      "Ġgá» Ńi",
      "ĠX Ãłi",
      "ĠkÃ ©o",
      "ĠR am",
      "ndr oi",
      "Ġhá»ĵ n",
      ".... ....",
      "ĠthÃ¡ i",
      "Ġcháº£ nh",
      "ĠW in",
      "hi p",
      "ĠO K",
      "ĠO bi",
      "la ss",
      "Ġu n",
      "Ġre s",
      "Ġphá» ķ",
      "ie u",
      "Ã¨ o",
      "Ġtho Ã¡t",
      "ĠChá» ©",
      "Ġ:)) )",
      "or t",
      "ĠU S",
      "li p",
      "!!!! !!!!",
      "kk kk",
      "chá» ī",
      "ĠJ o",
      "ThÃ ´i",
      "ThÃ Ńch",
      "ĠkÃ¨ m",
      "EE EE",
      "ma h",
      "tháº ¥y",
      "Ġtáº¡ m",
      "Ġvid eo",
      "eat er",
      "thÃ Ńch",
      "ub e",
      "Ġlog itech",
      "ĠLu mia",
      "ĠmÃ¡ u",
      "1 4",
      "9 0",
      "A N",
      "A sus",
      "C Ãłng",
      "C Ã´ng",
      "C amera",
      "H á»",
      "I P",
      "L E",
      "M i",
      "M áº·t",
      "T E",
      "V Ãł",
      "c áº¥u",
      "g h",
      "h Ãłng",
      "n Ã³",
      "n ote",
      "n ap",
      "o ut",
      "p e",
      "p h",
      "p in",
      "p ro",
      "s u",
      "s er",
      "u n",
      "u ch",
      "u to",
      "v Ã¬",
      "v ie",
      "w atch",
      "x Ãłi",
      "£ n",
      "¥ ng",
      "§ u",
      "³ i",
      "´ n",
      "Ġ !!",
      "ĩ n",
      "ı e",
      "Ľ p",
      "áº Ńu",
      "Ġc m",
      "Ġc Æ°á»Ŀi",
      "Ġc om",
      "Ġc áº©n",
      "Ġc Äĥng",
      "Ġt Ãªn",
      "Ġt Ã¢",
      "Ġt an",
      "Ġt uá»ķi",
      "Ġt cs",
      "Ġn okia",
      "Ġm ot",
      "Ġm áº£ng",
      "Ġm Ã³c",
      "Ġl am",
      "Ġl Äĥ",
      "Ġl iá»ĩt",
      "Ġl áº¡c",
      "Ġl áº¯p",
      "Ġl áº«n",
      "Ġl Äĥn",
      "Ġl Ã²i",
      "Ġk Ãª",
      "Ġk it",
      "Ġk ÃŃch",
      "há» ¯ng",
      "Ġb u",
      "Ġb Æ¡i",
      "Ġb lack",
      "Ġs áº¯m",
      "Ġs ho",
      "Ġg áº¡o",
      "Ġd áº¡i",
      "Ġd ong",
      "Ġd áº§n",
      "Ġd ÃŃnh",
      "Ġd áº§y",
      "Ġr Ã¨",
      "Ġp ass",
      "Ġng Ã¡n",
      "Ġng á»ĳn",
      "Ġnh at",
      "Ġch uá»Ļ",
      "Ġtr anh",
      "Ġx Æ°á»Ľc",
      "ĠkhÃ ºc",
      "Ġqu Ãªn",
      "Ġqu Ã©t",
      "Ġvá» ĭ",
      "Ġcá» ¡",
      "Ġcá» Ļng",
      "Ġtháº Ńn",
      "Ġchá» ¯a",
      "Ġchá» «ng",
      "iáº¿ c",
      "Ġgi Ãł",
      "Ġgi Ãºp",
      "Ġthá» Ľt",
      "Ġnháº ¯c",
      "ĠS h",
      "ĠS mart",
      "ĠS te",
      "ĠC Ã´ng",
      "ĠC ook",
      "ĠC PU",
      "Ġá» §ng",
      "ĠM Ã¬",
      "ĠM Ãłn",
      "ĠM at",
      "ĠM obi",
      "Ġ2 00",
      "Ġkh ong",
      "ĠT hÃ",
      "ĠT á»«",
      "Ġi OS",
      "ĠchÃ º",
      "ÃŃ a",
      "Ġdá» ĭch",
      "an k",
      "ĠphÃ ª",
      "ĠphÃ ºt",
      "ĠÄĳi Ãª",
      "ĠA n",
      "Ġ3 000",
      "ÄĲ H",
      "ĠH ÄĲH",
      "uá»ĳ c",
      "Ġtrá» Ļi",
      "ĠB Ã¡c",
      "ĠnhÃ ´m",
      "ĠV Ã¬",
      "Ġ5 00",
      "iÃª m",
      "ar p",
      "ĠL o",
      "ĠP hone",
      "ĠP lus",
      "Ġf acebook",
      "ĠX peria",
      "Äĳ Ã£",
      "Ġlo ad",
      "Ġkhá» ±a",
      "Ġkhá» ıe",
      "ĠR O",
      "ĠK o",
      "ĠthÃ¡ o",
      "Ġkho e",
      "ĠW atch",
      "ĠF ull",
      "Ġngá» Ŀ",
      "Ġre st",
      "Ġphá» ¥",
      "Ġhá»į a",
      "Ġthu áºŃt",
      "ĠChá» ¥p",
      "iv e",
      "ĠTr ung",
      "Ã© p",
      "ĠQ uá»ĳc",
      "ĠMá» Ļt",
      "ĠMá» Ĺi",
      "Ġfi x",
      "Cháº ¯c",
      "ĠCh Æ°a",
      "Ġmobi st",
      "Ġtuy Ãª",
      "Ġgo ogle",
      "iiii iiii",
      "Ġtáº¡ p",
      "Ġvo lu",
      "Ġmod el",
      "ly mp",
      "ist ar",
      "Ġfla sh",
      "Ġcháº¡ m",
      "lien ware",
      "Ġun lock",
      "ĠJo bs",
      "Ġchuá»Ļ ng",
      "ĠMat ebook",
      "! ?",
      "0 2",
      "1 1",
      "1 8",
      "2 4",
      "3 00",
      "7 00",
      "A i",
      "C Ã¡",
      "I M",
      "K o",
      "M b",
      "M á»Ľi",
      "N H",
      "N Ã³",
      "O ppo",
      "P P",
      "P háº£i",
      "S am",
      "T B",
      "T o",
      "T há»±c",
      "T há»Ŀi",
      "V Ã¢ng",
      "V á»Ľi",
      "V á»«a",
      "X Ãłi",
      "b áº¡n",
      "d mi",
      "e w",
      "f f",
      "g s",
      "h uyÃªn",
      "i l",
      "i x",
      "i on",
      "l ic",
      "n e",
      "p lus",
      "s amsung",
      "t ar",
      "t háºŃt",
      "u p",
      "£ t",
      "¨ o",
      "Ã ĵ",
      "Ġ ;",
      "Ġ Y",
      "Ġ ..",
      "Ġ Æ°á»Ľc",
      "Ġ Qu",
      "ı a",
      "ĵ ng",
      "á» ŀ",
      "Ġc Ã´",
      "Ġc ai",
      "Ġc lip",
      "Ġt en",
      "Ġt Ã½",
      "Ġt Ãło",
      "Ġt uá»Ļt",
      "Ġt áº·ng",
      "Ġn Æ°",
      "Ġn ao",
      "Ġn oi",
      "ĠÄĳ áº¿",
      "ĠÄĳ áº¡o",
      "ĠÄĳ Ã¡o",
      "ĠÄĳ áº¡t",
      "hÃ ¨o",
      "Ġm Æ°á»£",
      "Ġm áº»",
      "Ġm ac",
      "Ġl y",
      "Ġv n",
      "Ġv uá»ĳt",
      "Ġk Ãªu",
      "nh Æ°",
      "Ġb Ã³",
      "Ġb á»ĳ",
      "Ġb iÃª",
      "Ġb iá»ĥu",
      "Ġb Ã³ng",
      "Ġs c",
      "Ġs x",
      "Ġs ong",
      "Ġs inh",
      "Ġs Ä©",
      "Ġs Æ¡n",
      "Ġs Ã¡t",
      "Ġs mp",
      "Ġs uá»ĳt",
      "Ġh iÃª",
      "Ġh Ãło",
      "Ġh uawei",
      "Ã³ m",
      "Ġg a",
      "Ġg r",
      "Ġg áº¡ch",
      "Ġd ang",
      "Ġd Ã¬m",
      "Ġd ual",
      "Ġd Ã©p",
      "Ġr Ãł",
      "Ġr Æ°á»Ľc",
      "Ġr Ã¡c",
      "ĠthÃ ¨m",
      "Ġp o",
      "on n",
      "Ġng áº¯n",
      "Ġng hÃ¨o",
      "ĠÄĳá» ©t",
      "Ġch a",
      "Ġch Æ°",
      "Ġch on",
      "Ġch Äĥ",
      "Ġch at",
      "Ġch uá»ĳi",
      "Ġtr ai",
      "Ġtr Ã¡i",
      "Ġtr Äĥm",
      "Ġtr áº¯ng",
      "Ġtr uyá»ģn",
      "Ġx Ã¢",
      "Ġx áº¡c",
      "Ġx áº¿p",
      "Ġx áº£y",
      "Ġth a",
      "Ġth iá»ĩu",
      "Ġcá» ¥",
      "Ġtháº ³ng",
      "Ġtháº §n",
      "Ġgi Ã³",
      "in i",
      "Ġthá» īnh",
      "Ġpháº £n",
      "Ġbá» ¯a",
      "Ġbá» ¥i",
      "Ġnháº ½",
      "Ġnháº ¡y",
      "Ġhá» Ļi",
      "Ġhá» ĳt",
      "ĠS E",
      "ĠS á»",
      "ĠS ao",
      "Ġtá» ķ",
      "Ġtá» ©c",
      "Ġa ndroi",
      "Ġa uto",
      "ĠC anon",
      "Ġá» ŀ",
      "Ġá» ©c",
      "ĠM S",
      "ĠM ang",
      "ĠM UA",
      "Ġ2 4",
      "ĠT ÃŃnh",
      "ĠT im",
      "ĠT ui",
      "ĠT há»±c",
      "ĠN H",
      "ĠN Ã³",
      "Ġlá» ¡",
      "Ġlá» ĩ",
      "Ġlá» ±c",
      "Ġháº ¹n",
      "Ġháº §u",
      "Ġdá» «ng",
      "Ġngh iÃªm",
      "Ġsá» ¥t",
      "ĠA PP",
      "ÄĲ Æ°á»£c",
      "ÄĲ áº¯t",
      "ÄĲ Ã¢y",
      "Ġlu m",
      "Ġlu n",
      "ĠH o",
      "Ġtrá» ±c",
      "ĠV i",
      "ĠV áºŃy",
      "ĠhÃ ª",
      "ĠhÃ ³",
      "Ġho a",
      "ĠL og",
      "ĠP R",
      "ĠP r",
      "ĠP hÃ",
      "ĠP ay",
      "ĠP háº§n",
      "Ìī .",
      "ĠÄĲ Ã³",
      "Ġph Ãłn",
      "ĠI Phone",
      "Ġw p",
      "Ġai r",
      "ĠkÃ ©p",
      "Ġlo áº¡n",
      "Ġkhá» Łi",
      "Ġma de",
      "Ġ9 9",
      "ic e",
      "ĠD Ã¹",
      "Ġthi ch",
      "et tel",
      "Ġká» ĭp",
      "Ġchuyá» ĩn",
      "ad a",
      "Ġsmart watch",
      "ĠNh iá»ģu",
      "Ġre p",
      "Ġre dmi",
      "Ġphá» ©c",
      "Ġta b",
      "Ġmi b",
      "Ġthu áºŃn",
      "Ġbo ard",
      "Ġdu oc",
      "or e",
      "th ua",
      "Ġbi k",
      "ĠQ ua",
      "ĠMá» ¹",
      "ĠCháº ¯c",
      "ĠCháº ³ng",
      "ĠCh ina",
      "ĠNg oÃłi",
      "Ġ201 5",
      "ÄĲá» įc",
      "Chá» ī",
      "Tháº ¥t",
      "Tháº ¥y",
      "Ġli ke",
      "Ġli gh",
      "Ãģ N",
      "ÃĶ i",
      "ĠChÃ ¡n",
      "cháº ¯c",
      "ĠkÃ¬ a",
      "um ber",
      "ag on",
      "Ġvid onn",
      "ĠxÃ³ a",
      "ĠtÃ¹ m",
      "ĠnÃ ©m",
      "Ġhe he",
      "lass ic",
      "out ube",
      "vie w",
      "Ġcom m",
      "Ġblack berry",
      "ĠSte ve",
      "Ġvolu me",
      "lymp us",
      "!? !",
      "ix el",
      "ĠmÆ°á»£ n",
      "* #",
      ", ,",
      "/ /",
      "0 5",
      "2 3",
      "2 01",
      "7 5",
      "9 50",
      ": ))",
      ": //",
      "> >",
      "B B",
      "B áº£n",
      "B Ã¡c",
      "C áº£",
      "C áº¥u",
      "C áº§m",
      "C áº£m",
      "D Ã¹",
      "D Ã²ng",
      "H D",
      "H P",
      "H áº¿t",
      "I pad",
      "K áº¿t",
      "M inh",
      "N Ãªn",
      "P ad",
      "S au",
      "T ÃŃnh",
      "T á»Ľ",
      "U Ãģ",
      "V áº«n",
      "Z en",
      "_ ^",
      "a lo",
      "c e",
      "c o",
      "c hÃ",
      "c Ã¡",
      "c Ã´ng",
      "c Ã¡c",
      "c amera",
      "c á»©",
      "d y",
      "d er",
      "d Ã²ng",
      "e u",
      "e ar",
      "e dge",
      "h a",
      "h er",
      "i k",
      "i o",
      "i Phone",
      "i ke",
      "l l",
      "l tr",
      "m Ãłn",
      "m ar",
      "m á»Ľi",
      "p hÃ",
      "p háº§n",
      "p ort",
      "r om",
      "s au",
      "t i",
      "t er",
      "t uyá»ĩt",
      "t ing",
      "u d",
      "u r",
      "u Ã´n",
      "v er",
      "v á»Ľi",
      "v á»ģ",
      "w a",
      "y w",
      "¡ ng",
      "¢ u",
      "£ y",
      "¹ i",
      "» o",
      "Ġ on",
      "Ġ Ãª",
      "Ġ Æ¡n",
      "Ġ ??",
      "Ġ .....",
      "Ġ áº¤",
      "Ĥ U",
      "ĥ ng",
      "Ĭ N",
      "ĭ a",
      "ĳ n",
      "Ļ c",
      "á» ĥ",
      "áº ³ng",
      "ng on",
      "Ġc hÃ¬",
      "Ġc Æ°á»Ľ",
      "Ġc Ãº",
      "Ġc Ã¢u",
      "Ġc ro",
      "Ġc áº¯p",
      "Ġc ty",
      "Ġt áº£",
      "Ġt Æ¡",
      "Ġt oi",
      "Ġt ot",
      "Ġt Æ°Æ¡",
      "Ġt áº£i",
      "Ġn Ãª",
      "Ġn hÃ¬",
      "Ġn tn",
      "Ġn ex",
      "Ġn umber",
      "ĠÄ ĥng",
      "ĠÄĳ am",
      "ĠÄĳ áº¥t",
      "ĠÄĳ Äĥ",
      "ĠÄĳ au",
      "ĠÄĳ Æ°Æ¡ng",
      "Ġm Æ°",
      "Ġm Ã³",
      "Ġm Ã¢",
      "Ġm Äĥ",
      "Ġm áº½",
      "Ġm anh",
      "Ġm áº§u",
      "Ġm iá»ħn",
      "Ġm ini",
      "Ġl au",
      "Ġl Æ°Æ¡ng",
      "Ġl Ã£",
      "Ġl áº¯c",
      "Ġv Ã¡",
      "Ġv ong",
      "Ġv an",
      "Ġv Æ°á»£t",
      "Ġv Ãºt",
      "Ġv Æ°á»Ľng",
      "Ġv Ã£i",
      "Ġv áº§y",
      "Ġk i",
      "Ġk ÃŃ",
      "Ġk Ä©",
      "Ġb Ã¹",
      "Ġb Ã²",
      "Ġb ung",
      "Ġb Äĥng",
      "Ġb ook",
      "Ġs áº»",
      "Ġs et",
      "Ġs ame",
      "Ġs Æ°u",
      "Ġs ty",
      "Ġs nap",
      "iá» ĳng",
      "Ġh ang",
      "Ġg b",
      "Ġg am",
      "Ġd áº¥u",
      "Ġd iá»ĩu",
      "Ġd á»ĳc",
      "Ġd Ãµ",
      "Ġr u",
      "Ġr oom",
      "Ġr Ã¹a",
      "ĠthÃ £i",
      "Æ°á» ¡ng",
      "áº¥ c",
      "Ġng u",
      "Ġng Æ°á»£c",
      "Ġng áº¯m",
      "Ġng Ãłn",
      "áº¡ m",
      "ĠÄĳá» ı",
      "ĠÄĳá» ķ",
      "Ġch Æ°á»Ľc",
      "Ġch iÃª",
      "Ġch ina",
      "Ġtr u",
      "Ġtr Ã²",
      "Ġtr Ãłn",
      "Ġtr iÃª",
      "Ġtr Ãło",
      "Ġx o",
      "Ġx ai",
      "Ġx inh",
      "Ġth Æ¡",
      "Ġth uyáº¿t",
      "Ġqu Ãª",
      "Ġqu áº£n",
      "Ġqu áº¡t",
      "Ġvá» ĳn",
      "Ġtháº ©m",
      "Ġchá» £",
      "iáº¿ p",
      "Ġ1 7",
      "Ġ1 9",
      "Ġgi Ã´",
      "Ġgi áº¥c",
      "Ġcháº Ńp",
      "ch o",
      "Ġthá» ģ",
      "Ġthá» ıa",
      "Ġbá» ±",
      "Ġbá» įn",
      "Ġbá» Ľt",
      "Ìģ ,",
      "Ìģ .",
      "em i",
      "Ġhá» Ł",
      "Ġhá» ©a",
      "Ġváº ©n",
      "ĠS D",
      "ĠS H",
      "ĠS au",
      "ĠS IM",
      "Ġa d",
      "ĠM áº¥t",
      "Ġkh e",
      "Ġkh ung",
      "Ġkh iá»ĥn",
      "Ġra n",
      "ĠÄĳÃ ´ng",
      "Ġi t",
      "Ġi fan",
      "ĠchÃ Ńp",
      "ĠchÃ ºc",
      "ĠN G",
      "ĠN háº",
      "ĠN Ãªn",
      "Ġná» Ĺi",
      "Ġnhá» ĭp",
      "Ġháº ¹p",
      "Ġháº ¡t",
      "Ġháº »o",
      "ĠÄĳá»ĥ u",
      "an s",
      "en s",
      "Ãº n",
      "ĠbÃ¡ t",
      "ĠphÃ ©p",
      "ĠA lienware",
      "ot o",
      "ot os",
      "Ġlu áºŃn",
      "ĠH i",
      "ĠH y",
      "ĠH á»",
      "ĠH Ã¬nh",
      "ĠH ay",
      "ĠH iá»ĩn",
      "ĠH Ãłng",
      "ĠH Ã£y",
      "Ġtrá» ħ",
      "Ġ6 0",
      "ĠB Ã¢y",
      "ĠnhÃ ²",
      "ĠV á»ģ",
      "Ġ5 20",
      "ĠÃ Ķ",
      "Ġho ang",
      "ar a",
      "ĠL Ãºc",
      "ĠL enovo",
      "ĠP h",
      "ĠP an",
      "ĠÄĳÃ³ ng",
      "Ġy outube",
      "ĠÄĲ o",
      "ĠÄĲ iá»ĩn",
      "ĠÄĲ Ã£",
      "ĠÄĲ Æ¡n",
      "Ġph an",
      "Ġph iá»ģn",
      "us e",
      "Ġto p",
      "ĠG i",
      "ĠG alaxy",
      "ĠI n",
      "Ġw a",
      "Ġgá» Ľm",
      "ĠX Ãło",
      "ĠX PS",
      "tr ong",
      "Ġkhá» ĳi",
      "ĠR iÃªng",
      "dr agon",
      "ĠK hi",
      "ĠK huyÃªn",
      "Ġcá»© u",
      "Ġ7 00",
      "Ġz oom",
      "Ġká» ģ",
      "Ä© nh",
      "ĠW P",
      "ĠW ifi",
      "Ġchu p",
      "Th ua",
      "Th eo",
      "Ġco re",
      "Ġvi ettel",
      "ĠO S",
      "ĠO ne",
      "Ġo r",
      "Ġre view",
      "áº« y",
      "ĠnhÃł m",
      "ĠIP S",
      "ie s",
      "Ġtho a",
      "Ġbo dy",
      "ĠSS D",
      "Ġxá» ĭn",
      "Ġlen ovo",
      "ĠU ltr",
      "Ġht t",
      "ĠTh ay",
      "ĠTh ink",
      "Tr á»Ŀi",
      "Ġkháº£ o",
      "ĠCháº ¥t",
      "Cháº £",
      "Cháº ³ng",
      "ĠÄĳo áº¡n",
      "Ġ12 00",
      "Ġ12 80",
      "Ġ= >",
      "ĠNg he",
      "chá» ¥p",
      "ov e",
      "áº¹ o",
      "Ġ201 1",
      "Ġ201 6",
      "ÄĲá» £i",
      "ĠÄĲá» ĥ",
      "Chá» ¥p",
      "ÃĶ NG",
      "Ġwin phone",
      "cháº ³ng",
      "ĠmÃ£ n",
      "ĠTháº ¿",
      "ir us",
      "má» Ĺi",
      "Ġmu Ã´n",
      "ĠxÃ³ t",
      "ct ive",
      "ÃĮ NH",
      "tn ing",
      "Ġmai l",
      "Ġvu Ã´ng",
      "Kh ong",
      "Ġhd h",
      "Ġche ck",
      "ĠRO M",
      "Ġmobist ar",
      "Ġnháº½ o",
      "ĠLog itech",
      "ĠPr emi",
      "Ġrep eater",
      "Ġmib and",
      "Ġcomm ent",
      "chÃ ¡n",
      "ik on",
      "ĠcÆ°á»Ľ p",
      "Ġcro p",
      "ĠnhÃ¬ u",
      "Ġnex t",
      "ĠmÃ³ n",
      "ĠlÃ£ m",
      "Ġset ting",
      "Ġsty le",
      "ĠThink pad",
      "\" .",
      "% ,",
      "% .",
      "1 6",
      "3 5",
      "9 9",
      "A C",
      "B a",
      "C S",
      "C á»",
      "C hi",
      "E O",
      "E R",
      "G alaxy",
      "G iá»ĳng",
      "H p",
      "H y",
      "H z",
      "H Ã¬nh",
      "H ay",
      "H TC",
      "H ON",
      "I áº¾",
      "L T",
      "L a",
      "L e",
      "L Ãºc",
      "L Ãłm",
      "L enovo",
      "M Ãª",
      "M ong",
      "M uá»ĳn",
      "N há»¯ng",
      "O D",
      "P háº§n",
      "Q UÃģ",
      "R a",
      "R am",
      "S S",
      "S áº½",
      "S ai",
      "S áº¡c",
      "S iÃªu",
      "S mart",
      "S urface",
      "T áº¡i",
      "T hi",
      "T Ã¡o",
      "T ivi",
      "U Y",
      "a k",
      "a x",
      "b r",
      "b an",
      "c á»",
      "c er",
      "c Å©ng",
      "e c",
      "e ss",
      "f it",
      "g ap",
      "h j",
      "h u",
      "h y",
      "h iá»ĩn",
      "h Æ¡i",
      "i le",
      "i ss",
      "k y",
      "k iá»ĥu",
      "k áº¿t",
      "l Ãªn",
      "l ay",
      "l Ãłm",
      "m n",
      "m in",
      "m an",
      "n Ãªn",
      "n et",
      "n iv",
      "o p",
      "o ss",
      "p g",
      "p u",
      "p y",
      "p háº£i",
      "r us",
      "r ome",
      "s a",
      "s p",
      "s ao",
      "s Ãłi",
      "s fit",
      "t b",
      "t c",
      "t in",
      "t á»±",
      "t su",
      "u re",
      "u ck",
      "v a",
      "v áº«n",
      "x e",
      "x l",
      "x p",
      "x in",
      "y e",
      "y n",
      "y an",
      "z en",
      "¨ ng",
      "© y",
      "³ m",
      "µ n",
      "Ã Ļ",
      "Ã ĬN",
      "Å ©",
      "Ġ $",
      "Ġ &",
      "Ġ '",
      "Ġ >",
      "Ġ á»ĳ",
      "Ġ am",
      "Ġ á»ĵ",
      "Ġ Ã´i",
      "Ġ áº¹p",
      "Ġ ))",
      "Ġ áº©n",
      "Ġ ji",
      "Ġ usd",
      "Ġ âĢ",
      "ĩ nh",
      "į p",
      "ı m",
      "Ļ m",
      "á» ľ",
      "áº ł",
      "ng Æ°á»Ŀi",
      "Ġc anh",
      "Ġc Ãłnh",
      "Ġc Æ°á»Ŀng",
      "Ġc uá»ĵ",
      "Ġt v",
      "Ġt Ã¹ng",
      "Ġt á»ĵi",
      "Ġt áº§n",
      "Ġt Ãłn",
      "Ġt uá»",
      "Ġt Äĥn",
      "Ġt ime",
      "Ġt áº¹t",
      "Ġt áºŃu",
      "Ġt áº¹o",
      "Ġn Ã´",
      "Ġn ang",
      "Ġn Æ°Æ¡",
      "Ġn Ã£",
      "Ġn et",
      "Ġn áº§y",
      "Ġn Ã¡t",
      "Ġn áº¯ng",
      "ĠÄĳ Ã¬nh",
      "ĠÄĳ Ãłi",
      "ĠÄĳ Ãłn",
      "ĠÄĳ iá»ĩu",
      "hÃ ©t",
      "Ġm p",
      "Ġm Ã¹",
      "Ġm en",
      "Ġm Æ°a",
      "Ġm áº¯n",
      "Ġm áº¹",
      "Ġm Ã¹a",
      "Ġm ÃŃa",
      "Ġm Ãºn",
      "Ġl e",
      "Ġl áº£",
      "Ġl Ã¹i",
      "Ġl ed",
      "Ġv Æ°",
      "Ġv ay",
      "Ġv oi",
      "Ġv iÃª",
      "Ġv Ã¡c",
      "Ġv Äĥn",
      "Ġv iá»ħn",
      "Ġk eo",
      "Ġk iá»ĩt",
      "Ġk iá»ĥm",
      "há» ©",
      "Ġb x",
      "Ġb Äĥ",
      "Ġb en",
      "Ġb at",
      "Ġb ack",
      "Ġb áº§u",
      "Ġb uá»Ļc",
      "Ġb Ã¨o",
      "Ġb ye",
      "Ġs m",
      "Ġs v",
      "Ġs áº",
      "Ġs Æ°",
      "Ġs Ã´",
      "Ġs Äĥ",
      "Ġs er",
      "Ġs Æ°Æ¡ng",
      "Ġs hi",
      "Ġs ky",
      "Ġh am",
      "Ġh anh",
      "Ġh Äĳ",
      "Ġh uyá»ģn",
      "Ġh uyáº¿t",
      "Ã³ a",
      "Ġg háº",
      "Ġg ear",
      "Ġd e",
      "Ġd l",
      "Ġd Ãª",
      "Ġd Æ¡",
      "Ġd em",
      "Ġd ÃŃ",
      "Ġd Ãłng",
      "Ġd en",
      "Ġd au",
      "Ġd at",
      "Ġd Æ°Æ¡ng",
      "Ġd Ã£i",
      "Ġd Äĥm",
      "Ġr Æ°á»",
      "Ġr Ãª",
      "Ġr iáº¿t",
      "Ġr Ãłng",
      "ĠthÃ ³i",
      "on t",
      "on ic",
      "Ġng áº¥t",
      "Ġng uy",
      "Ġng Ã´i",
      "Ġng Ã¢m",
      "Ġnh iá»ĩt",
      "Ġnh Äĥn",
      "Ġnh iá»ħ",
      "ĠÄĳá» ¥ng",
      "ĠÄĳá» £t",
      "ĠÄĳá» ĭa",
      "Ġch ia",
      "Ġch iÃªu",
      "Ġch rome",
      "Ġtr a",
      "Ġtr Æ¡",
      "Ġtr en",
      "Ġtr ack",
      "Ġtr á»ĳng",
      "qu a",
      "Ġx i",
      "Ġx au",
      "Ġth ang",
      "Ġth em",
      "Ġth at",
      "Ġth iÃªn",
      "Ġth Æ°á»Łng",
      "Ġth uá»Ļc",
      "ĠkhÃ ´",
      "ĠkhÃ ¢u",
      "Ġvá» ĩ",
      "Ġvá» ±c",
      "Ġcá» ĵng",
      "Ġtháº £i",
      "Ã¹ m",
      "Ġmá» ¥",
      "Ġmá» ĭn",
      "Ġ1 1",
      "Ġgi o",
      "Ġgi áº£",
      "Ġgi Ã¢y",
      "ĠÄĳáº ¯c",
      "ĠÄĳáº ¯ng",
      "am a",
      "Ã² m",
      "á»ĵ ng",
      "ch uáº©n",
      "ch mar",
      "Ġbá» ī",
      "Ġbá» ©c",
      "Ġnháº £m",
      "Ġnháº £y",
      "Ġhá» ī",
      "Ġhá» ĳ",
      "Ġváº Ńn",
      "ĠS Ã¡m",
      "ĠS AM",
      "ĠS tar",
      "Ġtá» ·",
      "Ġa p",
      "ĠC a",
      "ĠC áº¥u",
      "ĠC Ãĵ",
      "ĠC lassic",
      "ĠC EO",
      "ĠC OD",
      "ĠC yan",
      "Ġá» įp",
      "ĠM á»Ľi",
      "ĠM ÃĮNH",
      "Ġ2 50",
      "Ġ2 700",
      "uy áº¿n",
      "Ġkh ai",
      "Ġkh Äĥn",
      "Ġkh iáº¿p",
      "Ġkh uyáº¿n",
      "ĠT R",
      "ĠT o",
      "ĠT q",
      "ĠT áº¯t",
      "ĠT á»±",
      "ĠT há»Ŀi",
      "ĠT há»©",
      "ĠÄĳÃ ºt",
      "ĠchÃ ³ng",
      "ĠchÃ ³i",
      "Ġgiá» įng",
      "ĠN há»¯ng",
      "Ġná» ¯",
      "Ġná» ģn",
      "Ġlá» ģ",
      "Ġlá» Ļ",
      "Ġlá» «a",
      "Ġlá» įc",
      "Ġlá» įt",
      "Ġnhá» Ŀ",
      "Ġháº §m",
      "an ada",
      "... !",
      "... ?",
      "en ce",
      "en chmar",
      "ĠkhÃ¡ i",
      "er s",
      "ĠA i",
      "ĠA nh",
      "ĠA ctive",
      "ĠA cer",
      "Ġ3 4",
      "ÄĲ á»ĵng",
      "le ss",
      "ĠB á»",
      "ĠB áº£n",
      "ĠB ook",
      "ĠB ack",
      "ĠB Ã¡o",
      "ĠnhÃ ¡",
      "ĠnhÃ ¨",
      "ĠnhÃ ¡y",
      "ĠnhÃ ©t",
      "ĠV n",
      "ĠV áº«n",
      "ĠV irus",
      "ĠhÃ ²",
      "ĠhÃ ¡t",
      "ĠÃ Ģ",
      "ĠÃ Ĥ",
      "ĠÃ ©o",
      "Ġho áº¡",
      "Ġho Äĥ",
      "Ġho Ãłng",
      "Ġ4 3",
      "Ġ4 5",
      "ĠL áº¡i",
      "ĠL as",
      "ĠL um",
      "ĠL TE",
      "ĠL ike",
      "Ġy a",
      "Ġy á»ĥ",
      "ĠÄĲ Æ°á»£c",
      "ĠÄĲ áº¿n",
      "ĠÄĲ áº¹p",
      "ĠÄĲ iá»ĥm",
      "Ġf ai",
      "Ġf it",
      "Ġph u",
      "us er",
      "ĠG S",
      "ĠI p",
      "ĠI fan",
      "Ġw i",
      "at ion",
      "Æ°á»Ŀ m",
      "Ġgá» ¡",
      "ĠX A",
      "ĠX E",
      "ĠX em",
      "tr Æ¡n",
      "tr á»«",
      "Ġla ser",
      "Äĳ a",
      "Äĳ i",
      "Äĳ iá»ĩn",
      "Äĳ Ã¢y",
      "Ġlo áº±ng",
      "Ġlo ve",
      "ĠR A",
      "ĠR á»ĵi",
      "ĠR om",
      "ĠR ep",
      "Ġma h",
      "ĠK iá»ĥu",
      "ĠK áº¿t",
      "ĠK ho",
      "ĠK hÃ¡",
      "Ġ10 400",
      "oid id",
      "Ġe lu",
      ".... ..",
      "ĠD ual",
      "et a",
      "ĠphÃ¡ p",
      "Ġz alo",
      "Ġká» ĩ",
      "Ġkho a",
      "ĠW IN",
      "hi x",
      "Ġngo Ã¡i",
      "Ġchu Ã´ng",
      "Ġco py",
      "Ġca p",
      "Ġvi rus",
      "ad e",
      "to ot",
      "Ġo ai",
      "Ġnháº¡ t",
      "ĠtÃŃ m",
      "Ġngá» ¯",
      "Ġngá» Ńa",
      "ĠchÃª nh",
      "Ġj av",
      "Ġphá» ĳi",
      "Ġta ble",
      "uá»Ļ i",
      "?? ??",
      "Ġzen phone",
      "ho p",
      "ĠE dge",
      "Ġthu Ãª",
      "ĠChá» Ŀ",
      "Ng Ãły",
      "Ng he",
      "Ġbo x",
      "Ġba ss",
      "Ġ:)) ))",
      "th eo",
      "ĠU X",
      "ĠTh Ãł",
      "ĠTh eo",
      "ĠTh ank",
      "Tr Ã´ng",
      "og en",
      "Ch Æ°a",
      "Ch uáº©n",
      "ul se",
      "ĠCháº £",
      "Ġsp ace",
      "Ġsp ort",
      "Ġ12 8",
      "Ġthá»§ a",
      "Ġmobi istar",
      "chá» ©",
      "Ġ201 2",
      "ÄĲá» «ng",
      "ĠÄĲá» ¡",
      "lo ad",
      "Chá» Ŀ",
      "ate k",
      "30 3",
      "Ġ^ _^",
      "Ġgo od",
      "ĠCH ÃģN",
      "ĠChÃ ºc",
      "ĠChÃ Ńnh",
      "as onic",
      "tháº ¿",
      "Ġhá»Ļ p",
      "Ġan yw",
      "Ġháº£ o",
      "ĠTH ÃĮ",
      "ĠTháº ¥t",
      "ĠTháº ¥y",
      "ĠHD R",
      "ly m",
      "ĠĠ Ġ",
      "com o",
      "ed mi",
      "Ġti en",
      "Ġlog o",
      "av i",
      "má» įi",
      "Ġ0 9",
      "á»Ľ p",
      "Ġfla gs",
      "Æ¯ á»",
      "Æ¯ NG",
      "17 5",
      "55 00",
      "Iá» ĤU",
      "bá» Ļ",
      "gi oidid",
      "ĠnÃ ©n",
      "Ġsh arp",
      "ĠMa x",
      "Bá» ı",
      "ChÃ ºc",
      "bo ard",
      "âĢ Ŀ",
      "ĠÃ¡ p",
      "ĠGo ogle",
      "Ġres et",
      "ĠUS D",
      "EEEE EEEE",
      "Há» ĩ",
      "LE D",
      "Ġsho p",
      "Ġpass port",
      "ĠSh ine",
      "ĠSmart phone",
      "ĠMobi le",
      "ĠThÃ ´i",
      "ĠThÃ Ńch",
      "Ġrest art",
      "Ġrest ore",
      "18 5",
      "Mb ps",
      "lic k",
      "Ġgr ay",
      "Ġtá»ķ ng",
      "ĠAPP LE",
      "ĠhÃ³ a",
      "Ġligh tning",
      "her e",
      "ĠÃª m",
      "Ġáº¤ n",
      "ĠchÃ¬ m",
      "Ġsnap dragon",
      "ĠdÃµ i",
      "otos hop",
      "ĠPan asonic",
      "Ġtop ic",
      "Ġká»ģ nh",
      "ĠUltr a",
      "ĠPremi um",
      "HON E",
      "Smart phone",
      "gap ixel",
      "niv ers",
      "ĠâĢ ľ",
      "Ġcuá»ĵ ng",
      "Ġdat a",
      "ĠrÆ°á» ¡i",
      "Ġnhiá»ħ u",
      "ĠSÃ¡m ung",
      "ĠCyan ogen",
      "enchmar k",
      "ĠLas er",
      "ĠLum ina",
      "Ġyá»ĥ u",
      "ĠRep eater",
      "Ġelu ga",
      "Ġjav a",
      "Ġtable t",
      "ĠThank s",
      "Ġflags hip",
      "gioidid ong",
      "! :))",
      "\" ,",
      "( (",
      ") :",
      ") ..",
      ", .",
      ", ....",
      "- -",
      "0 75",
      "1 000",
      "2 1",
      "2 7",
      "3 2",
      "3 6",
      "4 7",
      "4 9",
      "4 50",
      "6 000",
      "6 300",
      "8 8",
      "8 00",
      "9 7",
      "9 10",
      "? ),",
      "A P",
      "A Y",
      "A nh",
      "B Ãªn",
      "B Ã¬nh",
      "B phone",
      "B áº£o",
      "B ook",
      "C D",
      "C Ã¹ng",
      "C ho",
      "C anon",
      "D G",
      "D O",
      "D ep",
      "D á»±",
      "F C",
      "F an",
      "G A",
      "G I",
      "G S",
      "G o",
      "G Ã¬",
      "G áº¯n",
      "G iá»Ŀ",
      "H i",
      "H o",
      "H ai",
      "H Æ¡i",
      "H ic",
      "H Ã£y",
      "H ÃĶNG",
      "H tc",
      "I V",
      "I p",
      "I Phone",
      "L G",
      "L Ãł",
      "L Ã½",
      "L ei",
      "L AC",
      "L á»Ľp",
      "M B",
      "M D",
      "M S",
      "M ay",
      "M ov",
      "M obi",
      "N Ã¢ng",
      "N Äĥm",
      "O NG",
      "O TE",
      "P hi",
      "P al",
      "R AM",
      "S E",
      "S s",
      "S ung",
      "S áº£n",
      "T V",
      "T hÃ¬",
      "T uy",
      "T áº§m",
      "T Æ°á»Łng",
      "T á»ĳc",
      "T iáº¿c",
      "U i",
      "U ÃĶ",
      "V N",
      "V Æ¡",
      "V ote",
      "V Ã£i",
      "V áºŃy",
      "V á»ģ",
      "W P",
      "W S",
      "W o",
      "W indow",
      "X V",
      "Y Ãªu",
      "^ ^",
      "a ptop",
      "a ge",
      "a ke",
      "b a",
      "b e",
      "b á»ģn",
      "b uck",
      "b enchmark",
      "c Ã¢",
      "c Ã¹i",
      "d d",
      "d á»",
      "d oid",
      "d ep",
      "e h",
      "e ng",
      "e ag",
      "e gapixel",
      "e gioididong",
      "f e",
      "f r",
      "f re",
      "g o",
      "g on",
      "h on",
      "h ay",
      "h oi",
      "h iÃªn",
      "h and",
      "i atek",
      "j c",
      "j s",
      "k B",
      "k há»",
      "k er",
      "k ho",
      "k iáº¿m",
      "k av",
      "k hÃ¡",
      "l m",
      "l áº§n",
      "l Æ°á»Ľt",
      "l ink",
      "l ph",
      "m ay",
      "m áº¥t",
      "m uá»ĳn",
      "m ware",
      "n ay",
      "n ch",
      "n áº£n",
      "n Äĥm",
      "o u",
      "o st",
      "p t",
      "p en",
      "p ac",
      "p ut",
      "r c",
      "r t",
      "r am",
      "r ac",
      "r at",
      "r oid",
      "r mware",
      "s d",
      "s i",
      "s áº£n",
      "s ony",
      "s Ã¡ng",
      "s im",
      "s áº¡c",
      "s iÃªu",
      "s Ã³ng",
      "t a",
      "t há»",
      "t hÃ¬",
      "t áº¥t",
      "t at",
      "t tr",
      "t áºŃn",
      "t á»«",
      "t Ã³m",
      "u xe",
      "v n",
      "v Ã´",
      "v an",
      "v áºŃy",
      "v ice",
      "w w",
      "w ay",
      "w er",
      "w ink",
      "x iaomi",
      "z u",
      "z z",
      "¡ m",
      "¡ u",
      "¦ ng",
      "§ a",
      "ª m",
      "® T",
      "¯ m",
      "¯ t",
      "± oc",
      "µ ng",
      "¶ T",
      "¸ P",
      "¹ ng",
      "Ã ī",
      "Ã į",
      "Ã Ŀ",
      "Ã ©m",
      "â Ĥ",
      "â ĺ",
      "Ġ áº",
      "Ġ Æ¡",
      "Ġ ao",
      "Ġ ung",
      "Ġ en",
      "Ġ eo",
      "Ġ Æ°Æ¡ng",
      "Ġ áº¥m",
      "Ġ Ã¡o",
      "Ġ !!!!",
      "Ġ áº¹",
      "Ġ áº¾",
      "Ġ ???",
      "Ġ Ãºp",
      "Ġ áº¢nh",
      "Ġ *#",
      "Ģ N",
      "Ĥ n",
      "Ĩ T",
      "Ĩ U",
      "Ķ I",
      "Ļ p",
      "ļ C",
      "ļ I",
      "Ł n",
      "Ń c",
      "á» ¡",
      "á» ¨",
      "á» Ĵ",
      "á» ķ",
      "á» Ń",
      "á» Ľt",
      "á» ĨT",
      "áº º",
      "áº ¼",
      "áº Ńm",
      "ng Ãły",
      "ng ry",
      "Ġc Æ°",
      "Ġc áº¥t",
      "Ġc ang",
      "Ġc Ãły",
      "Ġc ac",
      "Ġc uá»ĳn",
      "Ġc áº¥n",
      "Ġc Æ¡n",
      "Ġc áºŃy",
      "Ġc pu",
      "Ġc lick",
      "Ġt g",
      "Ġt Ãª",
      "Ġt ao",
      "Ġt Ãłi",
      "Ġt Ã²",
      "Ġt áº§",
      "Ġt áº¯m",
      "Ġt áº»",
      "Ġt Ã¡i",
      "Ġt Æ°á»Ŀng",
      "Ġt uyÃªn",
      "Ġt áº¥n",
      "Ġt iá»ĩm",
      "Ġt ie",
      "Ġt ÃŃt",
      "Ġn c",
      "Ġn e",
      "Ġn ua",
      "Ġn áº¡n",
      "Ġn áº¥y",
      "Ġn Æ¡i",
      "Ġn iÃªn",
      "Ġn ikon",
      "ĠÄĳ áº£",
      "ĠÄĳ Ãªn",
      "ĠÄĳ ung",
      "ĠÄĳ áº£o",
      "ĠÄĳ Ãłnh",
      "ĠÄĳ Ãło",
      "ĠÄĳ uá»ĳi",
      "ĠÄĳ ep",
      "ĠÄĳ Ãłm",
      "hÃ ³",
      "hÃ ºt",
      "hÃ ´m",
      "Ġm x",
      "Ġm Ã¬",
      "Ġm Ã²",
      "Ġm Ã¡c",
      "Ġm Ã¢m",
      "Ġm Ã¨",
      "Ġm icro",
      "Ġm acbook",
      "Ġm Ah",
      "Ġm iáº¿ng",
      "Ġm Ã¨o",
      "Ġm egapixel",
      "Ġl Æ¡",
      "Ġl á»ĵ",
      "Ġl Ã´i",
      "Ġl an",
      "Ġl áº·",
      "Ġl anh",
      "Ġl áº»",
      "Ġl áº¥p",
      "Ġl Ã¡c",
      "Ġl Æ°á»£t",
      "Ġl áº·t",
      "Ġl Ã¨",
      "Ġl Ãµ",
      "Ġl áº±ng",
      "Ġl áº·p",
      "Ġl áº¯ng",
      "Ġl ieu",
      "Ġl Æ°á»¡ng",
      "Ġv Ã¹",
      "Ġv ua",
      "Ġv Ã¹ng",
      "Ġv iá»ĩn",
      "Ġv áº¡n",
      "Ġv er",
      "Ġv ai",
      "Ġv Ã£",
      "Ġv Ãµ",
      "Ġv ÃŃt",
      "Ġv áº¡ch",
      "Ġk y",
      "Ġk em",
      "Ġk iÃª",
      "nh iá»ģu",
      "nh ei",
      "Ġb Ãł",
      "Ġb on",
      "Ġb áº£",
      "Ġb Ãª",
      "Ġb Ã´",
      "Ġb om",
      "Ġb Ã£",
      "Ġb ro",
      "Ġb Ã©t",
      "Ġb á»ĳi",
      "Ġb Ãło",
      "Ġb ÃŃt",
      "Ġb Ãºa",
      "Ġb áº¡ch",
      "Ġb eta",
      "Ġs d",
      "Ġs ua",
      "Ġs ay",
      "Ġs an",
      "Ġs en",
      "Ġs áº¥u",
      "Ġs anh",
      "Ġs áº£o",
      "Ġs Æ°Æ¡",
      "Ġs ac",
      "Ġs áº¯t",
      "Ġs Ã¡ch",
      "Ġs Æ°á»Ľt",
      "Ġs áº¡ch",
      "Ġs áº¿p",
      "Ġs hip",
      "Ġs tar",
      "Ġs yn",
      "Ġh on",
      "Ġh an",
      "Ġh ok",
      "Ġh et",
      "Ġh iáº¿u",
      "Ġh jc",
      "Ġg Ãł",
      "Ġg Ã²",
      "Ġg Äĥ",
      "Ġg an",
      "Ġg Ãłng",
      "Ġg Ã£"
    ]
  }
}